{
  "version": "1.0",
  "truncation": null,
  "padding": null,
  "added_tokens": [
    {
      "id": 0,
      "content": "[UNK]",
      "single_word": false,
      "lstrip": false,
      "rstrip": false,
      "normalized": false,
      "special": true
    },
    {
      "id": 1,
      "content": "[PAD]",
      "single_word": false,
      "lstrip": false,
      "rstrip": false,
      "normalized": false,
      "special": true
    },
    {
      "id": 2,
      "content": "[CLS]",
      "single_word": false,
      "lstrip": false,
      "rstrip": false,
      "normalized": false,
      "special": true
    },
    {
      "id": 3,
      "content": "[SEP]",
      "single_word": false,
      "lstrip": false,
      "rstrip": false,
      "normalized": false,
      "special": true
    },
    {
      "id": 4,
      "content": "[MASK]",
      "single_word": false,
      "lstrip": false,
      "rstrip": false,
      "normalized": false,
      "special": true
    }
  ],
  "normalizer": {
    "type": "Sequence",
    "normalizers": [
      {
        "type": "NFD"
      },
      {
        "type": "StripAccents"
      }
    ]
  },
  "pre_tokenizer": {
    "type": "Whitespace"
  },
  "post_processor": null,
  "decoder": null,
  "model": {
    "type": "WordPiece",
    "unk_token": "[UNK]",
    "continuing_subword_prefix": "##",
    "max_input_chars_per_word": 100,
    "vocab": {
      "[UNK]": 0,
      "[PAD]": 1,
      "[CLS]": 2,
      "[SEP]": 3,
      "[MASK]": 4,
      "!": 5,
      "\"": 6,
      "#": 7,
      "$": 8,
      "&": 9,
      "'": 10,
      "(": 11,
      ")": 12,
      ",": 13,
      "-": 14,
      ".": 15,
      "/": 16,
      "0": 17,
      "1": 18,
      "2": 19,
      "3": 20,
      "4": 21,
      "5": 22,
      "6": 23,
      "7": 24,
      "8": 25,
      "9": 26,
      ":": 27,
      ";": 28,
      "?": 29,
      "[": 30,
      "]": 31,
      "a": 32,
      "b": 33,
      "c": 34,
      "d": 35,
      "e": 36,
      "f": 37,
      "g": 38,
      "h": 39,
      "i": 40,
      "j": 41,
      "k": 42,
      "l": 43,
      "m": 44,
      "n": 45,
      "o": 46,
      "p": 47,
      "q": 48,
      "r": 49,
      "s": 50,
      "t": 51,
      "u": 52,
      "v": 53,
      "w": 54,
      "x": 55,
      "y": 56,
      "z": 57,
      "£": 58,
      "­": 59,
      "–": 60,
      "—": 61,
      "‘": 62,
      "’": 63,
      "“": 64,
      "”": 65,
      "…": 66,
      "##i": 67,
      "##l": 68,
      "##a": 69,
      "##r": 70,
      "##s": 71,
      "##k": 72,
      "##n": 73,
      "##t": 74,
      "##g": 75,
      "##m": 76,
      "##u": 77,
      "##b": 78,
      "##h": 79,
      "##e": 80,
      "##y": 81,
      "##d": 82,
      "##o": 83,
      "##v": 84,
      "##p": 85,
      "##j": 86,
      "##1": 87,
      "##8": 88,
      "##z": 89,
      "##f": 90,
      "##5": 91,
      "##6": 92,
      "##2": 93,
      "##c": 94,
      "##w": 95,
      "##3": 96,
      "##4": 97,
      "##0": 98,
      "##9": 99,
      "##7": 100,
      "##”": 101,
      "##q": 102,
      "##.": 103,
      "##,": 104,
      "##!": 105,
      "##x": 106,
      "###": 107,
      "##'": 108,
      "##(": 109,
      "##an": 110,
      "##er": 111,
      "##en": 112,
      "##ar": 113,
      "##al": 114,
      "##at": 115,
      "##ang": 116,
      "##ah": 117,
      "##in": 118,
      "##em": 119,
      "##am": 120,
      "##as": 121,
      "##kan": 122,
      "##el": 123,
      "di": 124,
      "men": 125,
      "##ak": 126,
      "##ad": 127,
      "se": 128,
      "##un": 129,
      "ke": 130,
      "ber": 131,
      "##um": 132,
      "##si": 133,
      "##tu": 134,
      "##ur": 135,
      "##ik": 136,
      "##ap": 137,
      "per": 138,
      "##il": 139,
      "##ing": 140,
      "##on": 141,
      "##eng": 142,
      "##ya": 143,
      "##or": 144,
      "##ai": 145,
      "##ul": 146,
      "##ala": 147,
      "##us": 148,
      "mem": 149,
      "ter": 150,
      "##ta": 151,
      "yang": 152,
      "##es": 153,
      "##ari": 154,
      "##ada": 155,
      "in": 156,
      "##ara": 157,
      "##ol": 158,
      "##ir": 159,
      "##ag": 160,
      "meng": 161,
      "##uk": 162,
      "dan": 163,
      "##ih": 164,
      "##ek": 165,
      "##is": 166,
      "##eb": 167,
      "pen": 168,
      "##ut": 169,
      "##alam": 170,
      "ku": 171,
      "##et": 172,
      "un": 173,
      "##it": 174,
      "##uh": 175,
      "##ia": 176,
      "##aj": 177,
      "##id": 178,
      "##ump": 179,
      "pem": 180,
      "##eg": 181,
      "##aan": 182,
      "an": 183,
      "peng": 184,
      "##atan": 185,
      "##ab": 186,
      "##eri": 187,
      "sem": 188,
      "##ukan": 189,
      "##sia": 190,
      "sel": 191,
      "##ung": 192,
      "##ep": 193,
      "##ama": 194,
      "##aya": 195,
      "##ed": 196,
      "seb": 197,
      "##tuk": 198,
      "##angan": 199,
      "ini": 200,
      "##ga": 201,
      "kuala": 202,
      "##ti": 203,
      "##ud": 204,
      "untuk": 205,
      "##aw": 206,
      "lump": 207,
      "memb": 208,
      "lumpur": 209,
      "dalam": 210,
      "##im": 211,
      "##ahan": 212,
      "##and": 213,
      "##amp": 214,
      "ker": 215,
      "##nya": 216,
      "deng": 217,
      "dengan": 218,
      "##ian": 219,
      "##per": 220,
      "is": 221,
      "##os": 222,
      "##uan": 223,
      "##oh": 224,
      "##ay": 225,
      "##akan": 226,
      "##pada": 227,
      "##agi": 228,
      "itu": 229,
      "mas": 230,
      "pel": 231,
      "pada": 232,
      "##aran": 233,
      "pr": 234,
      "##ain": 235,
      "##ok": 236,
      "##om": 237,
      "mel": 238,
      "sek": 239,
      "tah": 240,
      "menj": 241,
      "##adi": 242,
      "##ebih": 243,
      "##epas": 244,
      "hari": 245,
      "##ua": 246,
      "##bang": 247,
      "##ent": 248,
      "##aru": 249,
      "##asi": 250,
      "##ingg": 251,
      "mala": 252,
      "ser": 253,
      "##had": 254,
      "##ini": 255,
      "as": 256,
      "##aki": 257,
      "selepas": 258,
      "tahun": 259,
      "kem": 260,
      "##ysia": 261,
      "kel": 262,
      "##ika": 263,
      "malaysia": 264,
      "al": 265,
      "ak": 266,
      "lebih": 267,
      "bers": 268,
      "berk": 269,
      "am": 270,
      "dari": 271,
      "##tr": 272,
      "##apor": 273,
      "neg": 274,
      "##ana": 275,
      "##ula": 276,
      "##uat": 277,
      "meny": 278,
      "mer": 279,
      "##ant": 280,
      "ket": 281,
      "rm": 282,
      "##ter": 283,
      "##end": 284,
      "##ati": 285,
      "bagi": 286,
      "dun": 287,
      "##ip": 288,
      "##emp": 289,
      "##hadap": 290,
      "dunia": 291,
      "20": 292,
      "bah": 293,
      "##ew": 294,
      "##alan": 295,
      "##ata": 296,
      "##agai": 297,
      "ju": 298,
      "pas": 299,
      "##ib": 300,
      "##ita": 301,
      "##ra": 302,
      "##sa": 303,
      "##usi": 304,
      "##asa": 305,
      "##orang": 306,
      "pend": 307,
      "mah": 308,
      "pol": 309,
      "##yar": 310,
      "##ch": 311,
      "dit": 312,
      "seorang": 313,
      "kes": 314,
      "akan": 315,
      "ban": 316,
      "bel": 317,
      "##up": 318,
      "##atkan": 319,
      "##ind": 320,
      "mend": 321,
      "##ulan": 322,
      "terhadap": 323,
      "rum": 324,
      "##iv": 325,
      "##uar": 326,
      "##alu": 327,
      "##atu": 328,
      "kepada": 329,
      "lel": 330,
      "lon": 331,
      "tid": 332,
      "##tara": 333,
      "##int": 334,
      "lelaki": 335,
      "tidak": 336,
      "bes": 337,
      "##aman": 338,
      "dil": 339,
      "##und": 340,
      "semalam": 341,
      "polis": 342,
      "rumah": 343,
      "##le": 344,
      "##ku": 345,
      "##ej": 346,
      "##amb": 347,
      "perl": 348,
      "##tau": 349,
      "sebagai": 350,
      "negara": 351,
      "ap": 352,
      "kon": 353,
      "pet": 354,
      "sen": 355,
      "sini": 356,
      "##uj": 357,
      "##yat": 358,
      "##ja": 359,
      "##00": 360,
      "##asan": 361,
      "em": 362,
      "lapor": 363,
      "pal": 364,
      "si": 365,
      "##ahkan": 366,
      "dir": 367,
      "##eka": 368,
      "peny": 369,
      "ketika": 370,
      "baharu": 371,
      "tan": 372,
      "##az": 373,
      "##yak": 374,
      "##don": 375,
      "##ot": 376,
      "##anan": 377,
      "dik": 378,
      "##sid": 379,
      "##ong": 380,
      "ind": 381,
      "##uhan": 382,
      "daripada": 383,
      "london": 384,
      "ad": 385,
      "bukan": 386,
      "dat": 387,
      "ma": 388,
      "sh": 389,
      "teng": 390,
      "##ig": 391,
      "##san": 392,
      "##teri": 393,
      "##arkan": 394,
      "menc": 395,
      "kej": 396,
      "##ingan": 397,
      "at": 398,
      "rak": 399,
      "##ob": 400,
      "##ali": 401,
      "##angg": 402,
      "sej": 403,
      "unit": 404,
      "pemain": 405,
      "bersama": 406,
      "besar": 407,
      "dua": 408,
      "man": 409,
      "th": 410,
      "##cara": 411,
      "##angk": 412,
      "pers": 413,
      "memper": 414,
      "antara": 415,
      "202": 416,
      "ditahan": 417,
      "82": 418,
      "beb": 419,
      "ch": 420,
      "ib": 421,
      "syar": 422,
      "##tama": 423,
      "##ug": 424,
      "##ub": 425,
      "##ec": 426,
      "##wa": 427,
      "##era": 428,
      "##atus": 429,
      "ked": 430,
      "perd": 431,
      "terb": 432,
      "##aja": 433,
      "##ajaan": 434,
      "##edia": 435,
      "kerajaan": 436,
      "isra": 437,
      "pasukan": 438,
      "datuk": 439,
      "israel": 440,
      "bek": 441,
      "kom": 442,
      "min": 443,
      "##iga": 444,
      "##dang": 445,
      "##alah": 446,
      "##askan": 447,
      "##api": 448,
      "##apa": 449,
      "##ila": 450,
      "##ira": 451,
      "sebel": 452,
      "menjadi": 453,
      "serta": 454,
      "juta": 455,
      "united": 456,
      "perdana": 457,
      "&#": 458,
      "bol": 459,
      "pan": 460,
      "temp": 461,
      "##hing": 462,
      "##arah": 463,
      "##ina": 464,
      "diper": 465,
      "sep": 466,
      "##iti": 467,
      "pemb": 468,
      "mereka": 469,
      "sebelum": 470,
      "ag": 471,
      "atau": 472,
      "ben": 473,
      "gaz": 474,
      "kini": 475,
      "lalu": 476,
      "maj": 477,
      "new": 478,
      "wan": 479,
      "##usia": 480,
      "##ca": 481,
      "##anc": 482,
      "##anya": 483,
      "##erapa": 484,
      "##inc": 485,
      "dib": 486,
      "menteri": 487,
      "##akin": 488,
      "##akwa": 489,
      "ses": 490,
      "seg": 491,
      "berm": 492,
      "##ikal": 493,
      "peratus": 494,
      "##est": 495,
      "##epan": 496,
      "##uduk": 497,
      "##inggi": 498,
      "kemb": 499,
      "rm1": 500,
      "rakyat": 501,
      "beberapa": 502,
      "bekas": 503,
      "gaza": 504,
      "jalan": 505,
      "kata": 506,
      "me": 507,
      "or": 508,
      "par": 509,
      "rem": 510,
      "sus": 511,
      "seri": 512,
      "tr": 513,
      "##isi": 514,
      "##aik": 515,
      "##su": 516,
      "##utu": 517,
      "##osi": 518,
      "##pat": 519,
      "dis": 520,
      "##ilik": 521,
      "akib": 522,
      "##usim": 523,
      "empat": 524,
      "821": 525,
      "akibat": 526,
      "depan": 527,
      "kaw": 528,
      "satu": 529,
      "##iz": 530,
      "##lah": 531,
      "##tan": 532,
      "##ma": 533,
      "##uah": 534,
      "##eh": 535,
      "##po": 536,
      "##anj": 537,
      "##amin": 538,
      "secara": 539,
      "##ester": 540,
      "##ampir": 541,
      "isu": 542,
      "mendap": 543,
      "##iver": 544,
      "##siden": 545,
      "tengah": 546,
      "orang": 547,
      "ar": 548,
      "bil": 549,
      "bay": 550,
      "le": 551,
      "media": 552,
      "ras": 553,
      "utama": 554,
      "##esiden": 555,
      "##og": 556,
      "##od": 557,
      "##pa": 558,
      "##aling": 559,
      "##adan": 560,
      "##uran": 561,
      "##urang": 562,
      "##urut": 563,
      "##ikat": 564,
      "##ilai": 565,
      "ters": 566,
      "mengg": 567,
      "##ihan": 568,
      "##abila": 569,
      "##tikan": 570,
      "memberi": 571,
      "##ima": 572,
      "masa": 573,
      "presiden": 574,
      "##inggal": 575,
      "apabila": 576,
      "syarikat": 577,
      "bak": 578,
      "musim": 579,
      "tinggi": 580,
      "##ram": 581,
      "##kam": 582,
      "##ton": 583,
      "##gg": 584,
      "##ea": 585,
      "##any": 586,
      "##ensi": 587,
      "did": 588,
      "meninggal": 589,
      "berusia": 590,
      "##umum": 591,
      "##apan": 592,
      "##onal": 593,
      "penduduk": 594,
      "bantu": 595,
      "dilapor": 596,
      "kedua": 597,
      "agensi": 598,
      "wanita": 599,
      "for": 600,
      "ham": 601,
      "has": 602,
      "kan": 603,
      "kira": 604,
      "liver": 605,
      "pih": 606,
      "sa": 607,
      "st": 608,
      "##if": 609,
      "##ic": 610,
      "##ail": 611,
      "##mi": 612,
      "##hid": 613,
      "##peng": 614,
      "##war": 615,
      "##aruh": 616,
      "##angsa": 617,
      "##aha": 618,
      "##ast": 619,
      "##adar": 620,
      "##una": 621,
      "##urus": 622,
      "pern": 623,
      "##ebut": 624,
      "pengg": 625,
      "semula": 626,
      "semakin": 627,
      "##ampung": 628,
      "##ayah": 629,
      "kelab": 630,
      "alam": 631,
      "mahkam": 632,
      "perlu": 633,
      "8211": 634,
      "##pool": 635,
      "didakwa": 636,
      "liverpool": 637,
      "pihak": 638,
      "mahkamah": 639,
      ").": 640,
      "),": 641,
      "aw": 642,
      "dap": 643,
      "har": 644,
      "hampir": 645,
      "jaya": 646,
      "kampung": 647,
      "og": 648,
      "pagi": 649,
      "saya": 650,
      "vid": 651,
      "##af": 652,
      "##tai": 653,
      "##eo": 654,
      "##oja": 655,
      "##enal": 656,
      "##alik": 657,
      "##emi": 658,
      "menurut": 659,
      "##akukan": 660,
      "##adil": 661,
      "##untu": 662,
      "kep": 663,
      "##umb": 664,
      "##uru": 665,
      "##uka": 666,
      "pembang": 667,
      "sebuah": 668,
      "##uda": 669,
      "masih": 670,
      "negeri": 671,
      "mahu": 672,
      "##chester": 673,
      "petaling": 674,
      "maut": 675,
      "atas": 676,
      "manchester": 677,
      "thail": 678,
      "bermula": 679,
      "kemboja": 680,
      "susulan": 681,
      "tersebut": 682,
      "##astle": 683,
      "video": 684,
      "thailand": 685,
      "000": 686,
      "bar": 687,
      "band": 688,
      "bulan": 689,
      "fl": 690,
      "im": 691,
      "pi": 692,
      "rus": 693,
      "tel": 694,
      "tik": 695,
      "tet": 696,
      "tind": 697,
      "##ikan": 698,
      "##li": 699,
      "##ko": 700,
      "##hir": 701,
      "##castle": 702,
      "##wan": 703,
      "##erika": 704,
      "sedang": 705,
      "##uri": 706,
      "pert": 707,
      "##ort": 708,
      "##aiwan": 709,
      "terl": 710,
      "mengh": 711,
      "##ajar": 712,
      "##idu": 713,
      "anwar": 714,
      "semp": 715,
      "##awa": 716,
      "membuat": 717,
      "kerana": 718,
      "menjel": 719,
      "amerika": 720,
      "##ividu": 721,
      "petr": 722,
      "individu": 723,
      "shah": 724,
      "memperk": 725,
      "newcastle": 726,
      "mendapatkan": 727,
      "##pengaruh": 728,
      "tindakan": 729,
      "13": 730,
      "10": 731,
      "baru": 732,
      "ek": 733,
      "fiz": 734,
      "guru": 735,
      "jam": 736,
      "ken": 737,
      "liga": 738,
      "pil": 739,
      "put": 740,
      "ram": 741,
      "sukan": 742,
      "str": 743,
      "sosi": 744,
      "tari": 745,
      "tadi": 746,
      "wil": 747,
      "##lim": 748,
      "##ris": 749,
      "##kat": 750,
      "##kang": 751,
      "##yen": 752,
      "##ow": 753,
      "##jaya": 754,
      "##40": 755,
      "##erm": 756,
      "##erusi": 757,
      "##erob": 758,
      "##enai": 759,
      "##enaan": 760,
      "##asatan": 761,
      "##eli": 762,
      "##aku": 763,
      "sehing": 764,
      "keb": 765,
      "kebang": 766,
      "##ikut": 767,
      "perk": 768,
      "mengenai": 769,
      "pent": 770,
      "##abatan": 771,
      "serangan": 772,
      "berkenaan": 773,
      "##trak": 774,
      "kontrak": 775,
      "siasatan": 776,
      "##ecah": 777,
      "minyak": 778,
      "kawasan": 779,
      "bakal": 780,
      "bantuan": 781,
      "dilaporkan": 782,
      "pernah": 783,
      "ogos": 784,
      "fizikal": 785,
      "sosial": 786,
      "##eroboh": 787,
      "sehingga": 788,
      "bum": 789,
      "buat": 790,
      "dah": 791,
      "el": 792,
      "en": 793,
      "fil": 794,
      "huj": 795,
      "haiwan": 796,
      "ia": 797,
      "jum": 798,
      "kurang": 799,
      "la": 800,
      "mak": 801,
      "mus": 802,
      "mes": 803,
      "muda": 804,
      "ole": 805,
      "pek": 806,
      "ron": 807,
      "raya": 808,
      "rund": 809,
      "ranc": 810,
      "sul": 811,
      "tak": 812,
      "tiga": 813,
      "wang": 814,
      "##ion": 815,
      "##lik": 816,
      "##st": 817,
      "##tem": 818,
      "##etu": 819,
      "##eta": 820,
      "##yaki": 821,
      "##ota": 822,
      "##pind": 823,
      "##jir": 824,
      "##jamin": 825,
      "##13": 826,
      "##eraan": 827,
      "##angat": 828,
      "##angkan": 829,
      "dia": 830,
      "dij": 831,
      "kec": 832,
      "ketu": 833,
      "berh": 834,
      "##sih": 835,
      "##apai": 836,
      "##ulu": 837,
      "terus": 838,
      "##esen": 839,
      "##iri": 840,
      "##ukuh": 841,
      "##eter": 842,
      "pempengaruh": 843,
      "ang": 844,
      "##udi": 845,
      "##andu": 846,
      "masing": 847,
      "##inggu": 848,
      "keluar": 849,
      "menyer": 850,
      "##antan": 851,
      "##atif": 852,
      "kesel": 853,
      "banjir": 854,
      "belia": 855,
      "india": 856,
      "ada": 857,
      "2025": 858,
      "tempatan": 859,
      "benjamin": 860,
      "sesko": 861,
      "parlim": 862,
      "remaja": 863,
      "trump": 864,
      "disyaki": 865,
      "bilion": 866,
      "piala": 867,
      "tarif": 868,
      "oleh": 869,
      "peker": 870,
      "keluarga": 871,
      "parlimen": 872,
      "ah": 873,
      "buk": 874,
      "bint": 875,
      "cita": 876,
      "gen": 877,
      "jerm": 878,
      "kol": 879,
      "kend": 880,
      "lain": 881,
      "luar": 882,
      "mur": 883,
      "peg": 884,
      "sr": 885,
      "su": 886,
      "sara": 887,
      "ten": 888,
      "taw": 889,
      "us": 890,
      "um": 891,
      "was": 892,
      "##lis": 893,
      "##rah": 894,
      "##saan": 895,
      "##k13": 896,
      "##ez": 897,
      "##pek": 898,
      "##jing": 899,
      "##caya": 900,
      "##anu": 901,
      "##ateg": 902,
      "##inan": 903,
      "##els": 904,
      "dig": 905,
      "##aksan": 906,
      "##adik": 907,
      "##unya": 908,
      "kek": 909,
      "kesih": 910,
      "berl": 911,
      "berada": 912,
      "beradik": 913,
      "pertu": 914,
      "##ilan": 915,
      "##usan": 916,
      "terk": 917,
      "##esa": 918,
      "##araan": 919,
      "mengumum": 920,
      "##ihat": 921,
      "##ekat": 922,
      "##istr": 923,
      "kuasa": 924,
      "##ital": 925,
      "pengh": 926,
      "pengadil": 927,
      "##tif": 928,
      "##ahanan": 929,
      "##entera": 930,
      "rmk13": 931,
      "##enda": 932,
      "juga": 933,
      "belum": 934,
      "emas": 935,
      "laporan": 936,
      "diri": 937,
      "adalah": 938,
      "##angka": 939,
      "persek": 940,
      "ibrah": 941,
      "boleh": 942,
      "panas": 943,
      "##hington": 944,
      "majistr": 945,
      "##ogram": 946,
      "pembangkang": 947,
      "bandar": 948,
      "russia": 949,
      "pilihan": 950,
      "strateg": 951,
      "wilayah": 952,
      "kebangsaan": 953,
      "ketua": 954,
      "pekerja": 955,
      "bintang": 956,
      "jerman": 957,
      "washington": 958,
      "kesihatan": 959,
      "mengumumkan": 960,
      "ibrahim": 961,
      "majistret": 962,
      "abang": 963,
      "bh": 964,
      "bas": 965,
      "batu": 966,
      "balik": 967,
      "dew": 968,
      "darah": 969,
      "gol": 970,
      "hil": 971,
      "hing": 972,
      "jur": 973,
      "joh": 974,
      "jabatan": 975,
      "kl": 976,
      "kil": 977,
      "leg": 978,
      "mar": 979,
      "malam": 980,
      "met": 981,
      "minggu": 982,
      "nilai": 983,
      "pul": 984,
      "puk": 985,
      "pga": 986,
      "pula": 987,
      "sis": 988,
      "sama": 989,
      "tul": 990,
      "tump": 991,
      "teg": 992,
      "xp": 993,
      "##rik": 994,
      "##kr": 995,
      "##tor": 996,
      "##uang": 997,
      "##bagai": 998,
      "##ham": 999,
      "##ey": 1000,
      "##eor": 1001,
      "##dc": 1002,
      "##dia": 1003,
      "##pl": 1004,
      "##janj": 1005,
      "##zig": 1006,
      "##wangan": 1007,
      "##95": 1008,
      "##erl": 1009,
      "##err": 1010,
      "##eris": 1011,
      "##ena": 1012,
      "##atakan": 1013,
      "##angor": 1014,
      "##inya": 1015,
      "##emb": 1016,
      "##elint": 1017,
      "dih": 1018,
      "menent": 1019,
      "##akat": 1020,
      "##aksi": 1021,
      "seper": 1022,
      "kewangan": 1023,
      "bern": 1024,
      "berb": 1025,
      "##uruh": 1026,
      "##uruhan": 1027,
      "##air": 1028,
      "ins": 1029,
      "ingg": 1030,
      "##iran": 1031,
      "##aga": 1032,
      "penc": 1033,
      "##itan": 1034,
      "anak": 1035,
      "##abit": 1036,
      "##erian": 1037,
      "selangor": 1038,
      "membeli": 1039,
      "##imb": 1040,
      "kereta": 1041,
      "pelbagai": 1042,
      "melakukan": 1043,
      "seksu": 1044,
      "##enterian": 1045,
      "kementerian": 1046,
      "aksi": 1047,
      "##ipzig": 1048,
      "bahawa": 1049,
      "penyer": 1050,
      "tanah": 1051,
      "tanpa": 1052,
      "##ongan": 1053,
      "sejak": 1054,
      "sejarah": 1055,
      "dipercaya": 1056,
      "segelint": 1057,
      "leipzig": 1058,
      "rasmi": 1059,
      "hasil": 1060,
      "##hidm": 1061,
      "pengguna": 1062,
      "tetapi": 1063,
      "sempadan": 1064,
      "menjelang": 1065,
      "juma": 1066,
      "ron95": 1067,
      "rundingan": 1068,
      "rancangan": 1069,
      "ahli": 1070,
      "kenderaan": 1071,
      "murid": 1072,
      "usaha": 1073,
      "dewan": 1074,
      "hingga": 1075,
      "pukul": 1076,
      "sistem": 1077,
      "tular": 1078,
      "tumpuan": 1079,
      "xpdc": 1080,
      "menentang": 1081,
      "seperti": 1082,
      "inggeris": 1083,
      "seksual": 1084,
      "dipercayai": 1085,
      "segelintir": 1086,
      "16": 1087,
      "80": 1088,
      "ab": 1089,
      "asia": 1090,
      "br": 1091,
      "dok": 1092,
      "dekat": 1093,
      "f1": 1094,
      "gr": 1095,
      "ger": 1096,
      "get": 1097,
      "had": 1098,
      "hanya": 1099,
      "kh": 1100,
      "kam": 1101,
      "lagi": 1102,
      "mun": 1103,
      "muh": 1104,
      "moh": 1105,
      "nor": 1106,
      "nasi": 1107,
      "pd": 1108,
      "pah": 1109,
      "rb": 1110,
      "rek": 1111,
      "sah": 1112,
      "ti": 1113,
      "ta": 1114,
      "tal": 1115,
      "tun": 1116,
      "tamp": 1117,
      "up": 1118,
      "wak": 1119,
      "##lum": 1120,
      "##rm": 1121,
      "##ser": 1122,
      "##son": 1123,
      "##kl": 1124,
      "##kin": 1125,
      "##tok": 1126,
      "##ha": 1127,
      "##hil": 1128,
      "##ev": 1129,
      "##daya": 1130,
      "##of": 1131,
      "##pk": 1132,
      "##jata": 1133,
      "##flik": 1134,
      "##cl": 1135,
      "##catan": 1136,
      "##antau": 1137,
      "##anyak": 1138,
      "##enuh": 1139,
      "##atian": 1140,
      "##eman": 1141,
      "##emukan": 1142,
      "##amatkan": 1143,
      "##eluar": 1144,
      "meneri": 1145,
      "seh": 1146,
      "berita": 1147,
      "berjaya": 1148,
      "perm": 1149,
      "perb": 1150,
      "peruntu": 1151,
      "##engg": 1152,
      "##ord": 1153,
      "##aian": 1154,
      "##aitu": 1155,
      "term": 1156,
      "##agu": 1157,
      "mengem": 1158,
      "##ebab": 1159,
      "penuh": 1160,
      "kuantan": 1161,
      "##etik": 1162,
      "undang": 1163,
      "##aji": 1164,
      "and": 1165,
      "anc": 1166,
      "pengurus": 1167,
      "selama": 1168,
      "##ungan": 1169,
      "sebanyak": 1170,
      "##tiv": 1171,
      "##awanan": 1172,
      "##ampu": 1173,
      "##ampasan": 1174,
      "##osh": 1175,
      "##ohanan": 1176,
      "pelan": 1177,
      "pelab": 1178,
      "premi": 1179,
      "sekadar": 1180,
      "##bangsa": 1181,
      "asing": 1182,
      "berkata": 1183,
      "##tern": 1184,
      "ditemukan": 1185,
      "##intah": 1186,
      "##ejar": 1187,
      "perlawanan": 1188,
      "konflik": 1189,
      "senjata": 1190,
      "palest": 1191,
      "palsu": 1192,
      "kejohanan": 1193,
      "##anggar": 1194,
      "antarabangsa": 1195,
      "2026": 1196,
      "chels": 1197,
      "ibu": 1198,
      "diberi": 1199,
      "reman": 1200,
      "kanada": 1201,
      "awal": 1202,
      "dapat": 1203,
      "tiktok": 1204,
      "petrol": 1205,
      "ramai": 1206,
      "menyertai": 1207,
      "beliau": 1208,
      "bukit": 1209,
      "sri": 1210,
      "umum": 1211,
      "legenda": 1212,
      "bernilai": 1213,
      "penyerang": 1214,
      "rekod": 1215,
      "##eluarkan": 1216,
      "menerima": 1217,
      "peruntukan": 1218,
      "##ebabkan": 1219,
      "palestin": 1220,
      "chelsea": 1221,
      "19": 1222,
      "28": 1223,
      "44": 1224,
      "50": 1225,
      "84": 1226,
      "90": 1227,
      "aj": 1228,
      "bi": 1229,
      "be": 1230,
      "bang": 1231,
      "bra": 1232,
      "curi": 1233,
      "dr": 1234,
      "demi": 1235,
      "epl": 1236,
      "gel": 1237,
      "gun": 1238,
      "guna": 1239,
      "hir": 1240,
      "hid": 1241,
      "hos": 1242,
      "ja": 1243,
      "jp": 1244,
      "jen": 1245,
      "jadi": 1246,
      "jamb": 1247,
      "kap": 1248,
      "kump": 1249,
      "kali": 1250,
      "kadar": 1251,
      "khidm": 1252,
      "lapan": 1253,
      "mb": 1254,
      "malah": 1255,
      "milik": 1256,
      "pm": 1257,
      "po": 1258,
      "pecah": 1259,
      "ri": 1260,
      "sy": 1261,
      "sal": 1262,
      "sub": 1263,
      "sumb": 1264,
      "teb": 1265,
      "tangan": 1266,
      "utara": 1267,
      "##ijing": 1268,
      "##la": 1269,
      "##sb": 1270,
      "##sel": 1271,
      "##ni": 1272,
      "##nin": 1273,
      "##tz": 1274,
      "##mar": 1275,
      "##ban": 1276,
      "##hi": 1277,
      "##hatian": 1278,
      "##ean": 1279,
      "##duhan": 1280,
      "##ov": 1281,
      "##pital": 1282,
      "##jas": 1283,
      "##zil": 1284,
      "##ff": 1285,
      "##20": 1286,
      "##04": 1287,
      "##xic": 1288,
      "##ansi": 1289,
      "##antu": 1290,
      "##arik": 1291,
      "##atih": 1292,
      "##asuk": 1293,
      "##asaran": 1294,
      "##eles": 1295,
      "menerusi": 1296,
      "menamatkan": 1297,
      "##adah": 1298,
      "sedia": 1299,
      "##unj": 1300,
      "##unan": 1301,
      "berd": 1302,
      "berus": 1303,
      "berapi": 1304,
      "##apkan": 1305,
      "perang": 1306,
      "pertama": 1307,
      "perpind": 1308,
      "perjanj": 1309,
      "##ingkan": 1310,
      "##uskan": 1311,
      "memandu": 1312,
      "memetik": 1313,
      "terd": 1314,
      "terj": 1315,
      "terengg": 1316,
      "##ariat": 1317,
      "##ebat": 1318,
      "##utan": 1319,
      "kuch": 1320,
      "##itar": 1321,
      "pemer": 1322,
      "pemilik": 1323,
      "ani": 1324,
      "seluruh": 1325,
      "##amakan": 1326,
      "##edah": 1327,
      "##awatan": 1328,
      "membantu": 1329,
      "##imp": 1330,
      "kerjas": 1331,
      "isteri": 1332,
      "isnin": 1333,
      "sekitar": 1334,
      "asean": 1335,
      "allah": 1336,
      "amaran": 1337,
      "##endali": 1338,
      "2040": 1339,
      "##yarham": 1340,
      "##upan": 1341,
      "##ambil": 1342,
      "paloh": 1343,
      "direman": 1344,
      "dikeluarkan": 1345,
      "##sidi": 1346,
      "tengku": 1347,
      "menceroboh": 1348,
      "mencapai": 1349,
      "sejam": 1350,
      "##angkah": 1351,
      "syarat": 1352,
      "##ecahkan": 1353,
      "bola": 1354,
      "diperdaya": 1355,
      "sepak": 1356,
      "sepenuh": 1357,
      "majlis": 1358,
      "kembali": 1359,
      "rm104": 1360,
      "mexic": 1361,
      "##utuan": 1362,
      "##iliki": 1363,
      "##onald": 1364,
      "hamil": 1365,
      "saingan": 1366,
      "dapur": 1367,
      "harga": 1368,
      "bumi": 1369,
      "filem": 1370,
      "hujan": 1371,
      "maklum": 1372,
      "sultan": 1373,
      "pertuduhan": 1374,
      "persekutuan": 1375,
      "strategik": 1376,
      "bhd": 1377,
      "metal": 1378,
      "pulau": 1379,
      "norris": 1380,
      "nasional": 1381,
      "pahang": 1382,
      "talian": 1383,
      "##oshima": 1384,
      "844": 1385,
      "beijing": 1386,
      "brazil": 1387,
      "gunung": 1388,
      "hiroshima": 1389,
      "hidup": 1390,
      "hospital": 1391,
      "jauh": 1392,
      "jpj": 1393,
      "jambatan": 1394,
      "kumpulan": 1395,
      "khidmat": 1396,
      "subsidi": 1397,
      "berusaha": 1398,
      "perpindahan": 1399,
      "perjanjian": 1400,
      "terengganu": 1401,
      "kuching": 1402,
      "kerjasama": 1403,
      "allahyarham": 1404,
      "mexico": 1405,
      "11": 1406,
      "24": 1407,
      "30": 1408,
      "bur": 1409,
      "baik": 1410,
      "bangsa": 1411,
      "cab": 1412,
      "cua": 1413,
      "ceroboh": 1414,
      "dadah": 1415,
      "eh": 1416,
      "gus": 1417,
      "gamb": 1418,
      "geor": 1419,
      "hol": 1420,
      "ik": 1421,
      "iaitu": 1422,
      "jika": 1423,
      "jamin": 1424,
      "jentera": 1425,
      "kor": 1426,
      "kota": 1427,
      "ly": 1428,
      "lima": 1429,
      "lebat": 1430,
      "madan": 1431,
      "mangsa": 1432,
      "net": 1433,
      "naik": 1434,
      "oku": 1435,
      "pb": 1436,
      "pak": 1437,
      "pej": 1438,
      "posi": 1439,
      "rakan": 1440,
      "rib": 1441,
      "sing": 1442,
      "sok": 1443,
      "sku": 1444,
      "simp": 1445,
      "ul": 1446,
      "usia": 1447,
      "war": 1448,
      "wajar": 1449,
      "##iel": 1450,
      "##ling": 1451,
      "##re": 1452,
      "##ran": 1453,
      "##rat": 1454,
      "##sp": 1455,
      "##kip": 1456,
      "##tin": 1457,
      "##ge": 1458,
      "##mula": 1459,
      "##uz": 1460,
      "##ual": 1461,
      "##uca": 1462,
      "##biran": 1463,
      "##ex": 1464,
      "##yuar": 1465,
      "##oj": 1466,
      "##pul": 1467,
      "##fan": 1468,
      "##fiel": 1469,
      "##wak": 1470,
      "##erah": 1471,
      "##enanj": 1472,
      "##ahu": 1473,
      "##emerl": 1474,
      "##amm": 1475,
      "##amat": 1476,
      "##amatan": 1477,
      "##asaan": 1478,
      "##elian": 1479,
      "menaik": 1480,
      "##akaran": 1481,
      "##adol": 1482,
      "##adbiran": 1483,
      "set": 1484,
      "##unc": 1485,
      "##unakan": 1486,
      "keg": 1487,
      "keper": 1488,
      "kehid": 1489,
      "kehil": 1490,
      "beri": 1491,
      "berg": 1492,
      "berhad": 1493,
      "##sif": 1494,
      "##sikan": 1495,
      "##urkan": 1496,
      "##urangan": 1497,
      "##ikasi": 1498,
      "##aparkan": 1499,
      "perintah": 1500,
      "##aikan": 1501,
      "##aitan": 1502,
      "##alau": 1503,
      "memiliki": 1504,
      "memaparkan": 1505,
      "tert": 1506,
      "terp": 1507,
      "terima": 1508,
      "##olah": 1509,
      "##iranya": 1510,
      "menges": 1511,
      "mengambil": 1512,
      "##ukaan": 1513,
      "##ukakan": 1514,
      "##uktikan": 1515,
      "penip": 1516,
      "kud": 1517,
      "angg": 1518,
      "anadol": 1519,
      "penguat": 1520,
      "pengumum": 1521,
      "pengerusi": 1522,
      "pengendali": 1523,
      "##abat": 1524,
      "semasa": 1525,
      "semenanj": 1526,
      "selasa": 1527,
      "##ayakan": 1528,
      "##tim": 1529,
      "##udah": 1530,
      "##awat": 1531,
      "##awai": 1532,
      "membuktikan": 1533,
      "##ayat": 1534,
      "pelaksan": 1535,
      "program": 1536,
      "##omb": 1537,
      "melalu": 1538,
      "melihat": 1539,
      "sekiranya": 1540,
      "kelmar": 1541,
      "akhir": 1542,
      "bersara": 1543,
      "berkaitan": 1544,
      "menyebabkan": 1545,
      "merah": 1546,
      "##antar": 1547,
      "##antik": 1548,
      "##antung": 1549,
      "##endiri": 1550,
      "##ipta": 1551,
      "##empa": 1552,
      "##empuh": 1553,
      "bank": 1554,
      "beli": 1555,
      "##kuasaan": 1556,
      "##yataan": 1557,
      "##ongsikan": 1558,
      "maung": 1559,
      "##iged": 1560,
      "mencipta": 1561,
      "cher": 1562,
      "terbuka": 1563,
      "##ediaan": 1564,
      "komit": 1565,
      "minat": 1566,
      "tempat": 1567,
      "tempoh": 1568,
      "pembelian": 1569,
      "pembukaan": 1570,
      "segera": 1571,
      "menggunakan": 1572,
      "##anyi": 1573,
      "##anyahu": 1574,
      "formula": 1575,
      "forex": 1576,
      "awam": 1577,
      "##afiz": 1578,
      "imp": 1579,
      "telah": 1580,
      "pertahanan": 1581,
      "kenyataan": 1582,
      "pentadbiran": 1583,
      "dahulu": 1584,
      "enam": 1585,
      "meskip": 1586,
      "mesyuar": 1587,
      "##etus": 1588,
      "kecil": 1589,
      "keseluruhan": 1590,
      "keselamatan": 1591,
      "gencatan": 1592,
      "pegawai": 1593,
      "sarawak": 1594,
      "kekal": 1595,
      "berlaku": 1596,
      "basikal": 1597,
      "hilang": 1598,
      "##abitkan": 1599,
      "briged": 1600,
      "pdrm": 1601,
      "sahaja": 1602,
      "tiada": 1603,
      "tampil": 1604,
      "waktu": 1605,
      "termasuk": 1606,
      "pelaburan": 1607,
      "diberikan": 1608,
      "ajansi": 1609,
      "jenayah": 1610,
      "mbsb": 1611,
      "sepenuhnya": 1612,
      "hamilton": 1613,
      "cuaca": 1614,
      "gambar": 1615,
      "madani": 1616,
      "netanyahu": 1617,
      "pejabat": 1618,
      "positif": 1619,
      "sokongan": 1620,
      "skuad": 1621,
      "warga": 1622,
      "##field": 1623,
      "kehidupan": 1624,
      "kehilangan": 1625,
      "penipuan": 1626,
      "anggota": 1627,
      "anadolu": 1628,
      "penguatkuasaan": 1629,
      "pengumuman": 1630,
      "semenanjung": 1631,
      "pelaksanaan": 1632,
      "melalui": 1633,
      "kelmarin": 1634,
      "meskipun": 1635,
      "mesyuarat": 1636,
      "00": 1637,
      "18": 1638,
      "12": 1639,
      "29": 1640,
      "35": 1641,
      "32": 1642,
      "500": 1643,
      "60": 1644,
      "77": 1645,
      "aa": 1646,
      "audi": 1647,
      "bu": 1648,
      "bal": 1649,
      "bul": 1650,
      "bid": 1651,
      "beg": 1652,
      "bud": 1653,
      "bund": 1654,
      "bot": 1655,
      "bariat": 1656,
      "cad": 1657,
      "cinc": 1658,
      "cemerl": 1659,
      "db": 1660,
      "din": 1661,
      "del": 1662,
      "ded": 1663,
      "duduk": 1664,
      "dpa": 1665,
      "donald": 1666,
      "eai": 1667,
      "est": 1668,
      "fes": 1669,
      "ferr": 1670,
      "gon": 1671,
      "gara": 1672,
      "gian": 1673,
      "gempa": 1674,
      "hd": 1675,
      "hag": 1676,
      "huk": 1677,
      "hati": 1678,
      "isi": 1679,
      "ikat": 1680,
      "ipk": 1681,
      "jul": 1682,
      "jangka": 1683,
      "jair": 1684,
      "jawatan": 1685,
      "kr": 1686,
      "kad": 1687,
      "kos": 1688,
      "kaki": 1689,
      "kalau": 1690,
      "lak": 1691,
      "lama": 1692,
      "land": 1693,
      "lesen": 1694,
      "lagu": 1695,
      "ml": 1696,
      "my": 1697,
      "mo": 1698,
      "mp": 1699,
      "mung": 1700,
      "mos": 1701,
      "mata": 1702,
      "mcl": 1703,
      "mampu": 1704,
      "muz": 1705,
      "mayat": 1706,
      "ny": 1707,
      "nam": 1708,
      "nuk": 1709,
      "nama": 1710,
      "pus": 1711,
      "puan": 1712,
      "pind": 1713,
      "pkr": 1714,
      "pampasan": 1715,
      "ro": 1716,
      "rah": 1717,
      "red": 1718,
      "rug": 1719,
      "rog": 1720,
      "runtu": 1721,
      "rafiz": 1722,
      "sc": 1723,
      "suk": 1724,
      "sab": 1725,
      "say": 1726,
      "ster": 1727,
      "sendiri": 1728,
      "tes": 1729,
      "tok": 1730,
      "tuj": 1731,
      "tentera": 1732,
      "ug": 1733,
      "vel": 1734,
      "wari": 1735,
      "wir": 1736,
      "yong": 1737,
      "zon": 1738,
      "zara": 1739,
      "zain": 1740,
      "##ien": 1741,
      "##ial": 1742,
      "##ly": 1743,
      "##luan": 1744,
      "##ao": 1745,
      "##ru": 1746,
      "##raj": 1747,
      "##sara": 1748,
      "##senal": 1749,
      "##suri": 1750,
      "##kala": 1751,
      "##kus": 1752,
      "##kes": 1753,
      "##gl": 1754,
      "##gang": 1755,
      "##uam": 1756,
      "##uasa": 1757,
      "##uaraan": 1758,
      "##bar": 1759,
      "##baan": 1760,
      "##hf": 1761,
      "##hak": 1762,
      "##ef": 1763,
      "##eum": 1764,
      "##din": 1765,
      "##dil": 1766,
      "##oo": 1767,
      "##oul": 1768,
      "##ver": 1769,
      "##ps": 1770,
      "##pen": 1771,
      "##jen": 1772,
      "##jang": 1773,
      "##jim": 1774,
      "##zah": 1775,
      "##fa": 1776,
      "##cow": 1777,
      "##ani": 1778,
      "##ans": 1779,
      "##anti": 1780,
      "##enang": 1781,
      "##aro": 1782,
      "##aren": 1783,
      "##aringkan": 1784,
      "##atihan": 1785,
      "##aharu": 1786,
      "##insi": 1787,
      "##asar": 1788,
      "##asarkan": 1789,
      "diangg": 1790,
      "dipind": 1791,
      "mening": 1792,
      "menarik": 1793,
      "menunj": 1794,
      "##aksa": 1795,
      "##akhir": 1796,
      "seoul": 1797,
      "##unt": 1798,
      "##unuh": 1799,
      "keti": 1800,
      "berc": 1801,
      "berat": 1802,
      "berisi": 1803,
      "berikut": 1804,
      "beraksi": 1805,
      "berani": 1806,
      "berakhir": 1807,
      "##siatif": 1808,
      "##ura": 1809,
      "##urawat": 1810,
      "##apura": 1811,
      "perib": 1812,
      "peranan": 1813,
      "peranc": 1814,
      "perinc": 1815,
      "perhatian": 1816,
      "##ingati": 1817,
      "##ons": 1818,
      "##onik": 1819,
      "##onom": 1820,
      "##onial": 1821,
      "##orm": 1822,
      "##orban": 1823,
      "##ulatih": 1824,
      "##ustr": 1825,
      "terg": 1826,
      "terut": 1827,
      "##aris": 1828,
      "##iras": 1829,
      "mengalam": 1830,
      "menghadap": 1831,
      "mengaku": 1832,
      "##ukkan": 1833,
      "##iharaan": 1834,
      "##isan": 1835,
      "pening": 1836,
      "##utang": 1837,
      "##utera": 1838,
      "##idikan": 1839,
      "pemandu": 1840,
      "##egarkan": 1841,
      "penga": 1842,
      "pengeb": 1843,
      "pengikut": 1844,
      "##abis": 1845,
      "semangat": 1846,
      "selatan": 1847,
      "##unggang": 1848,
      "##ayaan": 1849,
      "sebalik": 1850,
      "inisiatif": 1851,
      "##udit": 1852,
      "##uddin": 1853,
      "membawa": 1854,
      "membabitkan": 1855,
      "dalaman": 1856,
      "##anding": 1857,
      "##ampas": 1858,
      "kerdil": 1859,
      "##ayar": 1860,
      "##ayaran": 1861,
      "##ayati": 1862,
      "peliharaan": 1863,
      "prinsi": 1864,
      "##okasi": 1865,
      "##oman": 1866,
      "##ometer": 1867,
      "melib": 1868,
      "melanggar": 1869,
      "meletus": 1870,
      "sekatan": 1871,
      "sekali": 1872,
      "sekurang": 1873,
      "sekolah": 1874,
      "tahap": 1875,
      "menjalan": 1876,
      "menjurus": 1877,
      "menjaringkan": 1878,
      "##adium": 1879,
      "##bangkan": 1880,
      "sertai": 1881,
      "aspek": 1882,
      "alih": 1883,
      "altern": 1884,
      "akta": 1885,
      "aktiv": 1886,
      "bersatu": 1887,
      "berskala": 1888,
      "berkuat": 1889,
      "berkongsikan": 1890,
      "berkuasa": 1891,
      "amang": 1892,
      "##tra": 1893,
      "menyatakan": 1894,
      "ketum": 1895,
      "keteg": 1896,
      "##ipina": 1897,
      "##iputera": 1898,
      "juara": 1899,
      "pasti": 1900,
      "pendek": 1901,
      "pendidikan": 1902,
      "mahsuri": 1903,
      "polisi": 1904,
      "##yarat": 1905,
      "##chuca": 1906,
      "besaran": 1907,
      "##amanya": 1908,
      "##lear": 1909,
      "##kuasa": 1910,
      "##ejas": 1911,
      "##ambah": 1912,
      "konser": 1913,
      "seni": 1914,
      "##ujung": 1915,
      "siap": 1916,
      "diraja": 1917,
      "dirempuh": 1918,
      "penyasaran": 1919,
      "penyanyi": 1920,
      "dikem": 1921,
      "dikatakan": 1922,
      "dikejar": 1923,
      "machuca": 1924,
      "sherr": 1925,
      "##igr": 1926,
      "mencecah": 1927,
      "kejar": 1928,
      "kejuaraan": 1929,
      "kejayaan": 1930,
      "atm": 1931,
      "rakaman": 1932,
      "##ugurkan": 1933,
      "terbaharu": 1934,
      "komp": 1935,
      "menjadikan": 1936,
      "bolson": 1937,
      "##incangkan": 1938,
      "bermain": 1939,
      "##estm": 1940,
      "parti": 1941,
      "suspek": 1942,
      "##utusan": 1943,
      "##esterol": 1944,
      "##ampiran": 1945,
      "mendapati": 1946,
      "arah": 1947,
      "arsenal": 1948,
      "bayer": 1949,
      "bayangan": 1950,
      "bayaran": 1951,
      "lever": 1952,
      "rashf": 1953,
      "menggegarkan": 1954,
      "bakat": 1955,
      "hamas": 1956,
      "hamzah": 1957,
      "kanak": 1958,
      "stadium": 1959,
      "keputusan": 1960,
      "pembangunan": 1961,
      "barat": 1962,
      "flor": 1963,
      "tetap": 1964,
      "terlepas": 1965,
      "sempena": 1966,
      "membuatkan": 1967,
      "menjelaskan": 1968,
      "memperkuat": 1969,
      "ekonom": 1970,
      "putraj": 1971,
      "##own": 1972,
      "kebakaran": 1973,
      "bumiputera": 1974,
      "elon": 1975,
      "filipina": 1976,
      "hujung": 1977,
      "kurangnya": 1978,
      "laos": 1979,
      "musk": 1980,
      "sulung": 1981,
      "##etuj": 1982,
      "berhampiran": 1983,
      "kolonial": 1984,
      "kolesterol": 1985,
      "peguam": 1986,
      "super": 1987,
      "tenaga": 1988,
      "##aksanakan": 1989,
      "kekurangan": 1990,
      "penghujung": 1991,
      "jururawat": 1992,
      "jurulatih": 1993,
      "johor": 1994,
      "johari": 1995,
      "kilogram": 1996,
      "kilometer": 1997,
      "dihayati": 1998,
      "dokum": 1999,
      "muhd": 2000,
      "mohd": 2001,
      "tae": 2002,
      "##haus": 2003,
      "##evao": 2004,
      "sehari": 2005,
      "ancaman": 2006,
      "pengurusan": 2007,
      "premier": 2008,
      "petroleum": 2009,
      "pound": 2010,
      "sumber": 2011,
      "terdedah": 2012,
      "terjejas": 2013,
      "maklumat": 2014,
      "metalkes": 2015,
      "ikonik": 2016,
      "korea": 2017,
      "pakej": 2018,
      "singapura": 2019,
      "simpanan": 2020,
      "ulsan": 2021,
      "keperluan": 2022,
      "tertinggi": 2023,
      "cherok": 2024,
      "005": 2025,
      "audio": 2026,
      "bariatrik": 2027,
      "cincin": 2028,
      "cemerlang": 2029,
      "dbkl": 2030,
      "dinamakan": 2031,
      "delhi": 2032,
      "dedikasi": 2033,
      "eaic": 2034,
      "estevao": 2035,
      "fesyen": 2036,
      "ferrari": 2037,
      "hukum": 2038,
      "jawatankuasa": 2039,
      "mysara": 2040,
      "mpv": 2041,
      "mungkin": 2042,
      "moscow": 2043,
      "mclaren": 2044,
      "namun": 2045,
      "nuklear": 2046,
      "rogol": 2047,
      "runtuh": 2048,
      "rafizi": 2049,
      "sayap": 2050,
      "sterling": 2051,
      "tesla": 2052,
      "velez": 2053,
      "warisan": 2054,
      "wirtz": 2055,
      "##kusen": 2056,
      "dianggap": 2057,
      "dipindahkan": 2058,
      "menunjukkan": 2059,
      "ketibaan": 2060,
      "berikutan": 2061,
      "perincian": 2062,
      "terutama": 2063,
      "mengalami": 2064,
      "menghadapi": 2065,
      "mengakui": 2066,
      "sebaliknya": 2067,
      "prinsip": 2068,
      "melibatkan": 2069,
      "alternatif": 2070,
      "aktiviti": 2071,
      "konsert": 2072,
      "sherry": 2073,
      "bolsonaro": 2074,
      "leverkusen": 2075,
      "rashford": 2076,
      "ekonomi": 2077,
      "putrajaya": 2078,
      "metalkestra": 2079,
      ",”": 2080,
      "100": 2081,
      "22": 2082,
      "ay": 2083,
      "af": 2084,
      "air": 2085,
      "audit": 2086,
      "bor": 2087,
      "bos": 2088,
      "bangk": 2089,
      "badan": 2090,
      "bunuh": 2091,
      "cap": 2092,
      "col": 2093,
      "cit": 2094,
      "com": 2095,
      "cent": 2096,
      "da": 2097,
      "dem": 2098,
      "dak": 2099,
      "daya": 2100,
      "dulu": 2101,
      "es": 2102,
      "fak": 2103,
      "fok": 2104,
      "fif": 2105,
      "gp": 2106,
      "gar": 2107,
      "gua": 2108,
      "gangg": 2109,
      "gaji": 2110,
      "hu": 2111,
      "he": 2112,
      "hal": 2113,
      "hak": 2114,
      "hta": 2115,
      "hung": 2116,
      "hea": 2117,
      "hantar": 2118,
      "hutang": 2119,
      "il": 2120,
      "jus": 2121,
      "jep": 2122,
      "janu": 2123,
      "ka": 2124,
      "lu": 2125,
      "lang": 2126,
      "lap": 2127,
      "los": 2128,
      "lay": 2129,
      "lew": 2130,
      "laman": 2131,
      "lig": 2132,
      "lampu": 2133,
      "langgar": 2134,
      "langkah": 2135,
      "latihan": 2136,
      "lokasi": 2137,
      "mis": 2138,
      "med": 2139,
      "mew": 2140,
      "misi": 2141,
      "msu": 2142,
      "mons": 2143,
      "ng": 2144,
      "nim": 2145,
      "nov": 2146,
      "oper": 2147,
      "olah": 2148,
      "ph": 2149,
      "pin": 2150,
      "pun": 2151,
      "pant": 2152,
      "port": 2153,
      "qair": 2154,
      "ra": 2155,
      "ros": 2156,
      "rampasan": 2157,
      "so": 2158,
      "sp": 2159,
      "sum": 2160,
      "samp": 2161,
      "sup": 2162,
      "siti": 2163,
      "sangat": 2164,
      "suruhan": 2165,
      "sudah": 2166,
      "sasar": 2167,
      "tn": 2168,
      "tv": 2169,
      "ting": 2170,
      "tek": 2171,
      "timb": 2172,
      "upa": 2173,
      "ves": 2174,
      "veter": 2175,
      "wala": 2176,
      "waj": 2177,
      "wip": 2178,
      "wuj": 2179,
      "wira": 2180,
      "yo": 2181,
      "yus": 2182,
      "yakin": 2183,
      "zaman": 2184,
      "zoo": 2185,
      "##ix": 2186,
      "##ium": 2187,
      "##iag": 2188,
      "##ich": 2189,
      "##lu": 2190,
      "##lad": 2191,
      "##les": 2192,
      "##au": 2193,
      "##ral": 2194,
      "##riti": 2195,
      "##sc": 2196,
      "##sung": 2197,
      "##sasi": 2198,
      "##syen": 2199,
      "##ka": 2200,
      "##nati": 2201,
      "##ten": 2202,
      "##teg": 2203,
      "##tey": 2204,
      "##mu": 2205,
      "##me": 2206,
      "##men": 2207,
      "##uez": 2208,
      "##ufan": 2209,
      "##bil": 2210,
      "##bul": 2211,
      "##buhan": 2212,
      "##bilan": 2213,
      "##har": 2214,
      "##hbar": 2215,
      "##eal": 2216,
      "##dn": 2217,
      "##ding": 2218,
      "##dul": 2219,
      "##oup": 2220,
      "##vy": 2221,
      "##ven": 2222,
      "##pir": 2223,
      "##punya": 2224,
      "##fant": 2225,
      "##ce": 2226,
      "##cc": 2227,
      "##cing": 2228,
      "##cia": 2229,
      "##ced": 2230,
      "##wal": 2231,
      "##waan": 2232,
      "##ank": 2233,
      "##ane": 2234,
      "##anusi": 2235,
      "##erson": 2236,
      "##enar": 2237,
      "##enangan": 2238,
      "##enarkan": 2239,
      "##ary": 2240,
      "##arasan": 2241,
      "##atik": 2242,
      "##atuan": 2243,
      "##angga": 2244,
      "##ahar": 2245,
      "##ahabatan": 2246,
      "##ino": 2247,
      "##inat": 2248,
      "##emak": 2249,
      "##emuan": 2250,
      "##ami": 2251,
      "##amai": 2252,
      "##amusim": 2253,
      "##asik": 2254,
      "##asukan": 2255,
      "##astikan": 2256,
      "##eliti": 2257,
      "dic": 2258,
      "meneg": 2259,
      "menaw": 2260,
      "menahan": 2261,
      "meneliti": 2262,
      "##akkan": 2263,
      "##akon": 2264,
      "##akala": 2265,
      "##adian": 2266,
      "##adanya": 2267,
      "##adual": 2268,
      "seja": 2269,
      "keada": 2270,
      "keunt": 2271,
      "bert": 2272,
      "berpul": 2273,
      "bersif": 2274,
      "##sir": 2275,
      "##sist": 2276,
      "##tuasi": 2277,
      "##urun": 2278,
      "##apatan": 2279,
      "##apest": 2280,
      "##apuskan": 2281,
      "pering": 2282,
      "peremp": 2283,
      "persa": 2284,
      "pertan": 2285,
      "perikan": 2286,
      "##ilih": 2287,
      "##onan": 2288,
      "##onas": 2289,
      "##engk": 2290,
      "##engah": 2291,
      "##aih": 2292,
      "##uluran": 2293,
      "##usn": 2294,
      "##usnya": 2295,
      "memin": 2296,
      "memantau": 2297,
      "memecahkan": 2298,
      "mempunya": 2299,
      "memastikan": 2300,
      "##taan": 2301,
      "##esh": 2302,
      "##esahan": 2303,
      "##adakan": 2304,
      "insan": 2305,
      "integ": 2306,
      "infant": 2307,
      "##araya": 2308,
      "##olak": 2309,
      "##olahan": 2310,
      "##oleh": 2311,
      "mengk": 2312,
      "mengand": 2313,
      "mengec": 2314,
      "mengikut": 2315,
      "mengukuh": 2316,
      "mengejar": 2317,
      "##ektr": 2318,
      "##ebaskan": 2319,
      "penamp": 2320,
      "penemuan": 2321,
      "##uti": 2322,
      "kucing": 2323,
      "univer": 2324,
      "##ajian": 2325,
      "##ajjim": 2326,
      "##ida": 2327,
      "##egahan": 2328,
      "ant": 2329,
      "anim": 2330,
      "anfield": 2331,
      "pengangk": 2332,
      "##abas": 2333,
      "sembilan": 2334,
      "selain": 2335,
      "##ungi": 2336,
      "##edi": 2337,
      "##edaran": 2338,
      "##edahkan": 2339,
      "sebenar": 2340,
      "##angani": 2341,
      "##awal": 2342,
      "##awak": 2343,
      "##ampur": 2344,
      "keras": 2345,
      "kerug": 2346,
      "ist": 2347,
      "istan": 2348,
      "##ohonan": 2349,
      "masalah": 2350,
      "pelanc": 2351,
      "pelajar": 2352,
      "pelarasan": 2353,
      "pelakon": 2354,
      "prest": 2355,
      "proj": 2356,
      "prix": 2357,
      "pramusim": 2358,
      "melak": 2359,
      "melebih": 2360,
      "melangkah": 2361,
      "sekutu": 2362,
      "##entingan": 2363,
      "serong": 2364,
      "asas": 2365,
      "kemanusi": 2366,
      "kemenangan": 2367,
      "kelet": 2368,
      "kelantan": 2369,
      "kelayakan": 2370,
      "akhbar": 2371,
      "amat": 2372,
      "ambil": 2373,
      "menyaksi": 2374,
      "merced": 2375,
      "##antaran": 2376,
      "rm2": 2377,
      "##alankan": 2378,
      "pasaran": 2379,
      "pendapatan": 2380,
      "kesan": 2381,
      "kesedaran": 2382,
      "banyak": 2383,
      "belayar": 2384,
      "##upun": 2385,
      "mendakwa": 2386,
      "mendedahkan": 2387,
      "loni": 2388,
      "dilakukan": 2389,
      "dilaksanakan": 2390,
      "##ambut": 2391,
      "sentim": 2392,
      "sensasi": 2393,
      "paling": 2394,
      "situasi": 2395,
      "##otila": 2396,
      "she": 2397,
      "kejadian": 2398,
      "atom": 2399,
      "##obal": 2400,
      "manakala": 2401,
      "the": 2402,
      "thre": 2403,
      "persatuan": 2404,
      "persahabatan": 2405,
      "memperingati": 2406,
      "2024": 2407,
      "chia": 2408,
      "iblis": 2409,
      "ibunya": 2410,
      "##ugut": 2411,
      "##ubung": 2412,
      "terbabit": 2413,
      "terbabas": 2414,
      "pasukannya": 2415,
      "komun": 2416,
      "komand": 2417,
      "panik": 2418,
      "pantau": 2419,
      "pembayaran": 2420,
      "bentuk": 2421,
      "maju": 2422,
      "##incangan": 2423,
      "sesama": 2424,
      "segala": 2425,
      "mesir": 2426,
      "partey": 2427,
      "serie": 2428,
      "##utub": 2429,
      "kawal": 2430,
      "kawalan": 2431,
      "##ehat": 2432,
      "menggesa": 2433,
      "##anyian": 2434,
      "hasrat": 2435,
      "kanser": 2436,
      "saat": 2437,
      "saudi": 2438,
      "stesen": 2439,
      "##iff": 2440,
      "##ick": 2441,
      "perniag": 2442,
      "##aft": 2443,
      "##enalkan": 2444,
      "kepentingan": 2445,
      "##umba": 2446,
      "barangan": 2447,
      "bandaraya": 2448,
      "bulanan": 2449,
      "flotila": 2450,
      "imigr": 2451,
      "russel": 2452,
      "tikus": 2453,
      "pertamanya": 2454,
      "terlebih": 2455,
      "terlalu": 2456,
      "menghabis": 2457,
      "memperkukuh": 2458,
      "memperkenalkan": 2459,
      "eks": 2460,
      "putra": 2461,
      "kebuluran": 2462,
      "perkukuh": 2463,
      "pentas": 2464,
      "penting": 2465,
      "elektr": 2466,
      "lao": 2467,
      "musang": 2468,
      "dijangka": 2469,
      "dijadual": 2470,
      "dijalankan": 2471,
      "berhubung": 2472,
      "angkat": 2473,
      "angeles": 2474,
      "tawar": 2475,
      "tawaran": 2476,
      "digital": 2477,
      "berlin": 2478,
      "pertubuhan": 2479,
      "terkena": 2480,
      "persekolahan": 2481,
      "strategi": 2482,
      "marc": 2483,
      "puluh": 2484,
      "puluhan": 2485,
      "tegas": 2486,
      "##ember": 2487,
      "pencegahan": 2488,
      "abdul": 2489,
      "doktor": 2490,
      "grand": 2491,
      "group": 2492,
      "gerakan": 2493,
      "getah": 2494,
      "hadapi": 2495,
      "munajjim": 2496,
      "muhamm": 2497,
      "moham": 2498,
      "taufan": 2499,
      "upm": 2500,
      "upaya": 2501,
      "permohonan": 2502,
      "perbincangan": 2503,
      "mengemudi": 2504,
      "anderson": 2505,
      "ancam": 2506,
      "##tivasi": 2507,
      "pelantikan": 2508,
      "premium": 2509,
      "banglad": 2510,
      "gelaran": 2511,
      "tebusan": 2512,
      "bursa": 2513,
      "cabaran": 2514,
      "ehwal": 2515,
      "george": 2516,
      "holding": 2517,
      "lyon": 2518,
      "pbb": 2519,
      "menaikkan": 2520,
      "terpaksa": 2521,
      "kudung": 2522,
      "##ombia": 2523,
      "komitmen": 2524,
      "import": 2525,
      "bull": 2526,
      "budapest": 2527,
      "cadangan": 2528,
      "motivasi": 2529,
      "nyanyian": 2530,
      "pusat": 2531,
      "roc": 2532,
      "rugi": 2533,
      "tokoh": 2534,
      "peribadi": 2535,
      "perancis": 2536,
      "pengeboman": 2537,
      "menjalani": 2538,
      "ketegangan": 2539,
      "dikemukakan": 2540,
      "dokumen": 2541,
      "cincinnati": 2542,
      "hukuman": 2543,
      "colombia": 2544,
      "city": 2545,
      "central": 2546,
      "dakwaan": 2547,
      "esok": 2548,
      "fokus": 2549,
      "fifa": 2550,
      "garcia": 2551,
      "huey": 2552,
      "hungary": 2553,
      "heavy": 2554,
      "ilmu": 2555,
      "justin": 2556,
      "jepun": 2557,
      "januari": 2558,
      "langsung": 2559,
      "layak": 2560,
      "lewis": 2561,
      "miskin": 2562,
      "monsun": 2563,
      "nims": 2564,
      "operasi": 2565,
      "pintu": 2566,
      "porto": 2567,
      "qairina": 2568,
      "supaya": 2569,
      "suruhanjaya": 2570,
      "upacara": 2571,
      "vesel": 2572,
      "walaupun": 2573,
      "wipha": 2574,
      "wujud": 2575,
      "youtub": 2576,
      "##pirasi": 2577,
      "menegaskan": 2578,
      "sejauh": 2579,
      "keadaan": 2580,
      "keuntungan": 2581,
      "berpuluh": 2582,
      "bersifat": 2583,
      "##sisten": 2584,
      "perempuan": 2585,
      "persaingan": 2586,
      "pertanian": 2587,
      "perikanan": 2588,
      "mempunyai": 2589,
      "integriti": 2590,
      "infantino": 2591,
      "mengandungi": 2592,
      "mengecam": 2593,
      "mengukuhkan": 2594,
      "penampilan": 2595,
      "universi": 2596,
      "animasi": 2597,
      "pengangkutan": 2598,
      "kerugian": 2599,
      "istanbul": 2600,
      "prestasi": 2601,
      "projek": 2602,
      "melebihi": 2603,
      "kemanusiaan": 2604,
      "menyaksikan": 2605,
      "mercedes": 2606,
      "thread": 2607,
      "perniagaan": 2608,
      "imigresen": 2609,
      "russell": 2610,
      "menghabiskan": 2611,
      "elektrik": 2612,
      "muhammad": 2613,
      "bangladesh": 2614,
      "holdings": 2615,
      ".”": 2616,
      "15": 2617,
      "39": 2618,
      "300": 2619,
      "56": 2620,
      "69": 2621,
      "76": 2622,
      "700": 2623,
      "95": 2624,
      "900": 2625,
      "az": 2626,
      "aq": 2627,
      "aut": 2628,
      "ati": 2629,
      "ahad": 2630,
      "ayat": 2631,
      "austr": 2632,
      "asisten": 2633,
      "bp": 2634,
      "bat": 2635,
      "baw": 2636,
      "bim": 2637,
      "bahan": 2638,
      "bend": 2639,
      "buj": 2640,
      "bina": 2641,
      "baling": 2642,
      "bris": 2643,
      "baitu": 2644,
      "co": 2645,
      "can": 2646,
      "cat": 2647,
      "cari": 2648,
      "cuk": 2649,
      "ceb": 2650,
      "caj": 2651,
      "cos": 2652,
      "cub": 2653,
      "cris": 2654,
      "capai": 2655,
      "cimb": 2656,
      "cord": 2657,
      "cantik": 2658,
      "campur": 2659,
      "du": 2660,
      "dj": 2661,
      "dol": 2662,
      "dra": 2663,
      "datu": 2664,
      "damb": 2665,
      "dram": 2666,
      "dort": 2667,
      "dof": 2668,
      "dhak": 2669,
      "def": 2670,
      "damai": 2671,
      "er": 2672,
      "ec": 2673,
      "erik": 2674,
      "ejen": 2675,
      "even": 2676,
      "fa": 2677,
      "fm": 2678,
      "fb": 2679,
      "fc": 2680,
      "fin": 2681,
      "feb": 2682,
      "fajar": 2683,
      "gl": 2684,
      "gb": 2685,
      "guan": 2686,
      "germ": 2687,
      "gesa": 2688,
      "gugurkan": 2689,
      "hi": 2690,
      "han": 2691,
      "hem": 2692,
      "hala": 2693,
      "hab": 2694,
      "haw": 2695,
      "hadi": 2696,
      "hot": 2697,
      "hob": 2698,
      "hangat": 2699,
      "hoj": 2700,
      "ir": 2701,
      "id": 2702,
      "ic": 2703,
      "ipo": 2704,
      "itz": 2705,
      "iran": 2706,
      "ji": 2707,
      "jal": 2708,
      "jel": 2709,
      "jim": 2710,
      "jos": 2711,
      "jej": 2712,
      "job": 2713,
      "jantung": 2714,
      "kp": 2715,
      "kw": 2716,
      "kat": 2717,
      "kis": 2718,
      "kab": 2719,
      "kiri": 2720,
      "kpk": 2721,
      "kajian": 2722,
      "lal": 2723,
      "lah": 2724,
      "lut": 2725,
      "lip": 2726,
      "liv": 2727,
      "leka": 2728,
      "lanj": 2729,
      "laf": 2730,
      "lakukan": 2731,
      "lemak": 2732,
      "lawak": 2733,
      "mat": 2734,
      "mul": 2735,
      "mag": 2736,
      "meg": 2737,
      "makan": 2738,
      "maru": 2739,
      "mula": 2740,
      "mati": 2741,
      "mot": 2742,
      "makin": 2743,
      "magu": 2744,
      "mudah": 2745,
      "muti": 2746,
      "nar": 2747,
      "nah": 2748,
      "nur": 2749,
      "naj": 2750,
      "nomb": 2751,
      "on": 2752,
      "openg": 2753,
      "osc": 2754,
      "ps": 2755,
      "pn": 2756,
      "pt": 2757,
      "pp": 2758,
      "ping": 2759,
      "por": 2760,
      "pes": 2761,
      "pag": 2762,
      "paw": 2763,
      "pok": 2764,
      "pingg": 2765,
      "pati": 2766,
      "pint": 2767,
      "puj": 2768,
      "putu": 2769,
      "pecahkan": 2770,
      "paris": 2771,
      "qu": 2772,
      "rat": 2773,
      "res": 2774,
      "rut": 2775,
      "raj": 2776,
      "rump": 2777,
      "rent": 2778,
      "ringg": 2779,
      "rana": 2780,
      "rant": 2781,
      "reka": 2782,
      "raja": 2783,
      "rapi": 2784,
      "rusia": 2785,
      "ruang": 2786,
      "rantau": 2787,
      "ronald": 2788,
      "rank": 2789,
      "rehat": 2790,
      "sm": 2791,
      "san": 2792,
      "sar": 2793,
      "sin": 2794,
      "sak": 2795,
      "sun": 2796,
      "sur": 2797,
      "sya": 2798,
      "sung": 2799,
      "sain": 2800,
      "sent": 2801,
      "sant": 2802,
      "sind": 2803,
      "sund": 2804,
      "sasaran": 2805,
      "sdn": 2806,
      "tap": 2807,
      "tor": 2808,
      "tud": 2809,
      "tim": 2810,
      "tahan": 2811,
      "tuan": 2812,
      "tib": 2813,
      "tot": 2814,
      "tong": 2815,
      "tangg": 2816,
      "tug": 2817,
      "tapi": 2818,
      "turut": 2819,
      "tumb": 2820,
      "taiwan": 2821,
      "tahanan": 2822,
      "tarik": 2823,
      "town": 2824,
      "tasik": 2825,
      "ur": 2826,
      "uk": 2827,
      "ut": 2828,
      "ukr": 2829,
      "ujang": 2830,
      "var": 2831,
      "vien": 2832,
      "wol": 2833,
      "wangsa": 2834,
      "westm": 2835,
      "xin": 2836,
      "yun": 2837,
      "yor": 2838,
      "zul": 2839,
      "zep": 2840,
      "zhar": 2841,
      "’.": 2842,
      "….": 2843,
      "##ie": 2844,
      "##iar": 2845,
      "##ius": 2846,
      "##iatan": 2847,
      "##iaman": 2848,
      "##lin": 2849,
      "##let": 2850,
      "##lian": 2851,
      "##lund": 2852,
      "##lma": 2853,
      "##aing": 2854,
      "##aca": 2855,
      "##ry": 2856,
      "##rc": 2857,
      "##ret": 2858,
      "##rig": 2859,
      "##rihat": 2860,
      "##raga": 2861,
      "##sur": 2862,
      "##suan": 2863,
      "##sana": 2864,
      "##ster": 2865,
      "##syat": 2866,
      "##sels": 2867,
      "##sfield": 2868,
      "##kc": 2869,
      "##ken": 2870,
      "##kal": 2871,
      "##kit": 2872,
      "##katan": 2873,
      "##katkan": 2874,
      "##kitan": 2875,
      "##na": 2876,
      "##nah": 2877,
      "##ts": 2878,
      "##tar": 2879,
      "##thaus": 2880,
      "##gal": 2881,
      "##gsi": 2882,
      "##gai": 2883,
      "##gara": 2884,
      "##gent": 2885,
      "##gina": 2886,
      "##gram": 2887,
      "##gkang": 2888,
      "##mm": 2889,
      "##mer": 2890,
      "##mik": 2891,
      "##mus": 2892,
      "##mund": 2893,
      "##ui": 2894,
      "##uas": 2895,
      "##uatan": 2896,
      "##uasan": 2897,
      "##utaan": 2898,
      "##bu": 2899,
      "##bb": 2900,
      "##bur": 2901,
      "##bung": 2902,
      "##buan": 2903,
      "##baru": 2904,
      "##hah": 2905,
      "##hand": 2906,
      "##hua": 2907,
      "##eem": 2908,
      "##ekan": 2909,
      "##eid": 2910,
      "##yor": 2911,
      "##der": 2912,
      "##dar": 2913,
      "##dis": 2914,
      "##daan": 2915,
      "##oel": 2916,
      "##oik": 2917,
      "##ood": 2918,
      "##vestm": 2919,
      "##pr": 2920,
      "##pm": 2921,
      "##puan": 2922,
      "##jil": 2923,
      "##jara": 2924,
      "##jid": 2925,
      "##jump": 2926,
      "##87": 2927,
      "##zan": 2928,
      "##zaman": 2929,
      "##fb": 2930,
      "##fera": 2931,
      "##57": 2932,
      "##ci": 2933,
      "##co": 2934,
      "##cal": 2935,
      "##cat": 2936,
      "##cel": 2937,
      "##cul": 2938,
      "##cana": 2939,
      "##cic": 2940,
      "##wood": 2941,
      "##qis": 2942,
      "##quez": 2943,
      "##qdis": 2944,
      "##ankan": 2945,
      "##anta": 2946,
      "##anol": 2947,
      "##antikan": 2948,
      "##ers": 2949,
      "##erasi": 2950,
      "##eruskan": 2951,
      "##enakan": 2952,
      "##enapan": 2953,
      "##arang": 2954,
      "##aras": 2955,
      "##arai": 2956,
      "##arahkan": 2957,
      "##arles": 2958,
      "##arusnya": 2959,
      "##argai": 2960,
      "##alang": 2961,
      "##alia": 2962,
      "##alangan": 2963,
      "##alsuan": 2964,
      "##atasi": 2965,
      "##athir": 2966,
      "##atangkan": 2967,
      "##atka": 2968,
      "##atangani": 2969,
      "##angatkan": 2970,
      "##ahw": 2971,
      "##ahun": 2972,
      "##ahir": 2973,
      "##ahag": 2974,
      "##ahter": 2975,
      "##ahiran": 2976,
      "##inkan": 2977,
      "##inster": 2978,
      "##inkc": 2979,
      "##emal": 2980,
      "##emui": 2981,
      "##ams": 2982,
      "##amel": 2983,
      "##asil": 2984,
      "##asakan": 2985,
      "##astr": 2986,
      "##asingan": 2987,
      "##elak": 2988,
      "##elih": 2989,
      "##eluruh": 2990,
      "##elps": 2991,
      "dim": 2992,
      "dip": 2993,
      "dias": 2994,
      "disi": 2995,
      "diaz": 2996,
      "dipengaruh": 2997,
      "diadakan": 2998,
      "diugut": 2999,
      "menump": 3000,
      "menep": 3001,
      "menand": 3002,
      "menimb": 3003,
      "menamakan": 3004,
      "menambah": 3005,
      "menurun": 3006,
      "menengah": 3007,
      "meneruskan": 3008,
      "menemui": 3009,
      "##akaian": 3010,
      "##akhand": 3011,
      "##ado": 3012,
      "##adang": 3013,
      "##adak": 3014,
      "seis": 3015,
      "sedar": 3016,
      "##untuk": 3017,
      "keaman": 3018,
      "keyak": 3019,
      "keca": 3020,
      "kehak": 3021,
      "berter": 3022,
      "bertara": 3023,
      "berwar": 3024,
      "bertem": 3025,
      "berjanj": 3026,
      "berjump": 3027,
      "berasingan": 3028,
      "##umoh": 3029,
      "##umitan": 3030,
      "##tut": 3031,
      "##tud": 3032,
      "##tuj": 3033,
      "##tugal": 3034,
      "##ikh": 3035,
      "##iket": 3036,
      "perj": 3037,
      "persi": 3038,
      "peros": 3039,
      "pereka": 3040,
      "persid": 3041,
      "perunc": 3042,
      "##ilder": 3043,
      "##ona": 3044,
      "##one": 3045,
      "##oner": 3046,
      "##onim": 3047,
      "##oran": 3048,
      "##ulah": 3049,
      "##ulkan": 3050,
      "##ulis": 3051,
      "##ulaan": 3052,
      "##ussels": 3053,
      "memand": 3054,
      "memind": 3055,
      "memenang": 3056,
      "memilih": 3057,
      "memusn": 3058,
      "memelih": 3059,
      "tercic": 3060,
      "##tafa": 3061,
      "##tagram": 3062,
      "##esar": 3063,
      "##esak": 3064,
      "##ariti": 3065,
      "##adab": 3066,
      "intai": 3067,
      "investm": 3068,
      "##olog": 3069,
      "##ire": 3070,
      "##irian": 3071,
      "##irisan": 3072,
      "##agam": 3073,
      "##agangan": 3074,
      "##agalan": 3075,
      "##agedi": 3076,
      "mengek": 3077,
      "mengund": 3078,
      "menguj": 3079,
      "mengurang": 3080,
      "mengenal": 3081,
      "mengadil": 3082,
      "mengarahkan": 3083,
      "mengatasi": 3084,
      "mengelak": 3085,
      "##ukar": 3086,
      "dana": 3087,
      "##ihatan": 3088,
      "##eksi": 3089,
      "##ekut": 3090,
      "##eket": 3091,
      "##ekup": 3092,
      "##eksp": 3093,
      "##ekuatan": 3094,
      "##isyen": 3095,
      "##isfera": 3096,
      "##ebang": 3097,
      "penump": 3098,
      "penahanan": 3099,
      "penunggang": 3100,
      "##alaman": 3101,
      "kutuk": 3102,
      "kubur": 3103,
      "##etak": 3104,
      "##etapkan": 3105,
      "##etown": 3106,
      "unsur": 3107,
      "##ajuat": 3108,
      "##ajikan": 3109,
      "pemangsa": 3110,
      "pemuda": 3111,
      "pemeta": 3112,
      "pemans": 3113,
      "pemenang": 3114,
      "peminat": 3115,
      "pemalsuan": 3116,
      "pemakaian": 3117,
      "##egan": 3118,
      "##aannya": 3119,
      "anti": 3120,
      "anug": 3121,
      "anjing": 3122,
      "pengas": 3123,
      "pengamb": 3124,
      "pengarah": 3125,
      "pengaruh": 3126,
      "pengemb": 3127,
      "pengeksp": 3128,
      "semua": 3129,
      "sement": 3130,
      "seminggu": 3131,
      "selia": 3132,
      "selalu": 3133,
      "selaras": 3134,
      "##epat": 3135,
      "##epak": 3136,
      "##epoel": 3137,
      "##edak": 3138,
      "##edahan": 3139,
      "sebay": 3140,
      "sebot": 3141,
      "sebahag": 3142,
      "##tiasa": 3143,
      "##tiane": 3144,
      "##titut": 3145,
      "##udal": 3146,
      "##udukan": 3147,
      "##udahan": 3148,
      "##uditan": 3149,
      "memburu": 3150,
      "membuka": 3151,
      "membincangkan": 3152,
      "membenarkan": 3153,
      "membangga": 3154,
      "memboleh": 3155,
      "##iman": 3156,
      "##andangan": 3157,
      "##ampau": 3158,
      "kering": 3159,
      "keresahan": 3160,
      "kerumitan": 3161,
      "ister": 3162,
      "isyarat": 3163,
      "##oser": 3164,
      "##oses": 3165,
      "##ohor": 3166,
      "masak": 3167,
      "masuk": 3168,
      "masakan": 3169,
      "masyar": 3170,
      "masjid": 3171,
      "pelup": 3172,
      "pelangg": 3173,
      "peluang": 3174,
      "pelumba": 3175,
      "peluasan": 3176,
      "pro": 3177,
      "prot": 3178,
      "prof": 3179,
      "proses": 3180,
      "##aine": 3181,
      "##ainan": 3182,
      "##okong": 3183,
      "##okov": 3184,
      "##okrat": 3185,
      "##omas": 3186,
      "melapor": 3187,
      "sektor": 3188,
      "seksyen": 3189,
      "sekret": 3190,
      "menjej": 3191,
      "menjamin": 3192,
      "menjayakan": 3193,
      "harima": 3194,
      "##enton": 3195,
      "##enteraan": 3196,
      "##aruzaman": 3197,
      "malaya": 3198,
      "seram": 3199,
      "serantau": 3200,
      "serbuan": 3201,
      "##hadad": 3202,
      "asap": 3203,
      "asram": 3204,
      "kemuka": 3205,
      "kemalangan": 3206,
      "kelly": 3207,
      "kelahiran": 3208,
      "kelihatan": 3209,
      "alif": 3210,
      "alhadad": 3211,
      "aktif": 3212,
      "bersyarat": 3213,
      "bersetuj": 3214,
      "bersaing": 3215,
      "berkec": 3216,
      "berkorban": 3217,
      "berkekuatan": 3218,
      "aman": 3219,
      "amar": 3220,
      "amir": 3221,
      "ambang": 3222,
      "ampuan": 3223,
      "##uatu": 3224,
      "menyala": 3225,
      "menyif": 3226,
      "menyeles": 3227,
      "menyasarkan": 3228,
      "menyambut": 3229,
      "menyeluruh": 3230,
      "merup": 3231,
      "merampas": 3232,
      "meraih": 3233,
      "ketirisan": 3234,
      "ketenteraan": 3235,
      "rm4": 3236,
      "rm40": 3237,
      "##endek": 3238,
      "##empur": 3239,
      "##empatan": 3240,
      "201": 3241,
      "200": 3242,
      "bahru": 3243,
      "##ewaskan": 3244,
      "jualan": 3245,
      "pasangan": 3246,
      "pendakwa": 3247,
      "pendaft": 3248,
      "pendirian": 3249,
      "pendudukan": 3250,
      "mahathir": 3251,
      "##chatka": 3252,
      "ditunggang": 3253,
      "kesej": 3254,
      "kesempatan": 3255,
      "belajar": 3256,
      "bella": 3257,
      "##indungan": 3258,
      "mendalam": 3259,
      "mendatangkan": 3260,
      "mendadak": 3261,
      "ruminan": 3262,
      "longkang": 3263,
      "besut": 3264,
      "dilihat": 3265,
      "dilantik": 3266,
      "dilahir": 3267,
      "perlis": 3268,
      "perlumb": 3269,
      "perlindungan": 3270,
      "api": 3271,
      "apj": 3272,
      "apal": 3273,
      "aplik": 3274,
      "apmm": 3275,
      "kontin": 3276,
      "kongsi": 3277,
      "petir": 3278,
      "senat": 3279,
      "senang": 3280,
      "senarai": 3281,
      "sentiasa": 3282,
      "palme": 3283,
      "siar": 3284,
      "siang": 3285,
      "siam": 3286,
      "sijil": 3287,
      "##ahkannya": 3288,
      "dirampas": 3289,
      "penyediaan": 3290,
      "penyokong": 3291,
      "tanaman": 3292,
      "##yakinkan": 3293,
      "##ott": 3294,
      "dikaji": 3295,
      "dikenakan": 3296,
      "indah": 3297,
      "industr": 3298,
      "adira": 3299,
      "adegan": 3300,
      "datang": 3301,
      "mac": 3302,
      "shin": 3303,
      "tenggara": 3304,
      "##oba": 3305,
      "sejati": 3306,
      "thinkc": 3307,
      "thomas": 3308,
      "perseor": 3309,
      "persediaan": 3310,
      "persetuj": 3311,
      "memperlu": 3312,
      "2023": 3313,
      "8220": 3314,
      "bebankan": 3315,
      "china": 3316,
      "charles": 3317,
      "##ugat": 3318,
      "kedai": 3319,
      "kediaman": 3320,
      "kedutaan": 3321,
      "terbiar": 3322,
      "bekalan": 3323,
      "komisi": 3324,
      "minta": 3325,
      "panjang": 3326,
      "sepakat": 3327,
      "sepasukan": 3328,
      "sepeket": 3329,
      "pembahar": 3330,
      "pembedahan": 3331,
      "agenda": 3332,
      "benar": 3333,
      "bencana": 3334,
      "news": 3335,
      "##incang": 3336,
      "dibuka": 3337,
      "dibeli": 3338,
      "dibincangkan": 3339,
      "dibebaskan": 3340,
      "sesyen": 3341,
      "sesuatu": 3342,
      "segamat": 3343,
      "peratusan": 3344,
      "##estone": 3345,
      "jalani": 3346,
      "mei": 3347,
      "meyakinkan": 3348,
      "trend": 3349,
      "tragedi": 3350,
      "trenton": 3351,
      "##isit": 3352,
      "##osikal": 3353,
      "disebabkan": 3354,
      "8216": 3355,
      "8217": 3356,
      "depannya": 3357,
      "ariff": 3358,
      "argent": 3359,
      "billah": 3360,
      "bayar": 3361,
      "rasuah": 3362,
      "rasmus": 3363,
      "##urans": 3364,
      "tersohor": 3365,
      "menggugurkan": 3366,
      "memberikan": 3367,
      "##ggan": 3368,
      "hasina": 3369,
      "step": 3370,
      "status": 3371,
      "stpm": 3372,
      "##ifnya": 3373,
      "pengganti": 3374,
      "penggenapan": 3375,
      "penggempur": 3376,
      "pihaknya": 3377,
      "haram": 3378,
      "harapan": 3379,
      "##untut": 3380,
      "kepala": 3381,
      "kepadanya": 3382,
      "keprihat": 3383,
      "atase": 3384,
      "barca": 3385,
      "barcel": 3386,
      "imanol": 3387,
      "piastr": 3388,
      "teliti": 3389,
      "telev": 3390,
      "telef": 3391,
      "tikam": 3392,
      "##liott": 3393,
      "pertahan": 3394,
      "menghantar": 3395,
      "menghalang": 3396,
      "menghangatkan": 3397,
      "petros": 3398,
      "petronas": 3399,
      "ekst": 3400,
      "ekoran": 3401,
      "james": 3402,
      "putih": 3403,
      "puteri": 3404,
      "ramos": 3405,
      "ramli": 3406,
      "strok": 3407,
      "willian": 3408,
      "keber": 3409,
      "kebangkitan": 3410,
      "perkenal": 3411,
      "perkhidm": 3412,
      "kontraktor": 3413,
      "fizikalnya": 3414,
      "dahsyat": 3415,
      "elliott": 3416,
      "engl": 3417,
      "enggan": 3418,
      "jumlah": 3419,
      "laut": 3420,
      "maka": 3421,
      "mustafa": 3422,
      "rondaan": 3423,
      "runding": 3424,
      "rancang": 3425,
      "kecantikan": 3426,
      "##apaian": 3427,
      "angin": 3428,
      "menyerah": 3429,
      "bukti": 3430,
      "citagl": 3431,
      "genius": 3432,
      "srg": 3433,
      "suami": 3434,
      "suci": 3435,
      "saraf": 3436,
      "tawarkan": 3437,
      "umur": 3438,
      "digesa": 3439,
      "digantung": 3440,
      "terkorban": 3441,
      "terkawal": 3442,
      "penghorm": 3443,
      "penghantaran": 3444,
      "bharu": 3445,
      "hilal": 3446,
      "kluang": 3447,
      "klcc": 3448,
      "marquez": 3449,
      "tegang": 3450,
      "##plin": 3451,
      "##erland": 3452,
      "dihapuskan": 3453,
      "dihargai": 3454,
      "berbakat": 3455,
      "berbanding": 3456,
      "inspirasi": 3457,
      "instagram": 3458,
      "institut": 3459,
      "insurans": 3460,
      "pencen": 3461,
      "pencapaian": 3462,
      "jumaat": 3463,
      "abaikan": 3464,
      "brussels": 3465,
      "geran": 3466,
      "getir": 3467,
      "hadapan": 3468,
      "khas": 3469,
      "khus": 3470,
      "kamaruzaman": 3471,
      "kamchatka": 3472,
      "munich": 3473,
      "muncul": 3474,
      "pdr": 3475,
      "tiang": 3476,
      "tunai": 3477,
      "tunis": 3478,
      "tampak": 3479,
      "##kl20": 3480,
      "##hilmi": 3481,
      "##clestone": 3482,
      "seharusnya": 3483,
      "permulaan": 3484,
      "permainan": 3485,
      "mengemukakan": 3486,
      "anda": 3487,
      "pelabur": 3488,
      "##ternak": 3489,
      "tiktokers": 3490,
      "1987": 3491,
      "288": 3492,
      "biasa": 3493,
      "biadab": 3494,
      "gelandangan": 3495,
      "kapal": 3496,
      "kapak": 3497,
      "popul": 3498,
      "syor": 3499,
      "syamel": 3500,
      "salun": 3501,
      "saluran": 3502,
      "sumbangan": 3503,
      "tebal": 3504,
      "##selor": 3505,
      "##nie": 3506,
      "##nitud": 3507,
      "berdasarkan": 3508,
      "terdekat": 3509,
      "terjadi": 3510,
      "pemerintah": 3511,
      "pemerhatian": 3512,
      "hidupnya": 3513,
      "jpjeid": 3514,
      "241": 3515,
      "buruk": 3516,
      "cabang": 3517,
      "ehati": 3518,
      "georgina": 3519,
      "holly": 3520,
      "lydia": 3521,
      "pbt": 3522,
      "ribu": 3523,
      "ribut": 3524,
      "##ree": 3525,
      "##ammer": 3526,
      "menaiki": 3527,
      "setakat": 3528,
      "setahun": 3529,
      "##uncak": 3530,
      "kegiatan": 3531,
      "kegagalan": 3532,
      "terpendek": 3533,
      "mengesahkan": 3534,
      "mengesyor": 3535,
      "kuda": 3536,
      "melihatnya": 3537,
      "akhirnya": 3538,
      "komited": 3539,
      "impian": 3540,
      "355": 3541,
      "builder": 3542,
      "balas": 3543,
      "balqis": 3544,
      "bundar": 3545,
      "bundarkan": 3546,
      "botol": 3547,
      "goncal": 3548,
      "gianni": 3549,
      "julai": 3550,
      "julung": 3551,
      "jangkauan": 3552,
      "krai": 3553,
      "laksana": 3554,
      "laketown": 3555,
      "landa": 3556,
      "lando": 3557,
      "mlff": 3558,
      "mlbb": 3559,
      "muzik": 3560,
      "muzium": 3561,
      "pindah": 3562,
      "pindaan": 3563,
      "rahsia": 3564,
      "raheem": 3565,
      "scammer": 3566,
      "sukar": 3567,
      "sukma": 3568,
      "sabado": 3569,
      "tuju": 3570,
      "tujuan": 3571,
      "ugut": 3572,
      "ugutan": 3573,
      "zaini": 3574,
      "zainuddin": 3575,
      "##ruari": 3576,
      "##psom": 3577,
      "meningkat": 3578,
      "meningkatkan": 3579,
      "berisiko": 3580,
      "tergugat": 3581,
      "##irasuah": 3582,
      "peningkatan": 3583,
      "pengacara": 3584,
      "pengauditan": 3585,
      "senior": 3586,
      "komposer": 3587,
      "bayern": 3588,
      "florian": 3589,
      "florida": 3590,
      "memperkuatkan": 3591,
      "simpanannya": 3592,
      "224": 3593,
      "ayah": 3594,
      "afzan": 3595,
      "bora": 3596,
      "bangkok": 3597,
      "daerah": 3598,
      "demam": 3599,
      "fakir": 3600,
      "gangguan": 3601,
      "heung": 3602,
      "hakemal": 3603,
      "htaa": 3604,
      "kaun": 3605,
      "luahan": 3606,
      "lapang": 3607,
      "ligat": 3608,
      "medan": 3609,
      "mewah": 3610,
      "ngumoh": 3611,
      "november": 3612,
      "olahraga": 3613,
      "phelps": 3614,
      "pantang": 3615,
      "raub": 3616,
      "ross": 3617,
      "soudal": 3618,
      "sprm": 3619,
      "summer": 3620,
      "sampah": 3621,
      "tng": 3622,
      "tekn": 3623,
      "timbal": 3624,
      "veteran": 3625,
      "wajib": 3626,
      "yusof": 3627,
      "menawarkan": 3628,
      "peringkat": 3629,
      "##engkapkan": 3630,
      "meminta": 3631,
      "mengkebang": 3632,
      "antirasuah": 3633,
      "istana": 3634,
      "pelancong": 3635,
      "melaka": 3636,
      "keletihan": 3637,
      "rm25": 3638,
      "sentimeter": 3639,
      "sheikh": 3640,
      "komuniti": 3641,
      "komander": 3642,
      "eksekut": 3643,
      "dijadualkan": 3644,
      "marcus": 3645,
      "abdullah": 3646,
      "mohamed": 3647,
      "rock": 3648,
      "youtube": 3649,
      "universiti": 3650,
      "762": 3651,
      "aqsa": 3652,
      "atipsom": 3653,
      "ayatuddin": 3654,
      "australia": 3655,
      "batuk": 3656,
      "bawah": 3657,
      "bimbang": 3658,
      "bendang": 3659,
      "bujang": 3660,
      "baitulma": 3661,
      "canselor": 3662,
      "cukai": 3663,
      "cebisan": 3664,
      "costa": 3665,
      "cuba": 3666,
      "cordoba": 3667,
      "duit": 3668,
      "djokov": 3669,
      "dolar": 3670,
      "draf": 3671,
      "damba": 3672,
      "dramatik": 3673,
      "dortmund": 3674,
      "dhaka": 3675,
      "defisit": 3676,
      "ernie": 3677,
      "ecclestone": 3678,
      "evenepoel": 3679,
      "faedah": 3680,
      "fmf": 3681,
      "fbg": 3682,
      "final": 3683,
      "februari": 3684,
      "fajarbaru": 3685,
      "gbc": 3686,
      "guanajuat": 3687,
      "germain": 3688,
      "hannah": 3689,
      "hemisfera": 3690,
      "haba": 3691,
      "hawari": 3692,
      "hadif": 3693,
      "hobi": 3694,
      "hojlund": 3695,
      "ideal": 3696,
      "icrc": 3697,
      "itzel": 3698,
      "jiwa": 3699,
      "jalil": 3700,
      "jose": 3701,
      "jejak": 3702,
      "jobe": 3703,
      "kpt": 3704,
      "kwsp": 3705,
      "katia": 3706,
      "kisah": 3707,
      "laluan": 3708,
      "lahad": 3709,
      "lutken": 3710,
      "lipid": 3711,
      "live": 3712,
      "lanjut": 3713,
      "lafc": 3714,
      "matthaus": 3715,
      "magnitud": 3716,
      "mega": 3717,
      "maruah": 3718,
      "motosikal": 3719,
      "maguire": 3720,
      "mutiara": 3721,
      "naratif": 3722,
      "nahas": 3723,
      "najmi": 3724,
      "nombor": 3725,
      "onlin": 3726,
      "oscar": 3727,
      "psg": 3728,
      "ptkl20": 3729,
      "pppr": 3730,
      "pingat": 3731,
      "portugal": 3732,
      "pesara": 3733,
      "pagar": 3734,
      "pawagam": 3735,
      "pokok": 3736,
      "pinggir": 3737,
      "pintar": 3738,
      "pujaannya": 3739,
      "putus": 3740,
      "quick": 3741,
      "resort": 3742,
      "rutin": 3743,
      "rajin": 3744,
      "rumput": 3745,
      "rentas": 3746,
      "ringgit": 3747,
      "ranau": 3748,
      "rantaian": 3749,
      "ronaldo": 3750,
      "ranking": 3751,
      "smk": 3752,
      "sarsfield": 3753,
      "sinonim": 3754,
      "sakit": 3755,
      "suria": 3756,
      "syabu": 3757,
      "sungai": 3758,
      "saint": 3759,
      "santai": 3760,
      "sindiket": 3761,
      "sunderland": 3762,
      "tapak": 3763,
      "timur": 3764,
      "tuanku": 3765,
      "tiba": 3766,
      "tanggapan": 3767,
      "tugas": 3768,
      "tumbuh": 3769,
      "urusan": 3770,
      "uttar": 3771,
      "ukraine": 3772,
      "vientiane": 3773,
      "wolff": 3774,
      "westminster": 3775,
      "xinhua": 3776,
      "yunus": 3777,
      "zulhilmi": 3778,
      "zepp": 3779,
      "zharfan": 3780,
      "##oikot": 3781,
      "##ahteraan": 3782,
      "dipengaruhi": 3783,
      "menumpukan": 3784,
      "menepis": 3785,
      "menandatangani": 3786,
      "menimbulkan": 3787,
      "menurunkan": 3788,
      "seismik": 3789,
      "##untukkan": 3790,
      "keamanan": 3791,
      "keyakinan": 3792,
      "kecacatan": 3793,
      "kehakiman": 3794,
      "berterusan": 3795,
      "bertaraf": 3796,
      "berwarna": 3797,
      "bertembung": 3798,
      "berjanji": 3799,
      "berjumpa": 3800,
      "perosak": 3801,
      "persidangan": 3802,
      "peruncit": 3803,
      "memandang": 3804,
      "memindahkan": 3805,
      "memenangi": 3806,
      "memusnahkannya": 3807,
      "memelihara": 3808,
      "tercicir": 3809,
      "investment": 3810,
      "##ologi": 3811,
      "mengekang": 3812,
      "mengundi": 3813,
      "mengurangkan": 3814,
      "mengadili": 3815,
      "penumpang": 3816,
      "pemetaan": 3817,
      "pemansuhan": 3818,
      "anugerah": 3819,
      "pengambilan": 3820,
      "pengembara": 3821,
      "pengeksport": 3822,
      "sementara": 3823,
      "sebayanya": 3824,
      "sebotol": 3825,
      "sebahagian": 3826,
      "membanggakan": 3827,
      "membolehkan": 3828,
      "isterinya": 3829,
      "masyarakat": 3830,
      "pelupusan": 3831,
      "pelanggaran": 3832,
      "protes": 3833,
      "##okratik": 3834,
      "melaporkan": 3835,
      "sekretariat": 3836,
      "menjejaskan": 3837,
      "harimau": 3838,
      "bersetuju": 3839,
      "berkecai": 3840,
      "menyifatkan": 3841,
      "menyelesaikan": 3842,
      "merupakan": 3843,
      "pendaftaran": 3844,
      "kesejahteraan": 3845,
      "dilahirkan": 3846,
      "perlumbaan": 3847,
      "aplikasi": 3848,
      "kontinjen": 3849,
      "palmeiras": 3850,
      "industri": 3851,
      "thinkcup": 3852,
      "perseorangan": 3853,
      "persetujuan": 3854,
      "komisioner": 3855,
      "sepasukannya": 3856,
      "pembaharuan": 3857,
      "ariffin": 3858,
      "argentina": 3859,
      "keprihatinan": 3860,
      "barcelona": 3861,
      "piastri": 3862,
      "televisyen": 3863,
      "telefon": 3864,
      "ekstasi": 3865,
      "perkhidmatan": 3866,
      "england": 3867,
      "citaglobal": 3868,
      "penghormatan": 3869,
      "populariti": 3870,
      "hollywood": 3871,
      "mengesyorkan": 3872,
      "goncalo": 3873,
      "ngumoha": 3874,
      "eksekutifnya": 3875,
      "baitulmaqdis": 3876,
      "djokovic": 3877,
      "guanajuato": 3878,
      "lutkenhaus": 3879,
      "online": 3880,
      "ptkl2040": 3881,
      "uttarakhand": 3882,
      "!,": 3883,
      "!'": 3884,
      "'!": 3885,
      ",(": 3886,
      "..": 3887,
      ".,": 3888,
      "020": 3889,
      "14": 3890,
      "17": 3891,
      "120": 3892,
      "25": 3893,
      "26": 3894,
      "23": 3895,
      "27": 3896,
      "31": 3897,
      "36": 3898,
      "42": 3899,
      "43": 3900,
      "53": 3901,
      "61": 3902,
      "67": 3903,
      "75": 3904,
      "73": 3905,
      "70": 3906,
      "740": 3907,
      "88": 3908,
      "85": 3909,
      "?'": 3910,
      "].": 3911,
      "ai": 3912,
      "av": 3913,
      "aal": 3914,
      "atu": 3915,
      "bm": 3916,
      "bad": 3917,
      "bir": 3918,
      "bet": 3919,
      "baj": 3920,
      "baki": 3921,
      "bila": 3922,
      "bea": 3923,
      "buka": 3924,
      "bulu": 3925,
      "buang": 3926,
      "babitkan": 3927,
      "baca": 3928,
      "bfb": 3929,
      "bincang": 3930,
      "boikot": 3931,
      "cl": 3932,
      "cm": 3933,
      "cb": 3934,
      "cel": 3935,
      "cara": 3936,
      "ceg": 3937,
      "ced": 3938,
      "cok": 3939,
      "cup": 3940,
      "cangg": 3941,
      "cod": 3942,
      "castle": 3943,
      "cecah": 3944,
      "coo": 3945,
      "cengk": 3946,
      "cekup": 3947,
      "cetak": 3948,
      "de": 3949,
      "dv": 3950,
      "der": 3951,
      "den": 3952,
      "dend": 3953,
      "dina": 3954,
      "duri": 3955,
      "dinan": 3956,
      "detik": 3957,
      "dasar": 3958,
      "dfb": 3959,
      "desak": 3960,
      "dagangan": 3961,
      "et": 3962,
      "eas": 3963,
      "era": 3964,
      "eug": 3965,
      "fo": 3966,
      "far": 3967,
      "fot": 3968,
      "farah": 3969,
      "fadil": 3970,
      "fran": 3971,
      "frig": 3972,
      "fasil": 3973,
      "free": 3974,
      "gv": 3975,
      "gas": 3976,
      "gak": 3977,
      "gag": 3978,
      "gia": 3979,
      "guar": 3980,
      "gig": 3981,
      "gali": 3982,
      "ganti": 3983,
      "garis": 3984,
      "gurun": 3985,
      "haya": 3986,
      "hoh": 3987,
      "hend": 3988,
      "hub": 3989,
      "how": 3990,
      "hulu": 3991,
      "hansi": 3992,
      "hayat": 3993,
      "hafiz": 3994,
      "hans": 3995,
      "habis": 3996,
      "hantaran": 3997,
      "halaman": 3998,
      "it": 3999,
      "ip": 4000,
      "ialah": 4001,
      "iris": 4002,
      "jar": 4003,
      "jas": 4004,
      "jor": 4005,
      "jari": 4006,
      "jag": 4007,
      "jump": 4008,
      "jangan": 4009,
      "jud": 4010,
      "jant": 4011,
      "jaz": 4012,
      "jangk": 4013,
      "jurus": 4014,
      "jadil": 4015,
      "jonas": 4016,
      "ki": 4017,
      "ky": 4018,
      "kah": 4019,
      "kin": 4020,
      "kak": 4021,
      "kun": 4022,
      "kur": 4023,
      "kul": 4024,
      "kim": 4025,
      "kita": 4026,
      "kund": 4027,
      "kaf": 4028,
      "kukuh": 4029,
      "krik": 4030,
      "kaji": 4031,
      "kahar": 4032,
      "lg": 4033,
      "lo": 4034,
      "len": 4035,
      "lum": 4036,
      "lis": 4037,
      "lit": 4038,
      "lup": 4039,
      "lot": 4040,
      "linc": 4041,
      "lif": 4042,
      "laku": 4043,
      "lemb": 4044,
      "latih": 4045,
      "lane": 4046,
      "lumba": 4047,
      "ledak": 4048,
      "lampau": 4049,
      "lengkapkan": 4050,
      "mi": 4051,
      "mc": 4052,
      "mq": 4053,
      "mil": 4054,
      "mor": 4055,
      "mari": 4056,
      "mek": 4057,
      "mit": 4058,
      "mim": 4059,
      "mana": 4060,
      "malu": 4061,
      "mig": 4062,
      "mob": 4063,
      "mog": 4064,
      "mod": 4065,
      "malik": 4066,
      "mof": 4067,
      "mov": 4068,
      "mich": 4069,
      "msc": 4070,
      "na": 4071,
      "ne": 4072,
      "nas": 4073,
      "nak": 4074,
      "nil": 4075,
      "nai": 4076,
      "nanti": 4077,
      "namanya": 4078,
      "ol": 4079,
      "ok": 4080,
      "op": 4081,
      "olim": 4082,
      "pl": 4083,
      "pa": 4084,
      "pk": 4085,
      "pad": 4086,
      "ped": 4087,
      "pud": 4088,
      "pand": 4089,
      "parah": 4090,
      "punya": 4091,
      "pesa": 4092,
      "puas": 4093,
      "pekan": 4094,
      "puncak": 4095,
      "quran": 4096,
      "ru": 4097,
      "re": 4098,
      "ris": 4099,
      "reg": 4100,
      "rep": 4101,
      "rom": 4102,
      "rend": 4103,
      "rasa": 4104,
      "ratu": 4105,
      "ruj": 4106,
      "raz": 4107,
      "ringan": 4108,
      "rub": 4109,
      "rod": 4110,
      "radar": 4111,
      "rev": 4112,
      "rawatan": 4113,
      "rawat": 4114,
      "rempuh": 4115,
      "raih": 4116,
      "sw": 4117,
      "sil": 4118,
      "son": 4119,
      "seng": 4120,
      "sir": 4121,
      "suh": 4122,
      "sid": 4123,
      "saman": 4124,
      "sahkan": 4125,
      "sangg": 4126,
      "saja": 4127,
      "salah": 4128,
      "spa": 4129,
      "saling": 4130,
      "surut": 4131,
      "siri": 4132,
      "spek": 4133,
      "sambil": 4134,
      "sams": 4135,
      "te": 4136,
      "ty": 4137,
      "to": 4138,
      "tw": 4139,
      "tem": 4140,
      "tai": 4141,
      "tara": 4142,
      "tab": 4143,
      "tand": 4144,
      "tra": 4145,
      "tup": 4146,
      "taman": 4147,
      "tamb": 4148,
      "teka": 4149,
      "tub": 4150,
      "tinggal": 4151,
      "teman": 4152,
      "temerl": 4153,
      "tamat": 4154,
      "tambah": 4155,
      "tigr": 4156,
      "tangga": 4157,
      "tolak": 4158,
      "tukar": 4159,
      "tepat": 4160,
      "tewaskan": 4161,
      "tuntut": 4162,
      "udang": 4163,
      "van": 4164,
      "ver": 4165,
      "vis": 4166,
      "vinc": 4167,
      "vokasi": 4168,
      "win": 4169,
      "wis": 4170,
      "wkr": 4171,
      "walau": 4172,
      "ye": 4173,
      "yan": 4174,
      "yay": 4175,
      "yew": 4176,
      "zaf": 4177,
      "zuri": 4178,
      "’,": 4179,
      "##ij": 4180,
      "##iat": 4181,
      "##iam": 4182,
      "##ias": 4183,
      "##isia": 4184,
      "##icara": 4185,
      "##lr": 4186,
      "##lo": 4187,
      "##ler": 4188,
      "##lat": 4189,
      "##lek": 4190,
      "##law": 4191,
      "##last": 4192,
      "##lsb": 4193,
      "##luca": 4194,
      "##lanta": 4195,
      "##ael": 4196,
      "##aul": 4197,
      "##ach": 4198,
      "##audit": 4199,
      "##ri": 4200,
      "##ril": 4201,
      "##rul": 4202,
      "##rid": 4203,
      "##rahan": 4204,
      "##roh": 4205,
      "##rob": 4206,
      "##sen": 4207,
      "##sal": 4208,
      "##sul": 4209,
      "##sus": 4210,
      "##sukan": 4211,
      "##sud": 4212,
      "##sos": 4213,
      "##sub": 4214,
      "##ks": 4215,
      "##kara": 4216,
      "##kuh": 4217,
      "##kinan": 4218,
      "##khah": 4219,
      "##net": 4220,
      "##nab": 4221,
      "##nom": 4222,
      "##ty": 4223,
      "##tang": 4224,
      "##tah": 4225,
      "##tkan": 4226,
      "##til": 4227,
      "##tahan": 4228,
      "##tand": 4229,
      "##tob": 4230,
      "##tatus": 4231,
      "##tikal": 4232,
      "##tunya": 4233,
      "##gat": 4234,
      "##gun": 4235,
      "##gian": 4236,
      "##gasi": 4237,
      "##gant": 4238,
      "##gium": 4239,
      "##gkit": 4240,
      "##groh": 4241,
      "##mal": 4242,
      "##mad": 4243,
      "##mun": 4244,
      "##mala": 4245,
      "##mud": 4246,
      "##madi": 4247,
      "##mint": 4248,
      "##ue": 4249,
      "##utuk": 4250,
      "##uaran": 4251,
      "##ualan": 4252,
      "##uahkan": 4253,
      "##bat": 4254,
      "##bah": 4255,
      "##bel": 4256,
      "##bum": 4257,
      "##bor": 4258,
      "##baik": 4259,
      "##bitan": 4260,
      "##baikan": 4261,
      "##brid": 4262,
      "##hen": 4263,
      "##hul": 4264,
      "##hia": 4265,
      "##hali": 4266,
      "##hangat": 4267,
      "##hlet": 4268,
      "##hts": 4269,
      "##een": 4270,
      "##esi": 4271,
      "##ehad": 4272,
      "##eorang": 4273,
      "##esif": 4274,
      "##yo": 4275,
      "##yan": 4276,
      "##yang": 4277,
      "##yel": 4278,
      "##yad": 4279,
      "##yik": 4280,
      "##dung": 4281,
      "##dhi": 4282,
      "##dagangan": 4283,
      "##ou": 4284,
      "##oor": 4285,
      "##osid": 4286,
      "##oug": 4287,
      "##oco": 4288,
      "##vo": 4289,
      "##vin": 4290,
      "##vey": 4291,
      "##py": 4292,
      "##pem": 4293,
      "##pad": 4294,
      "##pik": 4295,
      "##ping": 4296,
      "##put": 4297,
      "##pany": 4298,
      "##padanya": 4299,
      "##phia": 4300,
      "##jam": 4301,
      "##jur": 4302,
      "##jaan": 4303,
      "##jaw": 4304,
      "##jub": 4305,
      "##80": 4306,
      "##za": 4307,
      "##zo": 4308,
      "##zaki": 4309,
      "##zle": 4310,
      "##fw": 4311,
      "##fail": 4312,
      "##form": 4313,
      "##52": 4314,
      "##500": 4315,
      "##652": 4316,
      "##cang": 4317,
      "##cun": 4318,
      "##cum": 4319,
      "##com": 4320,
      "##cepat": 4321,
      "##wah": 4322,
      "##39": 4323,
      "##90": 4324,
      "##78": 4325,
      "##ano": 4326,
      "##annya": 4327,
      "##anian": 4328,
      "##anasan": 4329,
      "##anfa": 4330,
      "##ersi": 4331,
      "##erakan": 4332,
      "##erbitan": 4333,
      "##erhen": 4334,
      "##erdagangan": 4335,
      "##ene": 4336,
      "##enos": 4337,
      "##encat": 4338,
      "##are": 4339,
      "##ard": 4340,
      "##arap": 4341,
      "##araskan": 4342,
      "##arapkan": 4343,
      "##alian": 4344,
      "##alurkan": 4345,
      "##atat": 4346,
      "##aturan": 4347,
      "##angi": 4348,
      "##ahatan": 4349,
      "##ahuan": 4350,
      "##ahakan": 4351,
      "##ahasan": 4352,
      "##ahira": 4353,
      "##inar": 4354,
      "##inet": 4355,
      "##emah": 4356,
      "##ement": 4357,
      "##emasan": 4358,
      "##emuka": 4359,
      "##amar": 4360,
      "##amaian": 4361,
      "##ambangkan": 4362,
      "##asya": 4363,
      "##asai": 4364,
      "##asta": 4365,
      "##asih": 4366,
      "##asis": 4367,
      "##asepak": 4368,
      "##kanis": 4369,
      "##kandung": 4370,
      "##elar": 4371,
      "##elah": 4372,
      "##elut": 4373,
      "##elamat": 4374,
      "##eluaran": 4375,
      "diak": 4376,
      "ditu": 4377,
      "diing": 4378,
      "dita": 4379,
      "diuk": 4380,
      "dibang": 4381,
      "dihadap": 4382,
      "diej": 4383,
      "diub": 4384,
      "diumum": 4385,
      "disif": 4386,
      "dipen": 4387,
      "diingati": 4388,
      "diternak": 4389,
      "dikandung": 4390,
      "mena": 4391,
      "menang": 4392,
      "menak": 4393,
      "menik": 4394,
      "menari": 4395,
      "meneb": 4396,
      "menud": 4397,
      "menua": 4398,
      "menampung": 4399,
      "menempa": 4400,
      "menolak": 4401,
      "menangani": 4402,
      "menulis": 4403,
      "menukar": 4404,
      "menetapkan": 4405,
      "menewaskan": 4406,
      "menuntut": 4407,
      "mentah": 4408,
      "menasih": 4409,
      "##akil": 4410,
      "##akai": 4411,
      "##aklum": 4412,
      "##aksud": 4413,
      "##aktikal": 4414,
      "##akbah": 4415,
      "##adap": 4416,
      "##adangan": 4417,
      "##adangkan": 4418,
      "##adinya": 4419,
      "sesi": 4420,
      "seir": 4421,
      "seek": 4422,
      "seti": 4423,
      "seakan": 4424,
      "seusi": 4425,
      "seusia": 4426,
      "seolah": 4427,
      "setuj": 4428,
      "secepat": 4429,
      "##unaskan": 4430,
      "##unif": 4431,
      "keengg": 4432,
      "berang": 4433,
      "bersi": 4434,
      "beruk": 4435,
      "bertuk": 4436,
      "berpada": 4437,
      "beraz": 4438,
      "berapa": 4439,
      "berebut": 4440,
      "berdaya": 4441,
      "berehat": 4442,
      "bertuj": 4443,
      "beraudit": 4444,
      "berput": 4445,
      "berunif": 4446,
      "##umi": 4447,
      "##umbang": 4448,
      "##umbangkan": 4449,
      "##sitif": 4450,
      "##siapkan": 4451,
      "##tup": 4452,
      "##tual": 4453,
      "##urul": 4454,
      "##uruk": 4455,
      "##urasi": 4456,
      "##urob": 4457,
      "##urunan": 4458,
      "##iki": 4459,
      "##ikatan": 4460,
      "##iksa": 4461,
      "##ikiran": 4462,
      "##apati": 4463,
      "##appen": 4464,
      "perada": 4465,
      "perund": 4466,
      "perub": 4467,
      "perair": 4468,
      "perpad": 4469,
      "percum": 4470,
      "peraturan": 4471,
      "perikatan": 4472,
      "##ile": 4473,
      "##ilah": 4474,
      "##ilikan": 4475,
      "##ingatkan": 4476,
      "##oninya": 4477,
      "##engahan": 4478,
      "##engahkan": 4479,
      "##engkam": 4480,
      "##yaan": 4481,
      "##yazaki": 4482,
      "##oral": 4483,
      "##orok": 4484,
      "##oroug": 4485,
      "##aimi": 4486,
      "##aitkan": 4487,
      "##ulang": 4488,
      "##ulas": 4489,
      "##uluh": 4490,
      "##ulakan": 4491,
      "##ulasi": 4492,
      "##ulingkan": 4493,
      "##uluskan": 4494,
      "##alayak": 4495,
      "##ussia": 4496,
      "##usutan": 4497,
      "##usahakan": 4498,
      "memaj": 4499,
      "memud": 4500,
      "memain": 4501,
      "memuat": 4502,
      "memeter": 4503,
      "memerl": 4504,
      "memenuh": 4505,
      "memasuk": 4506,
      "memaksa": 4507,
      "memuncak": 4508,
      "memfail": 4509,
      "memanfa": 4510,
      "memaklum": 4511,
      "memulakan": 4512,
      "terbang": 4513,
      "terma": 4514,
      "terurus": 4515,
      "terhangat": 4516,
      "terencat": 4517,
      "##tabat": 4518,
      "##tavo": 4519,
      "##ess": 4520,
      "##esai": 4521,
      "##esca": 4522,
      "##arif": 4523,
      "##arikan": 4524,
      "inc": 4525,
      "insiden": 4526,
      "intern": 4527,
      "ingat": 4528,
      "##olek": 4529,
      "##olusi": 4530,
      "##iranan": 4531,
      "##agihan": 4532,
      "##agement": 4533,
      "menget": 4534,
      "menghad": 4535,
      "mengint": 4536,
      "mengej": 4537,
      "mengira": 4538,
      "menganc": 4539,
      "mengisi": 4540,
      "menghid": 4541,
      "mengurus": 4542,
      "mengetu": 4543,
      "mengkr": 4544,
      "mengimb": 4545,
      "mengeluarkan": 4546,
      "mengendali": 4547,
      "mengadakan": 4548,
      "mengawal": 4549,
      "mengugut": 4550,
      "menguas": 4551,
      "mengutuk": 4552,
      "mengehad": 4553,
      "mengingatkan": 4554,
      "mengulas": 4555,
      "mengusahakan": 4556,
      "##ukaran": 4557,
      "##ukuhan": 4558,
      "##ukri": 4559,
      "##ist": 4560,
      "##ishi": 4561,
      "penh": 4562,
      "penangg": 4563,
      "penilai": 4564,
      "penjim": 4565,
      "penambah": 4566,
      "penjara": 4567,
      "penulis": 4568,
      "penternak": 4569,
      "penerbitan": 4570,
      "penurunan": 4571,
      "##uty": 4572,
      "##utkan": 4573,
      "##utika": 4574,
      "kuat": 4575,
      "kuasai": 4576,
      "##etep": 4577,
      "##etot": 4578,
      "##etrik": 4579,
      "##etakkan": 4580,
      "##etengah": 4581,
      "##etahuan": 4582,
      "ungkit": 4583,
      "##itik": 4584,
      "##itanya": 4585,
      "##itikal": 4586,
      "##iayaan": 4587,
      "##ajah": 4588,
      "##ajuan": 4589,
      "##idas": 4590,
      "##idadah": 4591,
      "##idien": 4592,
      "##umpun": 4593,
      "pemot": 4594,
      "pemimp": 4595,
      "pemuz": 4596,
      "pemilih": 4597,
      "pemanta": 4598,
      "pemikiran": 4599,
      "pemilikan": 4600,
      "##egu": 4601,
      "##egerakan": 4602,
      "anjur": 4603,
      "pengund": 4604,
      "pengisi": 4605,
      "penganj": 4606,
      "pengunj": 4607,
      "pengurangan": 4608,
      "pengesahan": 4609,
      "pengajian": 4610,
      "pengalaman": 4611,
      "pengeluaran": 4612,
      "pengagihan": 4613,
      "pengukuhan": 4614,
      "pengetahuan": 4615,
      "##abar": 4616,
      "##abut": 4617,
      "##abung": 4618,
      "##abalu": 4619,
      "selari": 4620,
      "selagi": 4621,
      "selesai": 4622,
      "##ungkinan": 4623,
      "##ungjaw": 4624,
      "##epkan": 4625,
      "##edit": 4626,
      "sebent": 4627,
      "sebulan": 4628,
      "sebaik": 4629,
      "sebarang": 4630,
      "sebesar": 4631,
      "##tiano": 4632,
      "##udian": 4633,
      "##udupan": 4634,
      "membent": 4635,
      "membebaskan": 4636,
      "membida": 4637,
      "membaca": 4638,
      "memboikot": 4639,
      "memberhen": 4640,
      "membidas": 4641,
      "##andaran": 4642,
      "##andaskan": 4643,
      "##ampuan": 4644,
      "##ampaian": 4645,
      "keroh": 4646,
      "kerja": 4647,
      "kerjaya": 4648,
      "kerangka": 4649,
      "dengannya": 4650,
      "isma": 4651,
      "##osa": 4652,
      "##uanita": 4653,
      "##oharan": 4654,
      "##ayan": 4655,
      "##ayangi": 4656,
      "master": 4657,
      "maskara": 4658,
      "maszle": 4659,
      "pelaku": 4660,
      "pelayaran": 4661,
      "pelawak": 4662,
      "prod": 4663,
      "praktikal": 4664,
      "##ainya": 4665,
      "##okm": 4666,
      "##oma": 4667,
      "##omatik": 4668,
      "##ometrik": 4669,
      "melanc": 4670,
      "melod": 4671,
      "melatih": 4672,
      "melantik": 4673,
      "melaksanakan": 4674,
      "melampau": 4675,
      "melengkapkan": 4676,
      "meluahkan": 4677,
      "melambangkan": 4678,
      "melunaskan": 4679,
      "melarikan": 4680,
      "meletakkan": 4681,
      "sekian": 4682,
      "sekarang": 4683,
      "menjaga": 4684,
      "##adikan": 4685,
      "##ebihan": 4686,
      "harian": 4687,
      "##entangan": 4688,
      "##entasi": 4689,
      "##inggian": 4690,
      "malayan": 4691,
      "sering": 4692,
      "serdang": 4693,
      "serumpun": 4694,
      "serabut": 4695,
      "aset": 4696,
      "aspirasi": 4697,
      "astil": 4698,
      "asmadi": 4699,
      "asyik": 4700,
      "kematian": 4701,
      "kempen": 4702,
      "kemasukan": 4703,
      "kemusn": 4704,
      "kemudahan": 4705,
      "kemetot": 4706,
      "kemajuan": 4707,
      "kemungkinan": 4708,
      "kemudian": 4709,
      "kemampuan": 4710,
      "kelas": 4711,
      "kelebihan": 4712,
      "alat": 4713,
      "albar": 4714,
      "album": 4715,
      "alvin": 4716,
      "akpk": 4717,
      "berstatus": 4718,
      "bersemuka": 4719,
      "berkala": 4720,
      "berkual": 4721,
      "berkons": 4722,
      "berkahw": 4723,
      "amt": 4724,
      "daripadanya": 4725,
      "menyind": 4726,
      "menyedia": 4727,
      "menyanyi": 4728,
      "menyemak": 4729,
      "menyamai": 4730,
      "menyumbangkan": 4731,
      "menyegerakan": 4732,
      "merasa": 4733,
      "merangk": 4734,
      "merangka": 4735,
      "merunc": 4736,
      "merasakan": 4737,
      "meridien": 4738,
      "ketinggian": 4739,
      "rm57": 4740,
      "rm500": 4741,
      "rm652": 4742,
      "rm39": 4743,
      "##ational": 4744,
      "##ipmun": 4745,
      "##empedak": 4746,
      "##ewa": 4747,
      "##alanannya": 4748,
      "pasar": 4749,
      "pasir": 4750,
      "pastikan": 4751,
      "pascat": 4752,
      "##usif": 4753,
      "pendulang": 4754,
      "mahasis": 4755,
      "##chi": 4756,
      "##chy": 4757,
      "##chard": 4758,
      "ditamatkan": 4759,
      "ditetapkan": 4760,
      "kesediaan": 4761,
      "kesepak": 4762,
      "kesudahan": 4763,
      "kesukaran": 4764,
      "belling": 4765,
      "belgium": 4766,
      "mendaki": 4767,
      "mendepan": 4768,
      "mendaft": 4769,
      "mendesak": 4770,
      "terhadapnya": 4771,
      "##aluinya": 4772,
      "##intis": 4773,
      "##intahan": 4774,
      "##intosh": 4775,
      "dilaraskan": 4776,
      "diluluskan": 4777,
      "dilaluinya": 4778,
      "##under": 4779,
      "rumahnya": 4780,
      "perlukan": 4781,
      "perladangan": 4782,
      "apa": 4783,
      "april": 4784,
      "konven": 4785,
      "konsisten": 4786,
      "petang": 4787,
      "sensitif": 4788,
      "##jau": 4789,
      "palang": 4790,
      "palsukan": 4791,
      "siulan": 4792,
      "dirinya": 4793,
      "dirintis": 4794,
      "penyalah": 4795,
      "penyeles": 4796,
      "penyias": 4797,
      "penyelamat": 4798,
      "penyumbang": 4799,
      "penyusutan": 4800,
      "penyampaian": 4801,
      "tanya": 4802,
      "##azer": 4803,
      "##azeli": 4804,
      "dikenal": 4805,
      "dikongsikan": 4806,
      "dikaitkan": 4807,
      "diketep": 4808,
      "adil": 4809,
      "adakan": 4810,
      "bukannya": 4811,
      "dating": 4812,
      "max": 4813,
      "shaf": 4814,
      "shams": 4815,
      "shukri": 4816,
      "shazeli": 4817,
      "##ights": 4818,
      "##arkannya": 4819,
      "mencari": 4820,
      "mencetus": 4821,
      "mencatat": 4822,
      "mencadangkan": 4823,
      "kejahatan": 4824,
      "kejurul": 4825,
      "kejiranan": 4826,
      "atp": 4827,
      "atlet": 4828,
      "atlanta": 4829,
      "athlet": 4830,
      "rakam": 4831,
      "##anggang": 4832,
      "##anggunya": 4833,
      "##anggungjaw": 4834,
      "mano": 4835,
      "manja": 4836,
      "manusia": 4837,
      "manfa": 4838,
      "management": 4839,
      "manoharan": 4840,
      "persaraan": 4841,
      "persemb": 4842,
      "mempertim": 4843,
      "memperuntukkan": 4844,
      "memperlek": 4845,
      "mempertahan": 4846,
      "memperbaik": 4847,
      "mempersiapkan": 4848,
      "2028": 4849,
      "bebaskan": 4850,
      "choco": 4851,
      "chipmun": 4852,
      "chempedak": 4853,
      "##ublik": 4854,
      "kedaul": 4855,
      "perdamaian": 4856,
      "terbaik": 4857,
      "terbitan": 4858,
      "terbunuh": 4859,
      "terbesar": 4860,
      "terburuk": 4861,
      "komen": 4862,
      "komod": 4863,
      "komedi": 4864,
      "komersi": 4865,
      "minit": 4866,
      "sebelah": 4867,
      "bolasepak": 4868,
      "panel": 4869,
      "diperlu": 4870,
      "diperoleh": 4871,
      "diperuntukkan": 4872,
      "dipersal": 4873,
      "dipertand": 4874,
      "diperiksa": 4875,
      "sepanj": 4876,
      "sepuluh": 4877,
      "pembakaran": 4878,
      "pembiayaan": 4879,
      "pembentangan": 4880,
      "agar": 4881,
      "agrob": 4882,
      "benarkan": 4883,
      "majid": 4884,
      "wanitanya": 4885,
      "dibina": 4886,
      "dibayar": 4887,
      "dibenarkan": 4888,
      "dibayangi": 4889,
      "seseorang": 4890,
      "sesetengah": 4891,
      "segi": 4892,
      "berminat": 4893,
      "bermoral": 4894,
      "rm18": 4895,
      "rm157": 4896,
      "mekanis": 4897,
      "oreal": 4898,
      "paras": 4899,
      "remco": 4900,
      "susunan": 4901,
      "serius": 4902,
      "trow": 4903,
      "trans": 4904,
      "##isiplin": 4905,
      "disahkan": 4906,
      "disambut": 4907,
      "disember": 4908,
      "disajikan": 4909,
      "disalurkan": 4910,
      "disorok": 4911,
      "##izah": 4912,
      "##eha": 4913,
      "##ehkan": 4914,
      "mendapat": 4915,
      "arab": 4916,
      "arahan": 4917,
      "arnab": 4918,
      "arwah": 4919,
      "bild": 4920,
      "bayi": 4921,
      "bayangkan": 4922,
      "leagu": 4923,
      "##odo": 4924,
      "tersendiri": 4925,
      "menggabung": 4926,
      "mengganggunya": 4927,
      "didapati": 4928,
      "meninggalkan": 4929,
      "ford": 4930,
      "forum": 4931,
      "force": 4932,
      "hassan": 4933,
      "saing": 4934,
      "saff": 4935,
      "star": 4936,
      "alami": 4937,
      "perluas": 4938,
      "awas": 4939,
      "harum": 4940,
      "harry": 4941,
      "harvey": 4942,
      "barulah": 4943,
      "fly": 4944,
      "flow": 4945,
      "flick": 4946,
      "fleksi": 4947,
      "floor": 4948,
      "imej": 4949,
      "pertunj": 4950,
      "pertengahan": 4951,
      "terluang": 4952,
      "terletak": 4953,
      "menghapuskan": 4954,
      "menghasil": 4955,
      "mengharapkan": 4956,
      "petro": 4957,
      "memperkasa": 4958,
      "memperkasakan": 4959,
      "130": 4960,
      "kena": 4961,
      "kenang": 4962,
      "kenakan": 4963,
      "kenapa": 4964,
      "kennet": 4965,
      "kencang": 4966,
      "tarian": 4967,
      "kebun": 4968,
      "kebajikan": 4969,
      "perkara": 4970,
      "perkasa": 4971,
      "perkemb": 4972,
      "perkahw": 4973,
      "kontraknya": 4974,
      "elak": 4975,
      "enzo": 4976,
      "mustang": 4977,
      "takh": 4978,
      "##stappen": 4979,
      "dijadikan": 4980,
      "kecaman": 4981,
      "kecemasan": 4982,
      "kecewa": 4983,
      "ketuai": 4984,
      "berhutang": 4985,
      "berharap": 4986,
      "berhemah": 4987,
      "##sihkan": 4988,
      "angka": 4989,
      "angkuh": 4990,
      "menyerang": 4991,
      "pekerjaan": 4992,
      "ahmad": 4993,
      "generasi": 4994,
      "genosid": 4995,
      "koleksi": 4996,
      "kendalian": 4997,
      "murah": 4998,
      "suip": 4999,
      "tenang": 5000,
      "tawanan": 5001,
      "usul": 5002,
      "##eza": 5003,
      "##ezaan": 5004,
      "##cayaan": 5005,
      "digelar": 5006,
      "digulingkan": 5007,
      "berlandaskan": 5008,
      "beradab": 5009,
      "terkini": 5010,
      "terkenal": 5011,
      "penghij": 5012,
      "##tifkan": 5013,
      "abangnya": 5014,
      "golongan": 5015,
      "hillsb": 5016,
      "kln": 5017,
      "klia": 5018,
      "klasik": 5019,
      "klfw": 5020,
      "legend": 5021,
      "marles": 5022,
      "martabat": 5023,
      "maresca": 5024,
      "meteor": 5025,
      "metmala": 5026,
      "pulih": 5027,
      "pulangkan": 5028,
      "tegar": 5029,
      "teguh": 5030,
      "tegaskan": 5031,
      "bernie": 5032,
      "berbaris": 5033,
      "berbincang": 5034,
      "berbicara": 5035,
      "berbeza": 5036,
      "pencari": 5037,
      "penyertaan": 5038,
      "hasilnya": 5039,
      "abc": 5040,
      "green": 5041,
      "gerakkan": 5042,
      "gergasi": 5043,
      "hadkan": 5044,
      "hadir": 5045,
      "khan": 5046,
      "khalayak": 5047,
      "khabar": 5048,
      "kami": 5049,
      "kamera": 5050,
      "kamulah": 5051,
      "normal": 5052,
      "nasib": 5053,
      "pahlaw": 5054,
      "talmud": 5055,
      "tunku": 5056,
      "tunisia": 5057,
      "upah": 5058,
      "wakil": 5059,
      "waktunya": 5060,
      "##klusif": 5061,
      "##cliff": 5062,
      "sehebat": 5063,
      "perbualan": 5064,
      "perbahasan": 5065,
      "perbandaran": 5066,
      "perbezaan": 5067,
      "termuat": 5068,
      "termuda": 5069,
      "mengemas": 5070,
      "mengembangkan": 5071,
      "penuhi": 5072,
      "petroliam": 5073,
      "193": 5074,
      "1990": 5075,
      "1978": 5076,
      "ajal": 5077,
      "biadap": 5078,
      "biometrik": 5079,
      "bangku": 5080,
      "gelanggang": 5081,
      "jenama": 5082,
      "jadikan": 5083,
      "kapten": 5084,
      "kapsul": 5085,
      "mbsa": 5086,
      "rio": 5087,
      "riyad": 5088,
      "ritual": 5089,
      "richard": 5090,
      "sydn": 5091,
      "syahira": 5092,
      "salin": 5093,
      "saleha": 5094,
      "tebus": 5095,
      "tangani": 5096,
      "##seling": 5097,
      "##mark": 5098,
      "##fford": 5099,
      "berdepan": 5100,
      "berdiri": 5101,
      "berdurasi": 5102,
      "berdisiplin": 5103,
      "pemergian": 5104,
      "pemerintahan": 5105,
      "pemiliknya": 5106,
      "sepenuhya": 5107,
      "kumpulannya": 5108,
      "khidmatnya": 5109,
      "perpindahannya": 5110,
      "116": 5111,
      "gustavo": 5112,
      "ikut": 5113,
      "jaminan": 5114,
      "korban": 5115,
      "naiki": 5116,
      "naikkan": 5117,
      "pakar": 5118,
      "ribuan": 5119,
      "single": 5120,
      "simpang": 5121,
      "ulang": 5122,
      "##spur": 5123,
      "setelah": 5124,
      "keganasan": 5125,
      "kepercayaan": 5126,
      "bergaya": 5127,
      "berganding": 5128,
      "bergolak": 5129,
      "bergiat": 5130,
      "bergelut": 5131,
      "tertekan": 5132,
      "mengesan": 5133,
      "cheras": 5134,
      "kehidupannya": 5135,
      "188": 5136,
      "180": 5137,
      "12b": 5138,
      "352": 5139,
      "500cc": 5140,
      "buangan": 5141,
      "buenos": 5142,
      "buli": 5143,
      "bidang": 5144,
      "bidas": 5145,
      "bidaan": 5146,
      "biduanita": 5147,
      "budak": 5148,
      "cadang": 5149,
      "giants": 5150,
      "gianluca": 5151,
      "kritikal": 5152,
      "kredit": 5153,
      "moga": 5154,
      "nyata": 5155,
      "pusingan": 5156,
      "road": 5157,
      "rugikan": 5158,
      "scien": 5159,
      "scare": 5160,
      "sabah": 5161,
      "sabtu": 5162,
      "tokyo": 5163,
      "##penyel": 5164,
      "##unty": 5165,
      "bercita": 5166,
      "bercuti": 5167,
      "bercampur": 5168,
      "bercadang": 5169,
      "peribadinya": 5170,
      "perancangan": 5171,
      "tergesa": 5172,
      "tergantung": 5173,
      "pengebilan": 5174,
      "menjalankan": 5175,
      "keteguhan": 5176,
      "pendekatan": 5177,
      "dikemas": 5178,
      "kompas": 5179,
      "kompany": 5180,
      "sulungnya": 5181,
      "dokumentasi": 5182,
      "dedikasikan": 5183,
      "1000": 5184,
      "228": 5185,
      "ayer": 5186,
      "afp": 5187,
      "aires": 5188,
      "borussia": 5189,
      "bangkit": 5190,
      "comel": 5191,
      "company": 5192,
      "daegu": 5193,
      "demokratik": 5194,
      "faktor": 5195,
      "ganggu": 5196,
      "heights": 5197,
      "hakam": 5198,
      "kaca": 5199,
      "luis": 5200,
      "lapangan": 5201,
      "ligue": 5202,
      "medsos": 5203,
      "mewakil": 5204,
      "ngan": 5205,
      "novak": 5206,
      "phnom": 5207,
      "punca": 5208,
      "pantas": 5209,
      "racun": 5210,
      "rosakkan": 5211,
      "sophia": 5212,
      "spesif": 5213,
      "sumbang": 5214,
      "sampai": 5215,
      "tnb": 5216,
      "tvet": 5217,
      "teki": 5218,
      "timbalan": 5219,
      "veterinar": 5220,
      "wajah": 5221,
      "yusry": 5222,
      "##tening": 5223,
      "##tenham": 5224,
      "dicadang": 5225,
      "dicekup": 5226,
      "dicengkam": 5227,
      "menawan": 5228,
      "bertahan": 5229,
      "bertanding": 5230,
      "bertanggungjaw": 5231,
      "peringatan": 5232,
      "meminjam": 5233,
      "mengkaji": 5234,
      "antidadah": 5235,
      "istilah": 5236,
      "pelancongan": 5237,
      "melakar": 5238,
      "keletah": 5239,
      "rm280": 5240,
      "sentimen": 5241,
      "sheila": 5242,
      "komunikasi": 5243,
      "komando": 5244,
      "eksklusif": 5245,
      "mohamad": 5246,
      "rocchi": 5247,
      "wujudnya": 5248,
      "youtuber": 5249,
      "university": 5250,
      "threads": 5251,
      "azree": 5252,
      "azizah": 5253,
      "autokratik": 5254,
      "automatik": 5255,
      "coach": 5256,
      "county": 5257,
      "catur": 5258,
      "catchy": 5259,
      "crispy": 5260,
      "cristiano": 5261,
      "cantikkan": 5262,
      "global": 5263,
      "glazer": 5264,
      "hiasan": 5265,
      "hijau": 5266,
      "hotel": 5267,
      "hotspur": 5268,
      "irena": 5269,
      "ironinya": 5270,
      "jelita": 5271,
      "jelajah": 5272,
      "jimat": 5273,
      "kabadi": 5274,
      "kabinet": 5275,
      "mulai": 5276,
      "multi": 5277,
      "makanan": 5278,
      "nurul": 5279,
      "nurhali": 5280,
      "rating": 5281,
      "ratcliff": 5282,
      "sentap": 5283,
      "sentosa": 5284,
      "tuduh": 5285,
      "tuduhan": 5286,
      "toto": 5287,
      "tottenham": 5288,
      "york": 5289,
      "yoro": 5290,
      "##riguez": 5291,
      "##kitkan": 5292,
      "dimiliki": 5293,
      "dimaksud": 5294,
      "dipecahkan": 5295,
      "dipakai": 5296,
      "disiplin": 5297,
      "disisihkan": 5298,
      "perjawatan": 5299,
      "perjalanannya": 5300,
      "persiaran": 5301,
      "persiapan": 5302,
      "menguji": 5303,
      "mengujakan": 5304,
      "antipem": 5305,
      "antipenyel": 5306,
      "pengasas": 5307,
      "pengasuh": 5308,
      "pengarahnya": 5309,
      "peluangnya": 5310,
      "profesi": 5311,
      "rm400": 5312,
      "rm413": 5313,
      "2012": 5314,
      "2017": 5315,
      "ditunggangi": 5316,
      "ditungganginya": 5317,
      "memperluas": 5318,
      "memperluaskan": 5319,
      "kediamannya": 5320,
      "kebergant": 5321,
      "keberanian": 5322,
      "dahsyatnya": 5323,
      "khusus": 5324,
      "khususnya": 5325,
      "kaunter": 5326,
      "kaunseling": 5327,
      "teknikal": 5328,
      "teknologi": 5329,
      "wajibkan": 5330,
      "yusoff": 5331,
      "putuskan": 5332,
      "membolehkannya": 5333,
      "industries": 5334,
      "750": 5335,
      "aviv": 5336,
      "aalbor": 5337,
      "aturan": 5338,
      "bmlr": 5339,
      "badmint": 5340,
      "biro": 5341,
      "better": 5342,
      "bajet": 5343,
      "beauty": 5344,
      "bfbl": 5345,
      "club": 5346,
      "cbs": 5347,
      "celaya": 5348,
      "cegah": 5349,
      "cedera": 5350,
      "coklat": 5351,
      "canggih": 5352,
      "cody": 5353,
      "cooper": 5354,
      "cengkaman": 5355,
      "dvs": 5356,
      "derma": 5357,
      "denmark": 5358,
      "dendam": 5359,
      "dinaiki": 5360,
      "dinantikan": 5361,
      "etika": 5362,
      "easy": 5363,
      "eugene": 5364,
      "founder": 5365,
      "farhah": 5366,
      "foto": 5367,
      "farahdhi": 5368,
      "fadillah": 5369,
      "frank": 5370,
      "frigat": 5371,
      "fasiliti": 5372,
      "gvir": 5373,
      "gakpo": 5374,
      "gagal": 5375,
      "giacom": 5376,
      "gigih": 5377,
      "hayaou": 5378,
      "hendak": 5379,
      "hubungan": 5380,
      "howl": 5381,
      "hansgroh": 5382,
      "itamar": 5383,
      "ipoh": 5384,
      "jaring": 5385,
      "jasmi": 5386,
      "jorge": 5387,
      "jaguh": 5388,
      "jude": 5389,
      "jantina": 5390,
      "jazz": 5391,
      "jangkaan": 5392,
      "jurusolek": 5393,
      "jadilah": 5394,
      "jonassen": 5395,
      "kiamat": 5396,
      "kyodo": 5397,
      "kaherah": 5398,
      "kinabalu": 5399,
      "kuno": 5400,
      "kursus": 5401,
      "kulit": 5402,
      "kundur": 5403,
      "kafe": 5404,
      "kriket": 5405,
      "lgm": 5406,
      "lojing": 5407,
      "leny": 5408,
      "lumayan": 5409,
      "listening": 5410,
      "literasi": 5411,
      "lupa": 5412,
      "lothar": 5413,
      "lincah": 5414,
      "life": 5415,
      "lembaga": 5416,
      "miyazaki": 5417,
      "mcintosh": 5418,
      "mqa": 5419,
      "mill": 5420,
      "morton": 5421,
      "maritim": 5422,
      "mekar": 5423,
      "mitsub": 5424,
      "mimi": 5425,
      "migran": 5426,
      "mobile": 5427,
      "mogami": 5428,
      "moden": 5429,
      "moving": 5430,
      "michael": 5431,
      "nautika": 5432,
      "neurob": 5433,
      "naskhah": 5434,
      "nakal": 5435,
      "nilainya": 5436,
      "naib": 5437,
      "old": 5438,
      "oktob": 5439,
      "olimpik": 5440,
      "plot": 5441,
      "pkokm": 5442,
      "padanan": 5443,
      "pedoman": 5444,
      "pudu": 5445,
      "panduan": 5446,
      "pesaing": 5447,
      "ruangan": 5448,
      "reaksi": 5449,
      "risau": 5450,
      "regis": 5451,
      "republik": 5452,
      "rendah": 5453,
      "rujukan": 5454,
      "razak": 5455,
      "ruben": 5456,
      "rodriguez": 5457,
      "revolusi": 5458,
      "swasta": 5459,
      "silam": 5460,
      "sengit": 5461,
      "suhaimi": 5462,
      "sidek": 5463,
      "sanggup": 5464,
      "space": 5465,
      "spekulasi": 5466,
      "samshir": 5467,
      "team": 5468,
      "tyler": 5469,
      "tour": 5470,
      "twist": 5471,
      "temasya": 5472,
      "taiping": 5473,
      "taraf": 5474,
      "tablo": 5475,
      "tanda": 5476,
      "trafford": 5477,
      "tupai": 5478,
      "tambahan": 5479,
      "tinggalkan": 5480,
      "temerloh": 5481,
      "tigress": 5482,
      "verstappen": 5483,
      "visual": 5484,
      "vincent": 5485,
      "vokasional": 5486,
      "wisma": 5487,
      "wkrp": 5488,
      "yeoh": 5489,
      "yayasan": 5490,
      "zafrul": 5491,
      "zurich": 5492,
      "##lastoma": 5493,
      "##gunaan": 5494,
      "##bridge": 5495,
      "##jubkan": 5496,
      "##formasi": 5497,
      "diaktifkan": 5498,
      "ditutup": 5499,
      "diingini": 5500,
      "ditayang": 5501,
      "diukur": 5502,
      "dibangkitkan": 5503,
      "dihadapkan": 5504,
      "diejek": 5505,
      "diubah": 5506,
      "disifatkan": 5507,
      "dipenjara": 5508,
      "menakjubkan": 5509,
      "menikam": 5510,
      "menebus": 5511,
      "menuduh": 5512,
      "menasihatkan": 5513,
      "seiring": 5514,
      "seekor": 5515,
      "setiap": 5516,
      "seusianya": 5517,
      "setuju": 5518,
      "keengganan": 5519,
      "bersiap": 5520,
      "berukuran": 5521,
      "bertukar": 5522,
      "berazam": 5523,
      "bertujuan": 5524,
      "berputar": 5525,
      "beruniform": 5526,
      "peradaban": 5527,
      "perundingan": 5528,
      "perubahan": 5529,
      "perairan": 5530,
      "perpaduan": 5531,
      "percuma": 5532,
      "##orough": 5533,
      "memajukan": 5534,
      "memudahkan": 5535,
      "memainkan": 5536,
      "memeterai": 5537,
      "memerlukan": 5538,
      "memenuhi": 5539,
      "memasuki": 5540,
      "memfailkan": 5541,
      "memanfaatkan": 5542,
      "memaklumkan": 5543,
      "international": 5544,
      "mengetengahkan": 5545,
      "menghadiri": 5546,
      "mengintai": 5547,
      "mengejutkan": 5548,
      "mengancam": 5549,
      "menghidap": 5550,
      "menguruskan": 5551,
      "mengetuai": 5552,
      "mengkritik": 5553,
      "mengimbas": 5554,
      "mengendalikan": 5555,
      "menguasai": 5556,
      "mengehadkan": 5557,
      "penangguhan": 5558,
      "penjimatan": 5559,
      "penambahbaikan": 5560,
      "pemotongan": 5561,
      "pemimpin": 5562,
      "pemuzik": 5563,
      "pemantauan": 5564,
      "pengundian": 5565,
      "pengisian": 5566,
      "penganjuran": 5567,
      "pengunjung": 5568,
      "pengukuhannya": 5569,
      "sebentar": 5570,
      "sebaiknya": 5571,
      "membentangkan": 5572,
      "memberhentikan": 5573,
      "ismail": 5574,
      "masters": 5575,
      "maszlee": 5576,
      "produk": 5577,
      "melancarkan": 5578,
      "melodi": 5579,
      "astillah": 5580,
      "kemusnahan": 5581,
      "kemampuannya": 5582,
      "albarakbah": 5583,
      "berkualiti": 5584,
      "berkonsepkan": 5585,
      "berkahwin": 5586,
      "menyindir": 5587,
      "menyediakan": 5588,
      "merangkumi": 5589,
      "meruncing": 5590,
      "rm574": 5591,
      "rm394": 5592,
      "pascatarif": 5593,
      "mahasiswa": 5594,
      "kesediaannya": 5595,
      "kesepakatan": 5596,
      "kesudahannya": 5597,
      "bellingham": 5598,
      "mendepani": 5599,
      "mendaftarkannya": 5600,
      "konvensyen": 5601,
      "penyalahgunaan": 5602,
      "penyelesaian": 5603,
      "penyiasat": 5604,
      "diketepikan": 5605,
      "shafie": 5606,
      "shamshul": 5607,
      "mencetuskan": 5608,
      "kejurulatihan": 5609,
      "athletic": 5610,
      "manfaat": 5611,
      "persembahan": 5612,
      "mempertimbangkan": 5613,
      "memperlekehkan": 5614,
      "mempertahankan": 5615,
      "memperbaiki": 5616,
      "chipmunks": 5617,
      "kedaulatan": 5618,
      "komoditi": 5619,
      "komersial": 5620,
      "diperluaskan": 5621,
      "dipersalahkan": 5622,
      "dipertandingkan": 5623,
      "sepanjang": 5624,
      "agrobank": 5625,
      "mekanisme": 5626,
      "trowbridge": 5627,
      "transformasi": 5628,
      "leagues": 5629,
      "menggabungkan": 5630,
      "fleksibel": 5631,
      "pertunjukan": 5632,
      "menghasilkan": 5633,
      "kenneth": 5634,
      "perkembangan": 5635,
      "perkahwinan": 5636,
      "penghijrahan": 5637,
      "hillsborough": 5638,
      "meteorologi": 5639,
      "metmalaysia": 5640,
      "pahlawan": 5641,
      "talmudik": 5642,
      "riyadh": 5643,
      "sydney": 5644,
      "science": 5645,
      "mewakilinya": 5646,
      "spesifik": 5647,
      "yusrych": 5648,
      "bertanggungjawab": 5649,
      "nurhaliza": 5650,
      "ratcliffe": 5651,
      "dimaksudkan": 5652,
      "antipemerdagangan": 5653,
      "antipenyeludupan": 5654,
      "profesional": 5655,
      "kebergantungan": 5656,
      "aalborg": 5657,
      "badminton": 5658,
      "farahdhiya": 5659,
      "giacomo": 5660,
      "hansgrohe": 5661,
      "mitsubishi": 5662,
      "neuroblastoma": 5663,
      "oktober": 5664,
      "tabloid": 5665
    }
  }
}