{
  "version": "1.0",
  "truncation": null,
  "padding": null,
  "added_tokens": [
    {
      "id": 0,
      "content": "[UNK]",
      "single_word": false,
      "lstrip": false,
      "rstrip": false,
      "normalized": false,
      "special": true
    },
    {
      "id": 1,
      "content": "[PAD]",
      "single_word": false,
      "lstrip": false,
      "rstrip": false,
      "normalized": false,
      "special": true
    },
    {
      "id": 2,
      "content": "[CLS]",
      "single_word": false,
      "lstrip": false,
      "rstrip": false,
      "normalized": false,
      "special": true
    },
    {
      "id": 3,
      "content": "[SEP]",
      "single_word": false,
      "lstrip": false,
      "rstrip": false,
      "normalized": false,
      "special": true
    },
    {
      "id": 4,
      "content": "[MASK]",
      "single_word": false,
      "lstrip": false,
      "rstrip": false,
      "normalized": false,
      "special": true
    }
  ],
  "normalizer": {
    "type": "Sequence",
    "normalizers": [
      {
        "type": "NFD"
      },
      {
        "type": "StripAccents"
      }
    ]
  },
  "pre_tokenizer": {
    "type": "Whitespace"
  },
  "post_processor": null,
  "decoder": null,
  "model": {
    "type": "Unigram",
    "unk_id": 0,
    "vocab": [
      [
        "[UNK]",
        0.0
      ],
      [
        "[PAD]",
        0.0
      ],
      [
        "[CLS]",
        0.0
      ],
      [
        "[SEP]",
        0.0
      ],
      [
        "[MASK]",
        0.0
      ],
      [
        "an",
        -3.3679980910716303
      ],
      [
        "a",
        -3.390155691745724
      ],
      [
        "i",
        -3.556612578154269
      ],
      [
        ",",
        -3.813206273599473
      ],
      [
        "di",
        -4.043775076287168
      ],
      [
        "s",
        -4.084528226445454
      ],
      [
        "m",
        -4.107998460648344
      ],
      [
        "p",
        -4.154732831943778
      ],
      [
        ".",
        -4.160622373964499
      ],
      [
        "kan",
        -4.175564356220973
      ],
      [
        "k",
        -4.190347408268711
      ],
      [
        "t",
        -4.3573365445592955
      ],
      [
        "n",
        -4.43471613662036
      ],
      [
        "l",
        -4.5786546575414775
      ],
      [
        "d",
        -4.601020749763254
      ],
      [
        ":",
        -4.665048888958177
      ],
      [
        "r",
        -4.725000138331503
      ],
      [
        "u",
        -4.7330645824689785
      ],
      [
        "ke",
        -4.736833607115788
      ],
      [
        "b",
        -4.79333526814749
      ],
      [
        "ber",
        -4.898814583134875
      ],
      [
        "e",
        -4.969115209090804
      ],
      [
        "h",
        -4.986514996572656
      ],
      [
        "yang",
        -5.022975621627383
      ],
      [
        "dan",
        -5.136549847374081
      ],
      [
        "-",
        -5.154835483992177
      ],
      [
        "(",
        -5.216157074338675
      ],
      [
        ")",
        -5.216157074338675
      ],
      [
        "g",
        -5.220428711696891
      ],
      [
        "se",
        -5.338715637381456
      ],
      [
        "ini",
        -5.366580510808383
      ],
      [
        "nya",
        -5.41327849282174
      ],
      [
        "per",
        -5.459020269134751
      ],
      [
        "ter",
        -5.567872285950955
      ],
      [
        "men",
        -5.649314533152354
      ],
      [
        "untuk",
        -5.68316408885267
      ],
      [
        "ra",
        -5.71998330468352
      ],
      [
        "o",
        -5.724452579810271
      ],
      [
        "ga",
        -5.757929485611215
      ],
      [
        "dalam",
        -5.767233929703126
      ],
      [
        "pur",
        -5.804389995427943
      ],
      [
        "lum",
        -5.827077946036785
      ],
      [
        "sia",
        -5.83388505763881
      ],
      [
        "kual",
        -5.8402239447610595
      ],
      [
        "c",
        -5.844039030096397
      ],
      [
        "itu",
        -5.862456283717751
      ],
      [
        "me",
        -5.865955877434058
      ],
      [
        "dengan",
        -5.874957723579624
      ],
      [
        "ng",
        -5.9763529536487585
      ],
      [
        "ah",
        -5.999412677013766
      ],
      [
        "'",
        -6.004604436747462
      ],
      [
        "pada",
        -6.013227534856415
      ],
      [
        "ta",
        -6.031589247009266
      ],
      [
        "ma",
        -6.0720737542378895
      ],
      [
        "f",
        -6.0756764185636865
      ],
      [
        "hari",
        -6.076638533145927
      ],
      [
        "lebih",
        -6.13014255724289
      ],
      [
        "pe",
        -6.145687304254006
      ],
      [
        "1",
        -6.165921705205383
      ],
      [
        "tan",
        -6.171959215391705
      ],
      [
        "malay",
        -6.175189537421431
      ],
      [
        "tahu",
        -6.178744401094167
      ],
      [
        "ang",
        -6.180926889266232
      ],
      [
        "sel",
        -6.182823366455217
      ],
      [
        "meng",
        -6.206069507177265
      ],
      [
        "be",
        -6.20644595131436
      ],
      [
        "alam",
        -6.207966423989621
      ],
      [
        "j",
        -6.212708800106884
      ],
      [
        "in",
        -6.215083073633822
      ],
      [
        "ka",
        -6.22974895691259
      ],
      [
        "sem",
        -6.304069804680758
      ],
      [
        "ja",
        -6.308010429891528
      ],
      [
        "y",
        -6.313269800529106
      ],
      [
        "as",
        -6.320763589905766
      ],
      [
        "pa",
        -6.344305475848744
      ],
      [
        "4",
        -6.351428328121145
      ],
      [
        "mem",
        -6.35641798885948
      ],
      [
        "si",
        -6.365898104969661
      ],
      [
        "5",
        -6.371739742355472
      ],
      [
        "8",
        -6.394624457747518
      ],
      [
        "epas",
        -6.461274133343972
      ],
      [
        "seorang",
        -6.461533309730687
      ],
      [
        "el",
        -6.481852987952934
      ],
      [
        "6",
        -6.486836232162955
      ],
      [
        "at",
        -6.5024562539264
      ],
      [
        "al",
        -6.5202116180008804
      ],
      [
        "le",
        -6.538643160663854
      ],
      [
        "akan",
        -6.542807262874463
      ],
      [
        "polis",
        -6.545050444421405
      ],
      [
        "kepada",
        -6.553374249027925
      ],
      [
        "terhadap",
        -6.575695078968524
      ],
      [
        "baharu",
        -6.576854924324245
      ],
      [
        "ti",
        -6.5832506524355665
      ],
      [
        "0",
        -6.597827364058272
      ],
      [
        "jaya",
        -6.599406603080926
      ],
      [
        "elak",
        -6.609006165899482
      ],
      [
        "ada",
        -6.611933329846842
      ],
      [
        "mah",
        -6.613994531801952
      ],
      [
        "li",
        -6.616639474243178
      ],
      [
        "la",
        -6.627307087722713
      ],
      [
        "sama",
        -6.632736750576303
      ],
      [
        "’",
        -6.638630520259425
      ],
      [
        "mer",
        -6.657546056286074
      ],
      [
        "ya",
        -6.660309497609184
      ],
      [
        "rumah",
        -6.672436740960842
      ],
      [
        "besar",
        -6.672939633750461
      ],
      [
        "ara",
        -6.68008462120345
      ],
      [
        "oh",
        -6.689637760901406
      ],
      [
        "lapor",
        -6.6942618351751895
      ],
      [
        "seba",
        -6.697425136582716
      ],
      [
        "ia",
        -6.697777422830848
      ],
      [
        "bag",
        -6.715314939277411
      ],
      [
        "dun",
        -6.7179502251891945
      ],
      [
        "ku",
        -6.724624351908135
      ],
      [
        "aya",
        -6.72594563051341
      ],
      [
        "da",
        -6.728232295171926
      ],
      [
        "ba",
        -6.7462838916050085
      ],
      [
        "ca",
        -6.746531708900754
      ],
      [
        "7",
        -6.7501300591382005
      ],
      [
        "2",
        -6.763892145612303
      ],
      [
        "seja",
        -6.7711059541285445
      ],
      [
        "lon",
        -6.774584612617969
      ],
      [
        "daripada",
        -6.780244354643873
      ],
      [
        "menteri",
        -6.781201637317345
      ],
      [
        "peng",
        -6.7828428704258314
      ],
      [
        "ar",
        -6.783225675417771
      ],
      [
        "is",
        -6.783771464504683
      ],
      [
        "er",
        -6.787494034156113
      ],
      [
        "ak",
        -6.788445348346519
      ],
      [
        "ha",
        -6.790934379747975
      ],
      [
        "pen",
        -6.796700766785676
      ],
      [
        "tahan",
        -6.798850602060765
      ],
      [
        "lalu",
        -6.799247664963477
      ],
      [
        "en",
        -6.8031084853167965
      ],
      [
        "or",
        -6.816914860137209
      ],
      [
        "ko",
        -6.824503921489668
      ],
      [
        "pem",
        -6.8272321077101985
      ],
      [
        "ung",
        -6.838482264013668
      ],
      [
        "kata",
        -6.844753599349309
      ],
      [
        "ol",
        -6.851564636810254
      ],
      [
        "don",
        -6.853252964827676
      ],
      [
        "serta",
        -6.86761652396408
      ],
      [
        "ri",
        -6.86903579737766
      ],
      [
        "vid",
        -6.88065699200256
      ],
      [
        "bukan",
        -6.892156579307062
      ],
      [
        "dua",
        -6.901863787340683
      ],
      [
        "pasukan",
        -6.901971726970368
      ],
      [
        "unit",
        -6.9187898301696205
      ],
      [
        "rah",
        -6.919804123818373
      ],
      [
        "berap",
        -6.935228593729354
      ],
      [
        "eka",
        -6.938863058711325
      ],
      [
        "‘",
        -6.942804400962542
      ],
      [
        "antara",
        -6.9485797368083615
      ],
      [
        "ling",
        -6.953590367888706
      ],
      [
        "kuasa",
        -6.962951280587426
      ],
      [
        "202",
        -6.963026545912163
      ],
      [
        "sebu",
        -6.965858305523401
      ],
      [
        "00",
        -6.966818031860736
      ],
      [
        "9",
        -6.972188149567225
      ],
      [
        "angan",
        -6.977024564779281
      ],
      [
        "tika",
        -6.977270901475501
      ],
      [
        "z",
        -6.979369735365561
      ],
      [
        "dakwa",
        -6.990875883483974
      ],
      [
        "jalan",
        -6.990896118746752
      ],
      [
        "um",
        -7.010651807471826
      ],
      [
        "datu",
        -7.010957256600289
      ],
      [
        "lah",
        -7.015671543514038
      ],
      [
        "umpu",
        -7.023771682181772
      ],
      [
        "am",
        -7.025055198864472
      ],
      [
        ";",
        -7.0358779940361345
      ],
      [
        "–",
        -7.0358779940361345
      ],
      [
        "menjadi",
        -7.040354886223067
      ],
      [
        "jut",
        -7.043946252765597
      ],
      [
        "13",
        -7.051827103348802
      ],
      [
        "yat",
        -7.054172624262236
      ],
      [
        "satu",
        -7.058640992387607
      ],
      [
        "3",
        -7.062484441656229
      ],
      [
        "po",
        -7.0741441947723125
      ],
      [
        "bantu",
        -7.075356596798569
      ],
      [
        "kera",
        -7.075781083334149
      ],
      [
        "indi",
        -7.07723742080033
      ],
      [
        "&",
        -7.085877994036135
      ],
      [
        "#",
        -7.085877994036135
      ],
      [
        "empat",
        -7.088451907704167
      ],
      [
        "su",
        -7.089484749440759
      ],
      [
        "tinggi",
        -7.090280927716031
      ],
      [
        "agi",
        -7.094373730280513
      ],
      [
        "rak",
        -7.100776662882824
      ],
      [
        "bu",
        -7.109859444927077
      ],
      [
        "war",
        -7.112009445775859
      ],
      [
        "masa",
        -7.113618171240956
      ],
      [
        "jaan",
        -7.114274706902819
      ],
      [
        "ed",
        -7.116380704802525
      ],
      [
        "bangsa",
        -7.117513084656425
      ],
      [
        "tengah",
        -7.119678743280211
      ],
      [
        "ju",
        -7.120271061043205
      ],
      [
        "beka",
        -7.133787295721424
      ],
      [
        "peratus",
        -7.140005630132459
      ],
      [
        "new",
        -7.1404210221898285
      ],
      [
        "depan",
        -7.142446230891656
      ],
      [
        "rm1",
        -7.145059734935422
      ],
      [
        "sa",
        -7.151649788113135
      ],
      [
        "man",
        -7.153288627242997
      ],
      [
        "ser",
        -7.155484731551731
      ],
      [
        "us",
        -7.157739066647781
      ],
      [
        "sen",
        -7.163989380438501
      ],
      [
        "co",
        -7.1686380162316805
      ],
      [
        "mus",
        -7.172871909554239
      ],
      [
        "for",
        -7.17361705488949
      ],
      [
        "apa",
        -7.176143419808604
      ],
      [
        "baga",
        -7.1902588977334325
      ],
      [
        "perlu",
        -7.1911867528733575
      ],
      [
        "20",
        -7.1956941425505345
      ],
      [
        "san",
        -7.198505525837939
      ],
      [
        "pas",
        -7.2002386177107285
      ],
      [
        "821",
        -7.214606037585213
      ],
      [
        "bil",
        -7.218895650086829
      ],
      [
        "seri",
        -7.219463171208044
      ],
      [
        "kin",
        -7.224137737604163
      ],
      [
        "ibat",
        -7.2254894492849635
      ],
      [
        "mula",
        -7.2261831818963795
      ],
      [
        "emain",
        -7.22892356928296
      ],
      [
        "tida",
        -7.234711716830807
      ],
      [
        "ut",
        -7.244051817046712
      ],
      [
        "wang",
        -7.2447906901945425
      ],
      [
        "ton",
        -7.246727580088518
      ],
      [
        "hampir",
        -7.252967114038988
      ],
      [
        "penduduk",
        -7.253158486608286
      ],
      [
        "bila",
        -7.253578298280367
      ],
      [
        "orang",
        -7.25368309692683
      ],
      [
        "nilai",
        -7.255543063082758
      ],
      [
        "mendapat",
        -7.25638950710535
      ],
      [
        "tama",
        -7.260797757677224
      ],
      [
        "jamin",
        -7.262865611731385
      ],
      [
        "mi",
        -7.2649464013090235
      ],
      [
        "hing",
        -7.272739590175539
      ],
      [
        "pres",
        -7.275100714477111
      ],
      [
        "kira",
        -7.277375400302917
      ],
      [
        "asi",
        -7.280167178644648
      ],
      [
        "land",
        -7.2884727202619075
      ],
      [
        "dari",
        -7.297732213319891
      ],
      [
        "usia",
        -7.301375433678883
      ],
      [
        "ingga",
        -7.306307895426047
      ],
      [
        "saya",
        -7.309873160810333
      ],
      [
        "ing",
        -7.314414919169285
      ],
      [
        "wanita",
        -7.315861257334043
      ],
      [
        "nega",
        -7.316023404207595
      ],
      [
        "jam",
        -7.317377507957606
      ],
      [
        "memberi",
        -7.319422710453365
      ],
      [
        "asing",
        -7.321357466850143
      ],
      [
        "v",
        -7.3243232364835755
      ],
      [
        "keluar",
        -7.324364303046753
      ],
      [
        "im",
        -7.325371718294912
      ],
      [
        "sara",
        -7.3324384200642
      ],
      [
        "kon",
        -7.333713963372848
      ],
      [
        "wan",
        -7.348676391134383
      ],
      [
        "tu",
        -7.35837385102845
      ],
      [
        "nyak",
        -7.361895961800629
      ],
      [
        "w",
        -7.367386987015983
      ],
      [
        "ul",
        -7.377744898339703
      ],
      [
        "kes",
        -7.381467461090472
      ],
      [
        "meninggal",
        -7.382171168669856
      ],
      [
        "ram",
        -7.387277360437892
      ],
      [
        "kedu",
        -7.388772876246198
      ],
      [
        "aksi",
        -7.388898664959824
      ],
      [
        "cu",
        -7.389215969817885
      ],
      [
        "menuru",
        -7.389880742544651
      ],
      [
        "usaha",
        -7.405752935784333
      ],
      [
        "dilapor",
        -7.407089669883174
      ],
      [
        "tempat",
        -7.4084512173650285
      ],
      [
        "sec",
        -7.410751084810429
      ],
      [
        "ch",
        -7.4124110171386715
      ],
      [
        "isu",
        -7.415830116364802
      ],
      [
        "pro",
        -7.4250893191878315
      ],
      [
        "za",
        -7.4301090521165705
      ],
      [
        "gi",
        -7.443028220995811
      ],
      [
        "atan",
        -7.444927497122657
      ],
      [
        "pengaruh",
        -7.453491244907514
      ],
      [
        "pihak",
        -7.453605064773065
      ],
      [
        "on",
        -7.4579236169906675
      ],
      [
        "baru",
        -7.462025978582545
      ],
      [
        "hu",
        -7.465749834221563
      ],
      [
        "che",
        -7.46661106658466
      ],
      [
        "te",
        -7.4714611528213695
      ],
      [
        "mu",
        -7.473258921254926
      ],
      [
        "tau",
        -7.493074010336175
      ],
      [
        "agen",
        -7.507893910053382
      ],
      [
        "x",
        -7.511809237457648
      ],
      [
        "ses",
        -7.517653727765442
      ],
      [
        "ster",
        -7.520645871576827
      ],
      [
        "tetap",
        -7.531852568133815
      ],
      [
        "aza",
        -7.53306411195814
      ],
      [
        "jabat",
        -7.5331606934668525
      ],
      [
        "awa",
        -7.535678011713711
      ],
      [
        "mas",
        -7.541642703885357
      ],
      [
        "dang",
        -7.544716243868462
      ],
      [
        "tif",
        -7.544871741451368
      ],
      [
        "mengena",
        -7.547400183977027
      ],
      [
        "sema",
        -7.550296370824986
      ],
      [
        "liga",
        -7.552035987261256
      ],
      [
        "kurang",
        -7.552359449930941
      ],
      [
        "sele",
        -7.5546617648522325
      ],
      [
        "idak",
        -7.56403638561312
      ],
      [
        "dar",
        -7.565092729583762
      ],
      [
        "engumum",
        -7.572302464138542
      ],
      [
        "bulan",
        -7.57609952992839
      ],
      [
        "muda",
        -7.578392276951775
      ],
      [
        "pun",
        -7.579220763907607
      ],
      [
        "diri",
        -7.580213423782483
      ],
      [
        "peta",
        -7.581005455537473
      ],
      [
        "dah",
        -7.584833508320138
      ],
      [
        "perda",
        -7.586095378979598
      ],
      [
        "hati",
        -7.592918685674086
      ],
      [
        "ben",
        -7.596510314710479
      ],
      [
        "bat",
        -7.599780740086414
      ],
      [
        "keti",
        -7.601680830588135
      ],
      [
        "arif",
        -7.601869184309933
      ],
      [
        "bandar",
        -7.602756585224624
      ],
      [
        "guru",
        -7.6126021433553195
      ],
      [
        "membuat",
        -7.61510154824613
      ],
      [
        "sya",
        -7.625305765037277
      ],
      [
        "was",
        -7.625648789864178
      ],
      [
        "menjela",
        -7.625878965984409
      ],
      [
        "pal",
        -7.630461137111711
      ],
      [
        "na",
        -7.63286693930206
      ],
      [
        "terus",
        -7.632923212545322
      ],
      [
        "ogo",
        -7.633154166382488
      ],
      [
        "rob",
        -7.638148395766837
      ],
      [
        "10",
        -7.642571256549134
      ],
      [
        "huj",
        -7.643388405054992
      ],
      [
        "un",
        -7.645480870415752
      ],
      [
        "ikat",
        -7.646211431599426
      ],
      [
        "atas",
        -7.6568961018030075
      ],
      [
        "ho",
        -7.66026942916586
      ],
      [
        "balik",
        -7.66304871783005
      ],
      [
        "il",
        -7.6744945549046655
      ],
      [
        "engguna",
        -7.676241309933934
      ],
      [
        "pu",
        -7.679302359599713
      ],
      [
        "ingg",
        -7.67967014627699
      ],
      [
        "arah",
        -7.685277525556297
      ],
      [
        "sin",
        -7.694580538964086
      ],
      [
        "oleh",
        -7.695251000032115
      ],
      [
        "erika",
        -7.703252821361291
      ],
      [
        "kontrak",
        -7.704723350464804
      ],
      [
        "fizikal",
        -7.704761564651804
      ],
      [
        "emas",
        -7.705395929885906
      ],
      [
        "runding",
        -7.705866085074367
      ],
      [
        "it",
        -7.707572569564547
      ],
      [
        "embeli",
        -7.711227281420718
      ],
      [
        "lo",
        -7.7126362929728165
      ],
      [
        "gol",
        -7.712722625101369
      ],
      [
        "susu",
        -7.712913832829663
      ],
      [
        "seb",
        -7.714971423062192
      ],
      [
        "du",
        -7.719374596695098
      ],
      [
        "lan",
        -7.723127736706708
      ],
      [
        "sukan",
        -7.724857261128024
      ],
      [
        "tle",
        -7.724973583764511
      ],
      [
        "tha",
        -7.727366881332783
      ],
      [
        "ngan",
        -7.732216202998445
      ],
      [
        "baka",
        -7.734596759099009
      ],
      [
        "embo",
        -7.735687970240761
      ],
      [
        "wa",
        -7.739169599644124
      ],
      [
        "ris",
        -7.740808190746819
      ],
      [
        "seka",
        -7.745308334475274
      ],
      [
        "dis",
        -7.746218345825445
      ],
      [
        "ukan",
        -7.748070050744591
      ],
      [
        "sebel",
        -7.758198381068208
      ],
      [
        "seh",
        -7.763218584198492
      ],
      [
        "yah",
        -7.7672231670402
      ],
      [
        "rump",
        -7.7707595998041
      ],
      [
        "uala",
        -7.770796130339682
      ],
      [
        "ip",
        -7.775068361943981
      ],
      [
        "hai",
        -7.775683330363791
      ],
      [
        "ima",
        -7.7768546867875346
      ],
      [
        "ampu",
        -7.777065121752739
      ],
      [
        "ata",
        -7.778788781702303
      ],
      [
        "lis",
        -7.781571468242468
      ],
      [
        "tadi",
        -7.782043373795037
      ],
      [
        "pula",
        -7.786317217094773
      ],
      [
        "rancang",
        -7.787888229240425
      ],
      [
        "live",
        -7.790161087578637
      ],
      [
        "ik",
        -7.795162743705405
      ],
      [
        "ikut",
        -7.795225791073001
      ],
      [
        "aki",
        -7.798489352877094
      ],
      [
        "wil",
        -7.800012038797621
      ],
      [
        "ron",
        -7.805456208208806
      ],
      [
        "puluh",
        -7.805597207870254
      ],
      [
        "menge",
        -7.805776759923766
      ],
      [
        "pekerja",
        -7.807091522841455
      ],
      [
        "engadil",
        -7.810549314735063
      ],
      [
        "bumi",
        -7.8109770585018135
      ],
      [
        "buat",
        -7.812818125203867
      ],
      [
        "saing",
        -7.818314497615278
      ],
      [
        "ce",
        -7.819456377652102
      ],
      [
        "belia",
        -7.820836619688909
      ],
      [
        "lain",
        -7.821180446662714
      ],
      [
        "emula",
        -7.821334192139173
      ],
      [
        "ketua",
        -7.824184031738898
      ],
      [
        "jadi",
        -7.826905706653651
      ],
      [
        "ro",
        -7.827221583635302
      ],
      [
        "selama",
        -7.8301383794235715
      ],
      [
        "keran",
        -7.833762376709999
      ],
      [
        "elum",
        -7.834300944068531
      ],
      [
        "hilang",
        -7.83439896462632
      ],
      [
        "cita",
        -7.83482066694621
      ],
      [
        "ran",
        -7.83923130533109
      ],
      [
        "dia",
        -7.840886977489332
      ],
      [
        "yaki",
        -7.841290203357222
      ],
      [
        "sra",
        -7.844081369429934
      ],
      [
        "neg",
        -7.844590496050991
      ],
      [
        "masi",
        -7.846041167783589
      ],
      [
        "syar",
        -7.8482025570602945
      ],
      [
        "nah",
        -7.850970512549042
      ],
      [
        "eo",
        -7.852725894153657
      ],
      [
        "siste",
        -7.853362944926316
      ],
      [
        "em",
        -7.85371015886027
      ],
      [
        "fil",
        -7.856040915061771
      ],
      [
        "kawa",
        -7.856147920324334
      ],
      [
        "pembang",
        -7.859890490364949
      ],
      [
        "enggan",
        -7.86073962500433
      ],
      [
        "den",
        -7.862456015427973
      ],
      [
        "ala",
        -7.86442196739636
      ],
      [
        "car",
        -7.864568530785043
      ],
      [
        "batu",
        -7.868969452512122
      ],
      [
        "ama",
        -7.872076305549961
      ],
      [
        "ham",
        -7.873380642952293
      ],
      [
        "laku",
        -7.877256900480559
      ],
      [
        "bul",
        -7.881382725019803
      ],
      [
        "luar",
        -7.884196697546496
      ],
      [
        "rm",
        -7.8876485029680445
      ],
      [
        "seks",
        -7.88822402352343
      ],
      [
        "bayar",
        -7.88865424805528
      ],
      [
        "baik",
        -7.890017046970668
      ],
      [
        "maji",
        -7.890426568113499
      ],
      [
        "gu",
        -7.892011089573977
      ],
      [
        "rema",
        -7.893145484251127
      ],
      [
        "bi",
        -7.8954520472492655
      ],
      [
        "sihat",
        -7.897202148135584
      ],
      [
        "hadap",
        -7.897926662769322
      ],
      [
        "meny",
        -7.902685780681162
      ],
      [
        "lam",
        -7.903573280925636
      ],
      [
        "ion",
        -7.905238023445863
      ],
      [
        "medi",
        -7.909797903532876
      ],
      [
        "onal",
        -7.91181172420377
      ],
      [
        "sos",
        -7.913226019202158
      ],
      [
        "bersa",
        -7.914063100062982
      ],
      [
        "dekat",
        -7.914498507809366
      ],
      [
        "ari",
        -7.9156947697483115
      ],
      [
        "strategi",
        -7.9157617297670875
      ],
      [
        "percaya",
        -7.917517240587328
      ],
      [
        "ibu",
        -7.920544727159433
      ],
      [
        "pertama",
        -7.920897998653162
      ],
      [
        "hasil",
        -7.922298937704937
      ],
      [
        "akhir",
        -7.926221985052422
      ],
      [
        "ual",
        -7.926308921898828
      ],
      [
        "sekutu",
        -7.926398612847091
      ],
      [
        "pecah",
        -7.9273320857380565
      ],
      [
        "boleh",
        -7.928148859861995
      ],
      [
        "ulu",
        -7.928749623815252
      ],
      [
        "menc",
        -7.935613064185258
      ],
      [
        "umum",
        -7.936676524204772
      ],
      [
        "jir",
        -7.9374291285626075
      ],
      [
        "pel",
        -7.940733227608382
      ],
      [
        "hir",
        -7.941082106655356
      ],
      [
        "gara",
        -7.943213746935951
      ],
      [
        "dapat",
        -7.944699660388006
      ],
      [
        "40",
        -7.945000293293391
      ],
      [
        "syara",
        -7.945290534343105
      ],
      [
        "seluruh",
        -7.951599040155555
      ],
      [
        "spek",
        -7.954559087069528
      ],
      [
        "ahan",
        -7.956271633295874
      ],
      [
        "kuc",
        -7.960235155903743
      ],
      [
        "tin",
        -7.963712743015487
      ],
      [
        "tasi",
        -7.964116087232385
      ],
      [
        "berada",
        -7.964551333192112
      ],
      [
        "os",
        -7.964563167233287
      ],
      [
        "puan",
        -7.96646068425852
      ],
      [
        "st",
        -7.970574525208065
      ],
      [
        "ker",
        -7.971864841659886
      ],
      [
        "abang",
        -7.973274415189039
      ],
      [
        "ras",
        -7.975011549112791
      ],
      [
        "bas",
        -7.977892304028411
      ],
      [
        "port",
        -7.977989447236455
      ],
      [
        "han",
        -7.982483290465042
      ],
      [
        "pan",
        -7.984551589411332
      ],
      [
        "bers",
        -7.989766876348952
      ],
      [
        "ow",
        -7.991259015331112
      ],
      [
        "tak",
        -7.9942956948409964
      ],
      [
        "mel",
        -7.998628760830974
      ],
      [
        "kala",
        -7.999275560824341
      ],
      [
        "amat",
        -8.010037574322048
      ],
      [
        "rikat",
        -8.010133820321391
      ],
      [
        "rasm",
        -8.013093932044011
      ],
      [
        "uh",
        -8.013364604983366
      ],
      [
        "raja",
        -8.017339758907122
      ],
      [
        "ahka",
        -8.018677833468656
      ],
      [
        "tik",
        -8.02125603832372
      ],
      [
        "ermula",
        -8.02189423681857
      ],
      [
        "kela",
        -8.022894940400795
      ],
      [
        "zi",
        -8.029523909163185
      ],
      [
        "masuk",
        -8.030891807772239
      ],
      [
        "peruntuk",
        -8.033689724239629
      ],
      [
        "seki",
        -8.034798176293217
      ],
      [
        "kal",
        -8.037186229371724
      ],
      [
        "min",
        -8.038719523797955
      ],
      [
        "rik",
        -8.039389749406874
      ],
      [
        "khidmat",
        -8.040761265794636
      ],
      [
        "lu",
        -8.043341093535407
      ],
      [
        "isteri",
        -8.044325312205792
      ],
      [
        "sege",
        -8.044691142537673
      ],
      [
        "legend",
        -8.04587286391579
      ],
      [
        "kilo",
        -8.046275368431633
      ],
      [
        "jangka",
        -8.046461219531263
      ],
      [
        "harga",
        -8.047343118295835
      ],
      [
        "beli",
        -8.047593305759124
      ],
      [
        "palsu",
        -8.050892713344467
      ],
      [
        "tawar",
        -8.053998018275058
      ],
      [
        "kua",
        -8.0563540548398
      ],
      [
        "perti",
        -8.058085073133647
      ],
      [
        "ntang",
        -8.059577126877336
      ],
      [
        "sek",
        -8.061428993058827
      ],
      [
        "ial",
        -8.065228771459404
      ],
      [
        "str",
        -8.06647600329495
      ],
      [
        "menye",
        -8.066593357895384
      ],
      [
        "ancam",
        -8.066962075350034
      ],
      [
        "era",
        -8.06805066856306
      ],
      [
        "ampil",
        -8.068072114031608
      ],
      [
        "juma",
        -8.069584433141193
      ],
      [
        "tuduh",
        -8.06967174339585
      ],
      [
        "nggu",
        -8.0697857411725
      ],
      [
        "bang",
        -8.075204524728957
      ],
      [
        "fa",
        -8.076192639175346
      ],
      [
        "milik",
        -8.078434916986708
      ],
      [
        "awal",
        -8.078587113768968
      ],
      [
        "juara",
        -8.078788398796958
      ],
      [
        "90",
        -8.078972030526241
      ],
      [
        "tar",
        -8.080440508575105
      ],
      [
        "ne",
        -8.080765146654587
      ],
      [
        "pertahan",
        -8.084079715153019
      ],
      [
        "iasat",
        -8.084471075836355
      ],
      [
        "sha",
        -8.088101682033496
      ],
      [
        "de",
        -8.088665935531042
      ],
      [
        "mene",
        -8.088719293924076
      ],
      [
        "kawal",
        -8.090595496607609
      ],
      [
        "28",
        -8.093421412013905
      ],
      [
        "llah",
        -8.0935907331477
      ],
      [
        "joh",
        -8.093834815802506
      ],
      [
        "elab",
        -8.094195160437506
      ],
      [
        "guna",
        -8.09647105769555
      ],
      [
        "peny",
        -8.09888692895187
      ],
      [
        "erjanji",
        -8.098898739321012
      ],
      [
        "mence",
        -8.100158755669776
      ],
      [
        "menerus",
        -8.102662676421625
      ],
      [
        "melak",
        -8.103165682476323
      ],
      [
        "nyanyi",
        -8.105926039218527
      ],
      [
        "gian",
        -8.107450682489258
      ],
      [
        "kerja",
        -8.10819759538898
      ],
      [
        "memand",
        -8.112465097230317
      ],
      [
        "lawan",
        -8.117784826055876
      ],
      [
        "dana",
        -8.119019033971556
      ],
      [
        "aman",
        -8.119857876096527
      ],
      [
        "lest",
        -8.119981926570695
      ],
      [
        "entang",
        -8.12214258650016
      ],
      [
        "har",
        -8.13327985524407
      ],
      [
        "asa",
        -8.136647114649037
      ],
      [
        "ewan",
        -8.137361014309363
      ],
      [
        "ok",
        -8.137578310349058
      ],
      [
        "ntir",
        -8.140004583025512
      ],
      [
        "akin",
        -8.144502285091065
      ],
      [
        "to",
        -8.145645887891554
      ],
      [
        "erkena",
        -8.152164960862889
      ],
      [
        "encapai",
        -8.153511722469563
      ],
      [
        "eris",
        -8.154270853729308
      ],
      [
        "lang",
        -8.154308697947187
      ],
      [
        "ester",
        -8.154978584542105
      ],
      [
        "tal",
        -8.165664637802022
      ],
      [
        "bah",
        -8.172217585508317
      ],
      [
        "sepak",
        -8.172307586849307
      ],
      [
        "anak",
        -8.174590839765317
      ],
      [
        "aut",
        -8.175360342799504
      ],
      [
        "angsa",
        -8.175935549954303
      ],
      [
        "sela",
        -8.176233271924657
      ],
      [
        "babit",
        -8.17723101922072
      ],
      [
        "24",
        -8.178245405486091
      ],
      [
        "ban",
        -8.178759424701077
      ],
      [
        "ir",
        -8.180563703004653
      ],
      [
        "enyata",
        -8.18071401828848
      ],
      [
        "ukuh",
        -8.18272443997893
      ],
      [
        "tiktok",
        -8.183785800714753
      ],
      [
        "pelabur",
        -8.183848113235996
      ],
      [
        "zo",
        -8.18454215067196
      ],
      [
        "putra",
        -8.184932730560284
      ],
      [
        "premi",
        -8.185092196968247
      ],
      [
        "penuh",
        -8.185172015934524
      ],
      [
        "pengurus",
        -8.185243937818349
      ],
      [
        "sekolah",
        -8.186217167488765
      ],
      [
        "maklum",
        -8.186257663969066
      ],
      [
        "uni",
        -8.186306824343541
      ],
      [
        "kongsi",
        -8.186688235219375
      ],
      [
        "ugut",
        -8.188094069422915
      ],
      [
        "50",
        -8.191288304838453
      ],
      [
        "je",
        -8.192982212702423
      ],
      [
        "cadang",
        -8.195160782848905
      ],
      [
        "okong",
        -8.201753849053057
      ],
      [
        "ular",
        -8.20294507713798
      ],
      [
        "pemilik",
        -8.203236122862874
      ],
      [
        "audi",
        -8.205527540917318
      ],
      [
        "tang",
        -8.206817059038704
      ],
      [
        "ki",
        -8.209519605353341
      ],
      [
        "gar",
        -8.212216055079702
      ],
      [
        "alah",
        -8.213388419726845
      ],
      [
        "fli",
        -8.216002570637318
      ],
      [
        "iran",
        -8.220072373624822
      ],
      [
        "pdr",
        -8.220323551570969
      ],
      [
        "ecah",
        -8.220689896048192
      ],
      [
        "ten",
        -8.221834285174456
      ],
      [
        "diberi",
        -8.224395960463244
      ],
      [
        "spi",
        -8.225518988041701
      ],
      [
        "bola",
        -8.226297138087386
      ],
      [
        "rampas",
        -8.227583137430544
      ],
      [
        "sh",
        -8.227961772233735
      ],
      [
        "maj",
        -8.229279261212099
      ],
      [
        "mun",
        -8.232425097198735
      ],
      [
        "petrol",
        -8.237364361065266
      ],
      [
        "benar",
        -8.239067627458923
      ],
      [
        "penta",
        -8.244373261568104
      ],
      [
        "wir",
        -8.246325624264239
      ],
      [
        "laksana",
        -8.249277471762175
      ],
      [
        "jang",
        -8.251531122953544
      ],
      [
        "jo",
        -8.251633484549348
      ],
      [
        "part",
        -8.25356793474084
      ],
      [
        "had",
        -8.253576469476078
      ],
      [
        "arkan",
        -8.253635073113156
      ],
      [
        "gesa",
        -8.260118133190527
      ],
      [
        "bal",
        -8.26722870820908
      ],
      [
        "sul",
        -8.267744688536594
      ],
      [
        "sub",
        -8.269193710863195
      ],
      [
        "son",
        -8.269650459074663
      ],
      [
        "direm",
        -8.269812840853888
      ],
      [
        "ndang",
        -8.27019125922484
      ],
      [
        "ikal",
        -8.27036272078644
      ],
      [
        "ad",
        -8.271723713479716
      ],
      [
        "dedah",
        -8.276089067796658
      ],
      [
        "ide",
        -8.276899719561879
      ],
      [
        "kej",
        -8.27713012056164
      ],
      [
        "eko",
        -8.278515247189285
      ],
      [
        "ic",
        -8.278648091722022
      ],
      [
        "ni",
        -8.278708542076403
      ],
      [
        "kec",
        -8.284274466781058
      ],
      [
        "vi",
        -8.287338776348694
      ],
      [
        "penyer",
        -8.287496151969732
      ],
      [
        "bincang",
        -8.2919805851791
      ],
      [
        "mur",
        -8.292463107113194
      ],
      [
        "he",
        -8.29655200718113
      ],
      [
        "pri",
        -8.297822565305907
      ],
      [
        "aja",
        -8.297990701267295
      ],
      [
        "engambil",
        -8.29884803689849
      ],
      [
        "xi",
        -8.304832717166727
      ],
      [
        "jar",
        -8.309790338760056
      ],
      [
        "dak",
        -8.321225058195777
      ],
      [
        "semen",
        -8.323407589189861
      ],
      [
        "par",
        -8.325713388710314
      ],
      [
        "et",
        -8.332049118088143
      ],
      [
        "kend",
        -8.333059426402924
      ],
      [
        "buka",
        -8.334896323317544
      ],
      [
        "ermain",
        -8.335296577389547
      ],
      [
        "mar",
        -8.337022527465816
      ],
      [
        "berka",
        -8.34267522789958
      ],
      [
        "kel",
        -8.34844280255978
      ],
      [
        "hidup",
        -8.35020112100708
      ],
      [
        "perpindahan",
        -8.350352845380447
      ],
      [
        "kumpulan",
        -8.350423819010867
      ],
      [
        "lapan",
        -8.351115669467363
      ],
      [
        "waktu",
        -8.35148283030524
      ],
      [
        "jpj",
        -8.35191297990953
      ],
      [
        "penting",
        -8.352055227249398
      ],
      [
        "putus",
        -8.352087205206207
      ],
      [
        "hamil",
        -8.352365798417882
      ],
      [
        "nasi",
        -8.355022221133142
      ],
      [
        "sepenuh",
        -8.355439831125958
      ],
      [
        "ve",
        -8.356563451991809
      ],
      [
        "rawat",
        -8.356650884415123
      ],
      [
        "metal",
        -8.356896292734012
      ],
      [
        "jejas",
        -8.357154638723118
      ],
      [
        "endiri",
        -8.357562975891522
      ],
      [
        "sedia",
        -8.358225364337455
      ],
      [
        "19",
        -8.35866694253816
      ],
      [
        "pendek",
        -8.359233718878922
      ],
      [
        "04",
        -8.362064863712733
      ],
      [
        "bank",
        -8.363141959459508
      ],
      [
        "ket",
        -8.364585317971928
      ],
      [
        "30",
        -8.364935383335105
      ],
      [
        "asih",
        -8.369311461512714
      ],
      [
        "pindah",
        -8.371892312125413
      ],
      [
        "membuk",
        -8.373341822489595
      ],
      [
        "puter",
        -8.373557875648089
      ],
      [
        "pema",
        -8.373657089793896
      ],
      [
        "enyerta",
        -8.374158892300224
      ],
      [
        "iala",
        -8.375847375313219
      ],
      [
        "elihara",
        -8.376865990777876
      ],
      [
        "tuk",
        -8.377224984869837
      ],
      [
        "bri",
        -8.379143619245248
      ],
      [
        "kaji",
        -8.379522110276357
      ],
      [
        "tentera",
        -8.380386878395772
      ],
      [
        "lin",
        -8.38124504259704
      ],
      [
        "wak",
        -8.382909218482455
      ],
      [
        "suri",
        -8.383545210771919
      ],
      [
        "nama",
        -8.38413281870742
      ],
      [
        "naik",
        -8.385935413175892
      ],
      [
        "sta",
        -8.389552286905108
      ],
      [
        "iver",
        -8.391655644855975
      ],
      [
        "beri",
        -8.399743088095342
      ],
      [
        "ai",
        -8.401730902254993
      ],
      [
        "up",
        -8.402746225512242
      ],
      [
        "osh",
        -8.403924145008709
      ],
      [
        "engendali",
        -8.406605707931257
      ],
      [
        "onald",
        -8.408004082975115
      ],
      [
        "pi",
        -8.42028296604959
      ],
      [
        "moh",
        -8.42075266718538
      ],
      [
        "elon",
        -8.421814204667873
      ],
      [
        "mbs",
        -8.424597038436334
      ],
      [
        "ib",
        -8.42515231207863
      ],
      [
        "etik",
        -8.426513444691718
      ],
      [
        "audit",
        -8.427344412651337
      ],
      [
        "gua",
        -8.429582066907106
      ],
      [
        "nor",
        -8.431557374359674
      ],
      [
        "kat",
        -8.431645338458615
      ],
      [
        "inda",
        -8.431728004885723
      ],
      [
        "tara",
        -8.436443178360163
      ],
      [
        "ali",
        -8.43759311342439
      ],
      [
        "upa",
        -8.438902547975358
      ],
      [
        "enyasar",
        -8.439847690151352
      ],
      [
        "jika",
        -8.43997485630237
      ],
      [
        "erusi",
        -8.440250871396728
      ],
      [
        "tangan",
        -8.441372858105206
      ],
      [
        "ex",
        -8.443557312209245
      ],
      [
        "esy",
        -8.449001189957341
      ],
      [
        "amar",
        -8.459559229669154
      ],
      [
        "fo",
        -8.460736081163667
      ],
      [
        "raf",
        -8.462776148942227
      ],
      [
        "fer",
        -8.463154655441853
      ],
      [
        "tali",
        -8.465155950215307
      ],
      [
        "menama",
        -8.466825131599267
      ],
      [
        "jena",
        -8.47381130436275
      ],
      [
        "ged",
        -8.479509502299194
      ],
      [
        "emerl",
        -8.481499948677309
      ],
      [
        "petro",
        -8.481838033199853
      ],
      [
        "re",
        -8.482509519623328
      ],
      [
        "mpuan",
        -8.482706397826075
      ],
      [
        "rkan",
        -8.482985859134557
      ],
      [
        "gun",
        -8.48483895538581
      ],
      [
        "les",
        -8.486876360911694
      ],
      [
        "rempu",
        -8.490614896809623
      ],
      [
        "sy",
        -8.491709338613505
      ],
      [
        "bayang",
        -8.491732777519479
      ],
      [
        "rugi",
        -8.49245258385168
      ],
      [
        "oku",
        -8.493422515541717
      ],
      [
        "ariat",
        -8.49438474765998
      ],
      [
        "11",
        -8.495511814507667
      ],
      [
        "ekurang",
        -8.498920584583779
      ],
      [
        "sebe",
        -8.504116839864723
      ],
      [
        "angat",
        -8.508089245967035
      ],
      [
        "uruhan",
        -8.508718791981515
      ],
      [
        "memili",
        -8.510321548355115
      ],
      [
        "ingat",
        -8.523848405825474
      ],
      [
        "bor",
        -8.529873711722384
      ],
      [
        "memb",
        -8.534217932380903
      ],
      [
        "tes",
        -8.540617086070135
      ],
      [
        "russ",
        -8.540696369969018
      ],
      [
        "egar",
        -8.542185557902387
      ],
      [
        "temp",
        -8.542216708550638
      ],
      [
        "angg",
        -8.543342681783383
      ],
      [
        "kere",
        -8.544861356515467
      ],
      [
        "riti",
        -8.547767884511892
      ],
      [
        "hd",
        -8.549377782848739
      ],
      [
        "“",
        -8.550284317899248
      ],
      [
        "!",
        -8.550284317899248
      ],
      [
        "”",
        -8.550284317899248
      ],
      [
        "­",
        -8.550284317899248
      ],
      [
        "/",
        -8.550284317899248
      ],
      [
        "]",
        -8.550284317899248
      ],
      [
        "[",
        -8.550284317899248
      ],
      [
        "georg",
        -8.550368247250864
      ],
      [
        "mungkin",
        -8.550406692069771
      ],
      [
        "jurulatih",
        -8.55043843972189
      ],
      [
        "kehidupan",
        -8.550480728679805
      ],
      [
        "jawatan",
        -8.550775570322799
      ],
      [
        "rham",
        -8.552502958406915
      ],
      [
        "russel",
        -8.554352401898171
      ],
      [
        "latih",
        -8.554532994622175
      ],
      [
        "melihat",
        -8.556484525000194
      ],
      [
        "menaik",
        -8.557333791856832
      ],
      [
        "saha",
        -8.557661780600247
      ],
      [
        "muzi",
        -8.558489951999716
      ],
      [
        "antau",
        -8.558853550216115
      ],
      [
        "komit",
        -8.55942773633925
      ],
      [
        "sasar",
        -8.561808801217467
      ],
      [
        "keja",
        -8.561978337732857
      ],
      [
        "sempa",
        -8.562688673611278
      ],
      [
        "raz",
        -8.565257177927442
      ],
      [
        "und",
        -8.565918168013626
      ],
      [
        "entera",
        -8.5662916882435
      ],
      [
        "lao",
        -8.567557513459398
      ],
      [
        "nan",
        -8.567621601382836
      ],
      [
        "tuju",
        -8.568272319053335
      ],
      [
        "elanggar",
        -8.568308432858451
      ],
      [
        "pasti",
        -8.568429606099489
      ],
      [
        "layak",
        -8.569341578163606
      ],
      [
        "ap",
        -8.57621436901056
      ],
      [
        "unjuk",
        -8.578651658582718
      ],
      [
        "flo",
        -8.57866356089249
      ],
      [
        "untu",
        -8.578717491704273
      ],
      [
        "aca",
        -8.5791534799424
      ],
      [
        "anggap",
        -8.580198646777205
      ],
      [
        "orea",
        -8.58047434377201
      ],
      [
        "bar",
        -8.581067868478954
      ],
      [
        "karan",
        -8.58534114783979
      ],
      [
        "enam",
        -8.586552145262512
      ],
      [
        "eger",
        -8.586891750401811
      ],
      [
        "ry",
        -8.590119446837425
      ],
      [
        "tiv",
        -8.5905593032775
      ],
      [
        "ribu",
        -8.590761904065367
      ],
      [
        "cam",
        -8.59163684204699
      ],
      [
        "rem",
        -8.591918502729369
      ],
      [
        "qu",
        -8.592519936976924
      ],
      [
        "waja",
        -8.593087454353114
      ],
      [
        "berani",
        -8.593557044682129
      ],
      [
        "fie",
        -8.595525361068182
      ],
      [
        "yon",
        -8.596515412876602
      ],
      [
        "jurus",
        -8.597186931161062
      ],
      [
        "joha",
        -8.599110418186863
      ],
      [
        "erintah",
        -8.599255520911193
      ],
      [
        "500",
        -8.60105316547669
      ],
      [
        "istan",
        -8.601150463083945
      ],
      [
        "kemuka",
        -8.602442662732265
      ],
      [
        "ternati",
        -8.603745858857005
      ],
      [
        "dit",
        -8.604247766621366
      ],
      [
        "ret",
        -8.606113343471073
      ],
      [
        "perkenal",
        -8.606657787728444
      ],
      [
        "mengge",
        -8.606914356323944
      ],
      [
        "antan",
        -8.609132725439341
      ],
      [
        "eks",
        -8.610209862992377
      ],
      [
        "kot",
        -8.610311402379363
      ],
      [
        "12",
        -8.611029070181392
      ],
      [
        "has",
        -8.614119491122803
      ],
      [
        "hayat",
        -8.621795573289567
      ],
      [
        "kam",
        -8.623043825312156
      ],
      [
        "lalui",
        -8.624994970521389
      ],
      [
        "ci",
        -8.625057423021753
      ],
      [
        "iji",
        -8.629272531084972
      ],
      [
        "hangat",
        -8.63085909064059
      ],
      [
        "bab",
        -8.633181579681867
      ],
      [
        "arat",
        -8.633337878132034
      ],
      [
        "gro",
        -8.635840287596679
      ],
      [
        "jaring",
        -8.638467388952021
      ],
      [
        "ita",
        -8.639450115306332
      ],
      [
        "ff",
        -8.642029407148692
      ],
      [
        "ur",
        -8.642445598989209
      ],
      [
        "gawa",
        -8.64370110120348
      ],
      [
        "menari",
        -8.644825223848446
      ],
      [
        "wis",
        -8.646335479984108
      ],
      [
        "ejar",
        -8.646875212387677
      ],
      [
        "pela",
        -8.652310238323498
      ],
      [
        "eri",
        -8.654365659485798
      ],
      [
        "embuka",
        -8.654914249167838
      ],
      [
        "mengha",
        -8.656491757081888
      ],
      [
        "kl",
        -8.658261800897769
      ],
      [
        "emuka",
        -8.659600234924923
      ],
      [
        "adik",
        -8.660086115395655
      ],
      [
        "rakam",
        -8.661752193439192
      ],
      [
        "do",
        -8.66194688698622
      ],
      [
        "iti",
        -8.662983622513774
      ],
      [
        "buk",
        -8.66550733775536
      ],
      [
        "muh",
        -8.666487711435673
      ],
      [
        "cc",
        -8.667503574402977
      ],
      [
        "iliha",
        -8.66770551272684
      ],
      [
        "bel",
        -8.67234009896417
      ],
      [
        "kena",
        -8.673802249896465
      ],
      [
        "enja",
        -8.675553479750723
      ],
      [
        "es",
        -8.675790870092264
      ],
      [
        "rli",
        -8.67692605315628
      ],
      [
        "mpu",
        -8.678541344525067
      ],
      [
        "ey",
        -8.6862808469853
      ],
      [
        "diper",
        -8.688459034602896
      ],
      [
        "so",
        -8.688982400720892
      ],
      [
        "menga",
        -8.689232091029497
      ],
      [
        "chi",
        -8.69093765151607
      ],
      [
        "hantar",
        -8.692824215364475
      ],
      [
        "pus",
        -8.693026604742716
      ],
      [
        "ji",
        -8.699495591612202
      ],
      [
        "ambil",
        -8.7010203675274
      ],
      [
        "elaksana",
        -8.702339815124638
      ],
      [
        "bur",
        -8.703823677532453
      ],
      [
        "ep",
        -8.705001789821223
      ],
      [
        "gen",
        -8.705040692770451
      ],
      [
        "rus",
        -8.705235275728384
      ],
      [
        "ru",
        -8.707433337572452
      ],
      [
        "dik",
        -8.711695000739217
      ],
      [
        "82",
        -8.715828814440647
      ],
      [
        "gera",
        -8.716509493172557
      ],
      [
        "itan",
        -8.717129185537566
      ],
      [
        "rb",
        -8.722914347110025
      ],
      [
        "ilih",
        -8.726472746325129
      ],
      [
        "ste",
        -8.729846409460876
      ],
      [
        "rat",
        -8.730194618566797
      ],
      [
        "keba",
        -8.731930201534775
      ],
      [
        "mengemu",
        -8.73630421423223
      ],
      [
        "bera",
        -8.739304187666376
      ],
      [
        "baha",
        -8.741168722645886
      ],
      [
        "ajar",
        -8.742182658741116
      ],
      [
        "lumba",
        -8.742872394043347
      ],
      [
        "pengu",
        -8.743509999972591
      ],
      [
        "cher",
        -8.744447371416818
      ],
      [
        "fan",
        -8.744940876875196
      ],
      [
        "him",
        -8.747399089092912
      ],
      [
        "geri",
        -8.74912398149742
      ],
      [
        "siap",
        -8.749340948805791
      ],
      [
        "haba",
        -8.750774621648798
      ],
      [
        "lev",
        -8.751918054406788
      ],
      [
        "wari",
        -8.752052541283447
      ],
      [
        "uah",
        -8.752646619323071
      ],
      [
        "mo",
        -8.753865249077595
      ],
      [
        "pelan",
        -8.759620780146271
      ],
      [
        "main",
        -8.760079708654663
      ],
      [
        "zam",
        -8.76196136027645
      ],
      [
        "penga",
        -8.762010559813586
      ],
      [
        "mau",
        -8.764496074929298
      ],
      [
        "uhan",
        -8.76472769668924
      ],
      [
        "kemba",
        -8.76620528867475
      ],
      [
        "elaras",
        -8.773242566431724
      ],
      [
        "kul",
        -8.773294626136344
      ],
      [
        "meter",
        -8.778434218200447
      ],
      [
        "mampu",
        -8.778721339832982
      ],
      [
        "juru",
        -8.780145042533151
      ],
      [
        "kit",
        -8.782151164431797
      ],
      [
        "melet",
        -8.784561011769998
      ],
      [
        "loni",
        -8.785801805315453
      ],
      [
        "langgar",
        -8.786240929265523
      ],
      [
        "uri",
        -8.791745765263858
      ],
      [
        "id",
        -8.793759759678439
      ],
      [
        "edia",
        -8.796274357211018
      ],
      [
        "kemb",
        -8.798088595396788
      ],
      [
        "ahkan",
        -8.798332371357013
      ],
      [
        "ngku",
        -8.799282191862224
      ],
      [
        "duduk",
        -8.799305795806845
      ],
      [
        "18",
        -8.799888285491537
      ],
      [
        "$",
        -8.800284317899248
      ],
      [
        "dedikasi",
        -8.800295622680554
      ],
      [
        "cincin",
        -8.800319151809301
      ],
      [
        "peribadi",
        -8.800339133297882
      ],
      [
        "dokumen",
        -8.800354859696233
      ],
      [
        "hukum",
        -8.800841793680876
      ],
      [
        "sung",
        -8.800959449140615
      ],
      [
        "memperkuat",
        -8.800966885392782
      ],
      [
        "bundar",
        -8.801073695511102
      ],
      [
        "gus",
        -8.801417416017411
      ],
      [
        "walau",
        -8.801633435200463
      ],
      [
        "hubung",
        -8.801661803187955
      ],
      [
        "bayer",
        -8.802866584080983
      ],
      [
        "ez",
        -8.802986774991115
      ],
      [
        "tebus",
        -8.8034200459305
      ],
      [
        "flori",
        -8.804436957628075
      ],
      [
        "simpanan",
        -8.805285805317261
      ],
      [
        "aga",
        -8.806006872394896
      ],
      [
        "meningkat",
        -8.806652088719467
      ],
      [
        "nom",
        -8.807065239309111
      ],
      [
        "bol",
        -8.809394594935682
      ],
      [
        "sulung",
        -8.809695589095814
      ],
      [
        "bin",
        -8.809699286148557
      ],
      [
        "35",
        -8.81063298429678
      ],
      [
        "tegas",
        -8.81073545149391
      ],
      [
        "rama",
        -8.811119413598112
      ],
      [
        "mac",
        -8.81114668966407
      ],
      [
        "okto",
        -8.812651670785723
      ],
      [
        "manusia",
        -8.812939461088185
      ],
      [
        "cede",
        -8.817276445486536
      ],
      [
        "berisi",
        -8.82062866075876
      ],
      [
        "mina",
        -8.821536393584909
      ],
      [
        "runtu",
        -8.821674529316798
      ],
      [
        "menjalan",
        -8.821706936903434
      ],
      [
        "ganggu",
        -8.821727752379116
      ],
      [
        "ong",
        -8.823122547501786
      ],
      [
        "jen",
        -8.82370522357381
      ],
      [
        "fizi",
        -8.827083914616427
      ],
      [
        "berkua",
        -8.82741230747136
      ],
      [
        "gelar",
        -8.82751896852635
      ],
      [
        "datang",
        -8.828065226962257
      ],
      [
        "igres",
        -8.83221111124851
      ],
      [
        "pengh",
        -8.83305422789845
      ],
      [
        "erku",
        -8.8338573834636
      ],
      [
        "okasi",
        -8.834632215222054
      ],
      [
        "va",
        -8.834675937627788
      ],
      [
        "barc",
        -8.837222523211716
      ],
      [
        "pengeb",
        -8.83828329247983
      ],
      [
        "olu",
        -8.838740059341408
      ],
      [
        "jim",
        -8.839771241794416
      ],
      [
        "kemal",
        -8.841795440938544
      ],
      [
        "ting",
        -8.841878475107068
      ],
      [
        "cantik",
        -8.845084008494727
      ],
      [
        "bot",
        -8.845314477188039
      ],
      [
        "este",
        -8.845403226641334
      ],
      [
        "anti",
        -8.850565155376778
      ],
      [
        "inst",
        -8.854266252646728
      ],
      [
        "peranc",
        -8.857516972299262
      ],
      [
        "pint",
        -8.861107933325545
      ],
      [
        "harap",
        -8.863816528173453
      ],
      [
        "fi",
        -8.865589579831717
      ],
      [
        "elayar",
        -8.867684970362738
      ],
      [
        "aran",
        -8.867838593818913
      ],
      [
        "langka",
        -8.86802019314117
      ],
      [
        "habis",
        -8.872791833928614
      ],
      [
        "ort",
        -8.873358647010361
      ],
      [
        "ound",
        -8.875268886156745
      ],
      [
        "ipin",
        -8.876585174210891
      ],
      [
        "ampas",
        -8.87974771279681
      ],
      [
        "sifat",
        -8.883474612057768
      ],
      [
        "ehat",
        -8.884429600151941
      ],
      [
        "kebang",
        -8.886170245911343
      ],
      [
        "mad",
        -8.886901194419611
      ],
      [
        "elah",
        -8.88918474884347
      ],
      [
        "qa",
        -8.89008799447277
      ],
      [
        "olah",
        -8.891014484952995
      ],
      [
        "bangkit",
        -8.891904343603017
      ],
      [
        "hi",
        -8.89221451785497
      ],
      [
        "osc",
        -8.894609662686932
      ],
      [
        "nsi",
        -8.894813164049772
      ],
      [
        "impi",
        -8.895725379061254
      ],
      [
        "terkena",
        -8.898245010719583
      ],
      [
        "keteg",
        -8.89924969090038
      ],
      [
        "rban",
        -8.901107828008401
      ],
      [
        "memper",
        -8.901657766176971
      ],
      [
        "teng",
        -8.903944558106593
      ],
      [
        "lama",
        -8.904905404233235
      ],
      [
        "erma",
        -8.905738961066096
      ],
      [
        "yakin",
        -8.907131840334797
      ],
      [
        "tig",
        -8.908260136298406
      ],
      [
        "buda",
        -8.914571572593614
      ],
      [
        "pendi",
        -8.914674222172774
      ],
      [
        "inta",
        -8.914946508523869
      ],
      [
        "bo",
        -8.915180682978816
      ],
      [
        "maju",
        -8.919114165006745
      ],
      [
        "syor",
        -8.920626180449455
      ],
      [
        "tele",
        -8.921681188421962
      ],
      [
        "uk",
        -8.923530600151864
      ],
      [
        "reta",
        -8.923685167157998
      ],
      [
        "rima",
        -8.924515503095755
      ],
      [
        "cegah",
        -8.926663157840274
      ],
      [
        "terbab",
        -8.926995769605838
      ],
      [
        "cit",
        -8.927359241975193
      ],
      [
        "wi",
        -8.930342455026125
      ],
      [
        "red",
        -8.935208783696613
      ],
      [
        "oman",
        -8.93679010347736
      ],
      [
        "sehar",
        -8.938187562359227
      ],
      [
        "ian",
        -8.939603531572812
      ],
      [
        "krai",
        -8.93989075634877
      ],
      [
        "peni",
        -8.946094014908606
      ],
      [
        "zain",
        -8.950952744154694
      ],
      [
        "terbu",
        -8.951127593714524
      ],
      [
        "keca",
        -8.953436547516926
      ],
      [
        "emantau",
        -8.954037741198642
      ],
      [
        "pag",
        -8.956773018116065
      ],
      [
        "pasar",
        -8.956826184611927
      ],
      [
        "tz",
        -8.958319658065093
      ],
      [
        "lih",
        -8.959306780898117
      ],
      [
        "buru",
        -8.9604329170471
      ],
      [
        "lhi",
        -8.960438885997801
      ],
      [
        "persa",
        -8.963497544419301
      ],
      [
        "sun",
        -8.966061245732973
      ],
      [
        "menangan",
        -8.966330416837765
      ],
      [
        "inci",
        -8.969501036470295
      ],
      [
        "cent",
        -8.972567539075888
      ],
      [
        "sudah",
        -8.973940265014893
      ],
      [
        "gon",
        -8.97609739961425
      ],
      [
        "pah",
        -8.977148163937848
      ],
      [
        "aksa",
        -8.978633316266873
      ],
      [
        "punya",
        -8.979846712407113
      ],
      [
        "seo",
        -8.98001207395626
      ],
      [
        "seg",
        -8.983520577671083
      ],
      [
        "isi",
        -8.986908974150206
      ],
      [
        "tren",
        -8.988778419470266
      ],
      [
        "emi",
        -8.988962576529872
      ],
      [
        "kesel",
        -8.989320737292804
      ],
      [
        "emenang",
        -8.995995616708663
      ],
      [
        "olo",
        -8.997165255514403
      ],
      [
        "embangkan",
        -8.998408695496488
      ],
      [
        "pern",
        -8.998445234167512
      ],
      [
        "rid",
        -8.998649368166278
      ],
      [
        "indah",
        -9.000785678779282
      ],
      [
        "ersetuju",
        -9.00275354383589
      ],
      [
        "hag",
        -9.002883013848102
      ],
      [
        "etir",
        -9.007330802348614
      ],
      [
        "side",
        -9.008748869078383
      ],
      [
        "encat",
        -9.009423707207684
      ],
      [
        "gaji",
        -9.009471436332772
      ],
      [
        "lly",
        -9.009952070932462
      ],
      [
        "sum",
        -9.012011512902207
      ],
      [
        "nin",
        -9.014449456476475
      ],
      [
        "dil",
        -9.015217894881935
      ],
      [
        "ikon",
        -9.01693481512644
      ],
      [
        "anju",
        -9.01782331007189
      ],
      [
        "fin",
        -9.018963115545612
      ],
      [
        "peringat",
        -9.023029160720379
      ],
      [
        "rek",
        -9.023266191157582
      ],
      [
        "oto",
        -9.024185289019117
      ],
      [
        "sim",
        -9.024809168791382
      ],
      [
        "ge",
        -9.025504228150938
      ],
      [
        "fb",
        -9.026087955207178
      ],
      [
        "enghantar",
        -9.026537548118899
      ],
      [
        "peman",
        -9.028732086743354
      ],
      [
        "aq",
        -9.030798245698453
      ],
      [
        "engukuh",
        -9.031080830053114
      ],
      [
        "gemp",
        -9.033300724835474
      ],
      [
        "ilan",
        -9.036260650539976
      ],
      [
        "dem",
        -9.038793029433592
      ],
      [
        "gerak",
        -9.041812242024578
      ],
      [
        "pemer",
        -9.042650766833196
      ],
      [
        "enemu",
        -9.043772095390594
      ],
      [
        "mema",
        -9.045722903084567
      ],
      [
        "gugu",
        -9.046638081082477
      ],
      [
        "jau",
        -9.04956320723667
      ],
      [
        "nuk",
        -9.049979689946909
      ],
      [
        "q",
        -9.051886026080352
      ],
      [
        "seni",
        -9.056243709279865
      ],
      [
        "res",
        -9.06086940860526
      ],
      [
        "dium",
        -9.061737478587153
      ],
      [
        "tiba",
        -9.063651378026133
      ],
      [
        "urus",
        -9.067459089927391
      ],
      [
        "ketu",
        -9.07032263749704
      ],
      [
        "taha",
        -9.072169521118393
      ],
      [
        "pengge",
        -9.074541481226769
      ],
      [
        "hawa",
        -9.077484939895102
      ],
      [
        "mener",
        -9.083507842490656
      ],
      [
        "singa",
        -9.086069302410815
      ],
      [
        "nia",
        -9.09039793828346
      ],
      [
        "osi",
        -9.092187424440002
      ],
      [
        "hol",
        -9.092683360002873
      ],
      [
        "egera",
        -9.093901937775435
      ],
      [
        "ek",
        -9.095234443514457
      ],
      [
        "mata",
        -9.096448972892453
      ],
      [
        "encata",
        -9.103400870480236
      ],
      [
        "fe",
        -9.104265952957295
      ],
      [
        "teru",
        -9.104334766625861
      ],
      [
        "apur",
        -9.105164871689006
      ],
      [
        "elit",
        -9.11414065698096
      ],
      [
        "jan",
        -9.114687037816164
      ],
      [
        "eyakin",
        -9.115791498062261
      ],
      [
        "siti",
        -9.118484993011172
      ],
      [
        "nuh",
        -9.118617008355162
      ],
      [
        "andung",
        -9.119795825940338
      ],
      [
        "neta",
        -9.12183699543903
      ],
      [
        "oper",
        -9.122466618975237
      ],
      [
        "pk",
        -9.122667545905793
      ],
      [
        "stra",
        -9.127279983668405
      ],
      [
        "uta",
        -9.127300930380212
      ],
      [
        "mc",
        -9.129760578906668
      ],
      [
        "barang",
        -9.131756130740468
      ],
      [
        "lar",
        -9.132085762399615
      ],
      [
        "getah",
        -9.132782334973726
      ],
      [
        "\"",
        -9.13361765123258
      ],
      [
        "thread",
        -9.133619086377431
      ],
      [
        "youtube",
        -9.133621483362447
      ],
      [
        "universit",
        -9.133627453952235
      ],
      [
        "pelancong",
        -9.133635929293062
      ],
      [
        "wujud",
        -9.133652447767085
      ],
      [
        "dijadual",
        -9.13368440646485
      ],
      [
        "timbal",
        -9.133959257022694
      ],
      [
        "naj",
        -9.133971920171195
      ],
      [
        "abdul",
        -9.135004035096825
      ],
      [
        "pemerintah",
        -9.135062794892743
      ],
      [
        "maru",
        -9.13561437317173
      ],
      [
        "emusnah",
        -9.135685360514621
      ],
      [
        "nov",
        -9.135820804491356
      ],
      [
        "ahu",
        -9.136753236247836
      ],
      [
        "inggi",
        -9.138124218939032
      ],
      [
        "mp",
        -9.14027595028911
      ],
      [
        "39",
        -9.141840079311297
      ],
      [
        "veter",
        -9.142027340625525
      ],
      [
        "salah",
        -9.14471625979867
      ],
      [
        "komuni",
        -9.146015994898836
      ],
      [
        "az",
        -9.146017839009783
      ],
      [
        "mbia",
        -9.14605778367989
      ],
      [
        "gra",
        -9.146465449476745
      ],
      [
        "gagal",
        -9.14771329871406
      ],
      [
        "aktif",
        -9.148452465032221
      ],
      [
        "ula",
        -9.150583075599513
      ],
      [
        "pertu",
        -9.15092543235325
      ],
      [
        "usi",
        -9.152424566612252
      ],
      [
        "sah",
        -9.15514151220669
      ],
      [
        "roc",
        -9.155873801981414
      ],
      [
        "endaftar",
        -9.15723552655531
      ],
      [
        "biada",
        -9.15804604287465
      ],
      [
        "mbangkan",
        -9.158106028003278
      ],
      [
        "sumbang",
        -9.15886577654845
      ],
      [
        "enyelesai",
        -9.160162365684107
      ],
      [
        "marc",
        -9.161169044215665
      ],
      [
        "komand",
        -9.16372517894704
      ],
      [
        "wal",
        -9.165568669259708
      ],
      [
        "sens",
        -9.165674926861737
      ],
      [
        "enambah",
        -9.174546629373014
      ],
      [
        "shei",
        -9.175737215148748
      ],
      [
        "akh",
        -9.175819032396442
      ],
      [
        "sepakat",
        -9.177247383182369
      ],
      [
        "lapang",
        -9.177594796216859
      ],
      [
        "anad",
        -9.178246846337597
      ],
      [
        "nsur",
        -9.179032608637288
      ],
      [
        "salur",
        -9.179255869450744
      ],
      [
        "kelet",
        -9.181555663347055
      ],
      [
        "tai",
        -9.18616080129521
      ],
      [
        "entas",
        -9.186683390443195
      ],
      [
        "sentime",
        -9.192664453646989
      ],
      [
        "rm40",
        -9.19677921407736
      ],
      [
        "tila",
        -9.198518051473512
      ],
      [
        "haru",
        -9.203734095029201
      ],
      [
        "mera",
        -9.207427053045198
      ],
      [
        "ander",
        -9.214347240220912
      ],
      [
        "hal",
        -9.215468381182067
      ],
      [
        "angka",
        -9.215633088022374
      ],
      [
        "luang",
        -9.21571220652964
      ],
      [
        "mak",
        -9.218321377980548
      ],
      [
        "sera",
        -9.21944931836289
      ],
      [
        "sert",
        -9.219786206928351
      ],
      [
        "mes",
        -9.220801898848615
      ],
      [
        "lif",
        -9.221831347266887
      ],
      [
        "ins",
        -9.222669743848508
      ],
      [
        "menyer",
        -9.223441614600649
      ],
      [
        "rosak",
        -9.22602107439134
      ],
      [
        "com",
        -9.229156886089322
      ],
      [
        "est",
        -9.229424413137846
      ],
      [
        "sampa",
        -9.230504499945729
      ],
      [
        "pana",
        -9.235751883744442
      ],
      [
        "eles",
        -9.239392252372005
      ],
      [
        "ruang",
        -9.241863771090626
      ],
      [
        "misi",
        -9.244864141738468
      ],
      [
        "zel",
        -9.247407019500502
      ],
      [
        "tun",
        -9.251071901054324
      ],
      [
        "lahir",
        -9.25335215947394
      ],
      [
        "munc",
        -9.254341722005123
      ],
      [
        "rasi",
        -9.255609630746173
      ],
      [
        "tap",
        -9.256824380964451
      ],
      [
        "perli",
        -9.258554896479078
      ],
      [
        "gamb",
        -9.258835881038335
      ],
      [
        "dikena",
        -9.258923398191428
      ],
      [
        "des",
        -9.25956578031329
      ],
      [
        "ih",
        -9.260984729614638
      ],
      [
        "menawa",
        -9.262803246464538
      ],
      [
        "ekor",
        -9.268002359933492
      ],
      [
        "makan",
        -9.271295190225874
      ],
      [
        "pertan",
        -9.272006128921268
      ],
      [
        "elantik",
        -9.2725566427446
      ],
      [
        "damai",
        -9.274961506957252
      ],
      [
        "elang",
        -9.275160412191536
      ],
      [
        "uran",
        -9.276131723318963
      ],
      [
        "tah",
        -9.2764895240155
      ],
      [
        "ski",
        -9.279745431002722
      ],
      [
        "nati",
        -9.280185545819037
      ],
      [
        "moham",
        -9.284785241599675
      ],
      [
        "memperk",
        -9.287094535065496
      ],
      [
        "aitu",
        -9.28790723538795
      ],
      [
        "mudah",
        -9.289160815438805
      ],
      [
        "ekal",
        -9.289934602662337
      ],
      [
        "pusa",
        -9.290495881204102
      ],
      [
        "mat",
        -9.294692455655477
      ],
      [
        "berus",
        -9.294798698833517
      ],
      [
        "dasar",
        -9.296953504282358
      ],
      [
        "sir",
        -9.29788224105873
      ],
      [
        "berke",
        -9.297911164013556
      ],
      [
        "moto",
        -9.301203087460289
      ],
      [
        "ye",
        -9.301241757265393
      ],
      [
        "kad",
        -9.303611822794503
      ],
      [
        "bukti",
        -9.304725114592971
      ],
      [
        "sediaan",
        -9.30549161943396
      ],
      [
        "lag",
        -9.306695592727763
      ],
      [
        "bawa",
        -9.307754080835053
      ],
      [
        "terbi",
        -9.310112248605153
      ],
      [
        "engundi",
        -9.310756392197087
      ],
      [
        "musta",
        -9.311874028670543
      ],
      [
        "mena",
        -9.311965353298474
      ],
      [
        "dung",
        -9.312488816135138
      ],
      [
        "jump",
        -9.316670191323205
      ],
      [
        "omi",
        -9.317899179211809
      ],
      [
        "capai",
        -9.323304452604868
      ],
      [
        "pelu",
        -9.32412706192223
      ],
      [
        "erbincang",
        -9.3261841895406
      ],
      [
        "tunis",
        -9.330876513393688
      ],
      [
        "penge",
        -9.333756576430572
      ],
      [
        "irin",
        -9.33464009431049
      ],
      [
        "anji",
        -9.33507235114516
      ],
      [
        "gantung",
        -9.337034756123762
      ],
      [
        "lik",
        -9.337942005746969
      ],
      [
        "sukar",
        -9.33991954876073
      ],
      [
        "lantik",
        -9.345358306710281
      ],
      [
        "mati",
        -9.346764540532732
      ],
      [
        "od",
        -9.349819875540302
      ],
      [
        "akat",
        -9.355875224669594
      ],
      [
        "kok",
        -9.357960155053346
      ],
      [
        "nim",
        -9.358057046873103
      ],
      [
        "pak",
        -9.358296462282302
      ],
      [
        "af",
        -9.36034129618072
      ],
      [
        "mala",
        -9.361835139917005
      ],
      [
        "memin",
        -9.3634880674595
      ],
      [
        "sing",
        -9.364457164418267
      ],
      [
        "diket",
        -9.367427746417377
      ],
      [
        "sedar",
        -9.367767636404901
      ],
      [
        "perk",
        -9.369814991665073
      ],
      [
        "hil",
        -9.37107462754043
      ],
      [
        "yak",
        -9.371409104469661
      ],
      [
        "erunci",
        -9.377593407423854
      ],
      [
        "pm",
        -9.377950462023588
      ],
      [
        "cap",
        -9.378901853542795
      ],
      [
        "erang",
        -9.380475556929474
      ],
      [
        "char",
        -9.386389193916829
      ],
      [
        "ters",
        -9.387548333041362
      ],
      [
        "enang",
        -9.388061641538933
      ],
      [
        "tok",
        -9.388587612486004
      ],
      [
        "sus",
        -9.390323308588918
      ],
      [
        "keru",
        -9.39432389536594
      ],
      [
        "utar",
        -9.394481016493636
      ],
      [
        "padan",
        -9.402306885782204
      ],
      [
        "ikan",
        -9.404216519993623
      ],
      [
        "ani",
        -9.404689170683397
      ],
      [
        "ele",
        -9.40660891304709
      ],
      [
        "ulan",
        -9.407454410621106
      ],
      [
        "rm2",
        -9.412020307200663
      ],
      [
        "keda",
        -9.419775112794555
      ],
      [
        "puk",
        -9.419859653743124
      ],
      [
        "ember",
        -9.42423799727304
      ],
      [
        "melaka",
        -9.424915458096358
      ],
      [
        "memba",
        -9.42755051676572
      ],
      [
        "tom",
        -9.427656293772158
      ],
      [
        "panta",
        -9.427706558511243
      ],
      [
        "bra",
        -9.430015047360543
      ],
      [
        "ina",
        -9.430692109252057
      ],
      [
        "aj",
        -9.430952658419985
      ],
      [
        "berba",
        -9.434084414534302
      ],
      [
        "nas",
        -9.437079620196359
      ],
      [
        "ves",
        -9.444808515049852
      ],
      [
        "menya",
        -9.445072828902008
      ],
      [
        "haka",
        -9.448353202070411
      ],
      [
        "th",
        -9.45052148988857
      ],
      [
        "gran",
        -9.453556655102087
      ],
      [
        "egas",
        -9.457893915660257
      ],
      [
        "angku",
        -9.459290131653221
      ],
      [
        "pence",
        -9.460510204787719
      ],
      [
        "wo",
        -9.46408276347305
      ],
      [
        "isten",
        -9.469098271635927
      ],
      [
        "lihat",
        -9.472562084763284
      ],
      [
        "ag",
        -9.472582785618782
      ],
      [
        "pr",
        -9.474175637100645
      ],
      [
        "cat",
        -9.477124236296431
      ],
      [
        "ika",
        -9.477217045817369
      ],
      [
        "ndung",
        -9.482060119035946
      ],
      [
        "kesed",
        -9.492745058303406
      ],
      [
        "pening",
        -9.4928994641625
      ],
      [
        "100",
        -9.49566724431129
      ],
      [
        "mela",
        -9.497344734751623
      ],
      [
        "sup",
        -9.499268844987368
      ],
      [
        "ifat",
        -9.500075558036738
      ],
      [
        "utan",
        -9.502634286647858
      ],
      [
        "tel",
        -9.503357360420043
      ],
      [
        "mis",
        -9.508167429173131
      ],
      [
        "endapat",
        -9.509706012942189
      ],
      [
        "emak",
        -9.510212072919137
      ],
      [
        "bida",
        -9.510832552707738
      ],
      [
        "dikan",
        -9.51130542546736
      ],
      [
        "ati",
        -9.513318768516196
      ],
      [
        "pre",
        -9.513625035801084
      ],
      [
        "masak",
        -9.514350117018246
      ],
      [
        "tena",
        -9.51521702607584
      ],
      [
        "iras",
        -9.518602083739072
      ],
      [
        "uju",
        -9.519508983800993
      ],
      [
        "tegang",
        -9.522407663028327
      ],
      [
        "fes",
        -9.52785000947244
      ],
      [
        "kole",
        -9.531468123620487
      ],
      [
        "erni",
        -9.532459408830622
      ],
      [
        "peran",
        -9.539569626761704
      ],
      [
        "gan",
        -9.542466428339685
      ],
      [
        "menyam",
        -9.550875470375132
      ],
      [
        "usul",
        -9.561674696332469
      ],
      [
        "rut",
        -9.565829519093139
      ],
      [
        "menges",
        -9.56781774282872
      ],
      [
        "komp",
        -9.568180557387057
      ],
      [
        "terle",
        -9.568688703677214
      ],
      [
        "bara",
        -9.56987027252115
      ],
      [
        "memet",
        -9.570603048509719
      ],
      [
        "ranta",
        -9.5712443661133
      ],
      [
        "eng",
        -9.571850742398993
      ],
      [
        "dite",
        -9.575988419223023
      ],
      [
        "akt",
        -9.577399989088951
      ],
      [
        "eman",
        -9.577727749169147
      ],
      [
        "ly",
        -9.588457692429811
      ],
      [
        "eta",
        -9.589029322718353
      ],
      [
        "kus",
        -9.589706120714702
      ],
      [
        "ingkat",
        -9.59627529462238
      ],
      [
        "semu",
        -9.598578126613173
      ],
      [
        "lipi",
        -9.599276159829028
      ],
      [
        "ott",
        -9.601600190081093
      ],
      [
        "pembe",
        -9.605716896115792
      ],
      [
        "ua",
        -9.612342422419212
      ],
      [
        "jeja",
        -9.62112880462642
      ],
      [
        "oho",
        -9.625639369914113
      ],
      [
        "tuan",
        -9.627336057619049
      ],
      [
        "ukar",
        -9.631800732710927
      ],
      [
        "nisia",
        -9.632271526276217
      ],
      [
        "?",
        -9.63361765123258
      ],
      [
        "£",
        -9.63361765123258
      ],
      [
        "…",
        -9.63361765123258
      ],
      [
        "industri",
        -9.633631602244698
      ],
      [
        "ditunggangi",
        -9.633651365838178
      ],
      [
        "khusus",
        -9.633666326393302
      ],
      [
        "cengkam",
        -9.633746759706202
      ],
      [
        "yusof",
        -9.633763806116892
      ],
      [
        "erkahwin",
        -9.633775917403337
      ],
      [
        "membolehkan",
        -9.633777358343133
      ],
      [
        "dahsyat",
        -9.633824353811582
      ],
      [
        "manfaat",
        -9.63383187339589
      ],
      [
        "wajib",
        -9.634057689738695
      ],
      [
        "engalam",
        -9.63409076747419
      ],
      [
        "kediaman",
        -9.634495983680003
      ],
      [
        "memperluas",
        -9.635102978208975
      ],
      [
        "memperkasa",
        -9.635427051886133
      ],
      [
        "rumi",
        -9.636399881535274
      ],
      [
        "membida",
        -9.63664093348647
      ],
      [
        "mengu",
        -9.637548029201472
      ],
      [
        "ersaing",
        -9.637551100433685
      ],
      [
        "tambah",
        -9.637933078262844
      ],
      [
        "vis",
        -9.638194423096449
      ],
      [
        "kritik",
        -9.641437321187002
      ],
      [
        "peluang",
        -9.64553339082122
      ],
      [
        "punca",
        -9.645867354829317
      ],
      [
        "erbeza",
        -9.648803373582993
      ],
      [
        "jum",
        -9.649347917726764
      ],
      [
        "tekn",
        -9.649666957147664
      ],
      [
        "engah",
        -9.649728510977166
      ],
      [
        "pengarah",
        -9.650203283133362
      ],
      [
        "tangga",
        -9.650282264529363
      ],
      [
        "wakil",
        -9.650448398753623
      ],
      [
        "pinda",
        -9.650654021512134
      ],
      [
        "inya",
        -9.651580489203226
      ],
      [
        "pengg",
        -9.652280527918387
      ],
      [
        "mano",
        -9.652612170921243
      ],
      [
        "moga",
        -9.65463353354063
      ],
      [
        "unggang",
        -9.655366736987585
      ],
      [
        "ersatu",
        -9.658753379125297
      ],
      [
        "berha",
        -9.661037792634255
      ],
      [
        "under",
        -9.661506921039654
      ],
      [
        "erik",
        -9.662012049331324
      ],
      [
        "merasa",
        -9.662695469873107
      ],
      [
        "cris",
        -9.662824071217157
      ],
      [
        "lak",
        -9.667341818350295
      ],
      [
        "menguj",
        -9.66987277610665
      ],
      [
        "agu",
        -9.672902520956725
      ],
      [
        "rank",
        -9.673073780574443
      ],
      [
        "moha",
        -9.675754176095262
      ],
      [
        "seusia",
        -9.676815575818408
      ],
      [
        "av",
        -9.677648853834649
      ],
      [
        "form",
        -9.679081646097877
      ],
      [
        "memas",
        -9.680598922166897
      ],
      [
        "emu",
        -9.680617804265948
      ],
      [
        "ros",
        -9.680846922857526
      ],
      [
        "akal",
        -9.681549827247242
      ],
      [
        "perluas",
        -9.684041138517646
      ],
      [
        "shin",
        -9.6890591584506
      ],
      [
        "enyumbang",
        -9.689265993210853
      ],
      [
        "merangk",
        -9.69125081525852
      ],
      [
        "gih",
        -9.69304233257035
      ],
      [
        "elli",
        -9.693905795673428
      ],
      [
        "jimat",
        -9.694790171063703
      ],
      [
        "landa",
        -9.695871872555996
      ],
      [
        "15",
        -9.69779955662954
      ],
      [
        "get",
        -9.698394896622165
      ],
      [
        "edah",
        -9.703124199829883
      ],
      [
        "sion",
        -9.713750786775607
      ],
      [
        "of",
        -9.713907720210042
      ],
      [
        "ding",
        -9.716585640890269
      ],
      [
        "menda",
        -9.719887562948422
      ],
      [
        "orto",
        -9.720206252493858
      ],
      [
        "ertanding",
        -9.724732629781503
      ],
      [
        "mbar",
        -9.72507033333214
      ],
      [
        "sena",
        -9.725151797181407
      ],
      [
        "bell",
        -9.726716048521292
      ],
      [
        "ring",
        -9.727197849461458
      ],
      [
        "ambang",
        -9.727484734851355
      ],
      [
        "ovi",
        -9.731383313239121
      ],
      [
        "rang",
        -9.733539240573796
      ],
      [
        "tuga",
        -9.73576444850261
      ],
      [
        "salu",
        -9.736846947615877
      ],
      [
        "mengur",
        -9.740168673773114
      ],
      [
        "leksi",
        -9.744547537107627
      ],
      [
        "ampuan",
        -9.744983032941716
      ],
      [
        "ayat",
        -9.7467919147633
      ],
      [
        "imbang",
        -9.74894495106943
      ],
      [
        "senti",
        -9.752404007340283
      ],
      [
        "hun",
        -9.75418363391517
      ],
      [
        "pil",
        -9.755675905959706
      ],
      [
        "kuat",
        -9.756470343937679
      ],
      [
        "ger",
        -9.759359797222094
      ],
      [
        "saba",
        -9.759868605386565
      ],
      [
        "komi",
        -9.761458329419803
      ],
      [
        "amba",
        -9.761711578323295
      ],
      [
        "ipo",
        -9.762662394403055
      ],
      [
        "mewa",
        -9.764677228613584
      ],
      [
        "dilak",
        -9.766299982630267
      ],
      [
        "ntuk",
        -9.766386624213686
      ],
      [
        "igue",
        -9.767138442175971
      ],
      [
        "berko",
        -9.77202819823524
      ],
      [
        "if",
        -9.774822870331194
      ],
      [
        "gat",
        -9.777008449907179
      ],
      [
        "bulu",
        -9.779308581405076
      ],
      [
        "anjur",
        -9.78329597540667
      ],
      [
        "chin",
        -9.783337691852672
      ],
      [
        "hala",
        -9.783419107756243
      ],
      [
        "anya",
        -9.78480200721642
      ],
      [
        "aan",
        -9.784934804884566
      ],
      [
        "auto",
        -9.78655225194915
      ],
      [
        "oro",
        -9.78716590286756
      ],
      [
        "ud",
        -9.790166462202576
      ],
      [
        "terse",
        -9.792927056111877
      ],
      [
        "diha",
        -9.793527745123946
      ],
      [
        "kaun",
        -9.797560351882732
      ],
      [
        "ena",
        -9.798093748269483
      ],
      [
        "tong",
        -9.802057114070642
      ],
      [
        "amai",
        -9.802421303275771
      ],
      [
        "ahl",
        -9.814863222353214
      ],
      [
        "ken",
        -9.815574542817483
      ],
      [
        "ensi",
        -9.815897622752091
      ],
      [
        "tanya",
        -9.816054589292968
      ],
      [
        "vin",
        -9.820256010876179
      ],
      [
        "prof",
        -9.821736076395627
      ],
      [
        "ajua",
        -9.823108155821597
      ],
      [
        "sip",
        -9.826239759085158
      ],
      [
        "scar",
        -9.826257740499777
      ],
      [
        "oko",
        -9.82640044751339
      ],
      [
        "memben",
        -9.826570622694513
      ],
      [
        "mari",
        -9.827090898703114
      ],
      [
        "mbu",
        -9.82938879811151
      ],
      [
        "hta",
        -9.831226873604155
      ],
      [
        "enti",
        -9.831503409598309
      ],
      [
        "atu",
        -9.833488719757572
      ],
      [
        "uat",
        -9.836422436240046
      ],
      [
        "andu",
        -9.83645858358406
      ],
      [
        "sar",
        -9.841565506834678
      ],
      [
        "ny",
        -9.84169448668877
      ],
      [
        "persi",
        -9.843518350038911
      ],
      [
        "embentang",
        -9.845882994848267
      ],
      [
        "maka",
        -9.846296902328401
      ],
      [
        "ulung",
        -9.846778371760779
      ],
      [
        "kyo",
        -9.850589172427702
      ],
      [
        "anding",
        -9.85072308356374
      ],
      [
        "mb",
        -9.85283880168667
      ],
      [
        "ree",
        -9.85342097624342
      ],
      [
        "kir",
        -9.855131388839904
      ],
      [
        "ire",
        -9.855800496356945
      ],
      [
        "tari",
        -9.855856755156765
      ],
      [
        "din",
        -9.859004437891874
      ],
      [
        "air",
        -9.859812275298589
      ],
      [
        "terna",
        -9.861031867426213
      ],
      [
        "uan",
        -9.863796495333647
      ],
      [
        "eluruh",
        -9.865362847583615
      ],
      [
        "erasi",
        -9.869127148550827
      ],
      [
        "set",
        -9.869758626836424
      ],
      [
        "empen",
        -9.870752366016616
      ],
      [
        "iasa",
        -9.873585651122248
      ],
      [
        "cia",
        -9.874088310313448
      ],
      [
        "tra",
        -9.876321861616436
      ],
      [
        "tot",
        -9.876691568497764
      ],
      [
        "ustr",
        -9.877300816375989
      ],
      [
        "elaya",
        -9.878846599515372
      ],
      [
        "bru",
        -9.878986016520571
      ],
      [
        "orma",
        -9.879752832591418
      ],
      [
        "mba",
        -9.884650654738241
      ],
      [
        "genda",
        -9.885557340514488
      ],
      [
        "sepe",
        -9.891318669785557
      ],
      [
        "melang",
        -9.893714321472503
      ],
      [
        "sea",
        -9.897226889057237
      ],
      [
        "terp",
        -9.897425753112998
      ],
      [
        "cah",
        -9.898993455489311
      ],
      [
        "mos",
        -9.899768023103347
      ],
      [
        "zu",
        -9.900641549021325
      ],
      [
        "alsu",
        -9.902311148772975
      ],
      [
        "stri",
        -9.903063280507075
      ],
      [
        "berta",
        -9.906235820153922
      ],
      [
        "inte",
        -9.906550360908229
      ],
      [
        "suk",
        -9.908499431561829
      ],
      [
        "lot",
        -9.915559454844722
      ],
      [
        "entin",
        -9.918830711152554
      ],
      [
        "ot",
        -9.921553067958895
      ],
      [
        "angkan",
        -9.922975839580202
      ],
      [
        "erm",
        -9.926439629320697
      ],
      [
        "tv",
        -9.927581188075049
      ],
      [
        "emaj",
        -9.9282017078843
      ],
      [
        "enal",
        -9.933840725628196
      ],
      [
        "angin",
        -9.936005147147421
      ],
      [
        "iada",
        -9.93715631367839
      ],
      [
        "persiap",
        -9.940845616887863
      ],
      [
        "atus",
        -9.943476834421288
      ],
      [
        "dol",
        -9.94697289309882
      ],
      [
        "engeluar",
        -9.949637639266271
      ],
      [
        "beba",
        -9.95433511505763
      ],
      [
        "ers",
        -9.95809080040483
      ],
      [
        "estm",
        -9.958328398951831
      ],
      [
        "kom",
        -9.958939762762734
      ],
      [
        "giat",
        -9.961699004390468
      ],
      [
        "khan",
        -9.96178884215477
      ],
      [
        "ndatang",
        -9.962995266196415
      ],
      [
        "dina",
        -9.967850916028684
      ],
      [
        "hatka",
        -9.96811920126312
      ],
      [
        "eningkat",
        -9.973430912054672
      ],
      [
        "dahan",
        -9.976278008528638
      ],
      [
        "menja",
        -9.978099053487867
      ],
      [
        "sok",
        -9.979302029638017
      ],
      [
        "berad",
        -9.980026582297105
      ],
      [
        "pos",
        -9.984895974760736
      ],
      [
        "empa",
        -9.985763810035337
      ],
      [
        "tian",
        -9.985906396488526
      ],
      [
        "berik",
        -9.986334265174772
      ],
      [
        "antung",
        -9.990368706649235
      ],
      [
        "setuju",
        -9.990541377455171
      ],
      [
        "pia",
        -9.994499912467969
      ],
      [
        "pd",
        -10.00295707883138
      ],
      [
        "ntan",
        -10.00713479853355
      ],
      [
        "ngat",
        -10.012859959432575
      ],
      [
        "terl",
        -10.01435262157855
      ],
      [
        "kem",
        -10.016588305423058
      ],
      [
        "antai",
        -10.016730735030123
      ],
      [
        "caba",
        -10.023114118333615
      ],
      [
        "om",
        -10.024548066471306
      ],
      [
        "lmu",
        -10.026122196009377
      ],
      [
        "adan",
        -10.030161775394777
      ],
      [
        "kha",
        -10.033827423367143
      ],
      [
        "seda",
        -10.034866352364556
      ],
      [
        "hel",
        -10.039356892066337
      ],
      [
        "vo",
        -10.040493980687561
      ],
      [
        "jal",
        -10.04135236409737
      ],
      [
        "ubah",
        -10.043928816159559
      ],
      [
        "oba",
        -10.046289218107118
      ],
      [
        "menu",
        -10.0468259658269
      ],
      [
        "isah",
        -10.050041347829037
      ],
      [
        "hkan",
        -10.052126299258955
      ],
      [
        "hot",
        -10.058203363621766
      ],
      [
        "mana",
        -10.059776595991433
      ],
      [
        "masya",
        -10.065412901748758
      ],
      [
        "antipe",
        -10.068419221101315
      ],
      [
        "sain",
        -10.068983942178283
      ],
      [
        "lawa",
        -10.071738895972894
      ],
      [
        "ergantung",
        -10.07194441339819
      ],
      [
        "ecam",
        -10.080815162730016
      ],
      [
        "dr",
        -10.090866863276617
      ],
      [
        "tus",
        -10.092293035013798
      ],
      [
        "ami",
        -10.095499355541266
      ],
      [
        "nyata",
        -10.096499318566268
      ],
      [
        "melu",
        -10.100504302894263
      ],
      [
        "ifa",
        -10.101370816322467
      ],
      [
        "rumpu",
        -10.102893104366856
      ],
      [
        "uru",
        -10.103094459433372
      ],
      [
        "olon",
        -10.105059578786593
      ],
      [
        "baran",
        -10.10531808558505
      ],
      [
        "og",
        -10.10776852617512
      ],
      [
        "itut",
        -10.110627257237125
      ],
      [
        "buh",
        -10.117599659086512
      ],
      [
        "perika",
        -10.120411173934459
      ],
      [
        "enahan",
        -10.124073788242066
      ],
      [
        "bangk",
        -10.127961569936483
      ],
      [
        "uga",
        -10.134873918850111
      ],
      [
        "anan",
        -10.139923056812306
      ],
      [
        "au",
        -10.142992827557231
      ],
      [
        "nanti",
        -10.146619320933489
      ],
      [
        "nakal",
        -10.149388710958792
      ],
      [
        "tamat",
        -10.149794942275356
      ],
      [
        "buang",
        -10.151707830269928
      ],
      [
        "akti",
        -10.153992210564464
      ],
      [
        "elihat",
        -10.154434325147886
      ],
      [
        "uci",
        -10.160113787110848
      ],
      [
        "rich",
        -10.162566812922329
      ],
      [
        "kompa",
        -10.162648853437616
      ],
      [
        "nder",
        -10.16633696457528
      ],
      [
        "hila",
        -10.16635993151514
      ],
      [
        "menang",
        -10.170814629889474
      ],
      [
        "pemi",
        -10.171474802986012
      ],
      [
        "pengas",
        -10.184765328653022
      ],
      [
        "pemba",
        -10.196264933963757
      ],
      [
        "dada",
        -10.201762363297288
      ],
      [
        "kap",
        -10.20282253898753
      ],
      [
        "elamat",
        -10.20300783011143
      ],
      [
        "201",
        -10.203020498095858
      ],
      [
        "pemb",
        -10.20852184062242
      ],
      [
        "antin",
        -10.215361273207003
      ],
      [
        "asan",
        -10.2155424762336
      ],
      [
        "fak",
        -10.220583423437148
      ],
      [
        "tud",
        -10.220932012368605
      ],
      [
        "uda",
        -10.222364282834054
      ],
      [
        "beru",
        -10.227558467520744
      ],
      [
        "emasa",
        -10.228666757285342
      ],
      [
        "asy",
        -10.22996322376712
      ],
      [
        "ven",
        -10.23160566386025
      ],
      [
        "rin",
        -10.234729305684255
      ],
      [
        "guan",
        -10.236458477360907
      ],
      [
        "york",
        -10.239252716149869
      ],
      [
        "oj",
        -10.244383251374803
      ],
      [
        "mende",
        -10.24698826549417
      ],
      [
        "obi",
        -10.247093689956401
      ],
      [
        "dike",
        -10.248741283424893
      ],
      [
        "sif",
        -10.249948376574416
      ],
      [
        "pelua",
        -10.25151724095764
      ],
      [
        "emam",
        -10.253648840824148
      ],
      [
        "and",
        -10.261662890168619
      ],
      [
        "mengi",
        -10.26666966293592
      ],
      [
        "ering",
        -10.268434937002255
      ],
      [
        "meme",
        -10.271595173515136
      ],
      [
        "ind",
        -10.275760126900723
      ],
      [
        "ub",
        -10.288406830844124
      ],
      [
        "ze",
        -10.293244789225191
      ],
      [
        "ikasi",
        -10.296091685240278
      ],
      [
        "hada",
        -10.301523960284557
      ],
      [
        "net",
        -10.301694483532671
      ],
      [
        "semp",
        -10.302449333440704
      ],
      [
        "lit",
        -10.302971112426661
      ],
      [
        "laras",
        -10.308222888901293
      ],
      [
        "ukur",
        -10.308562314979968
      ],
      [
        "tamp",
        -10.317893144381324
      ],
      [
        "gelan",
        -10.318005617996683
      ],
      [
        "menyera",
        -10.327640105085766
      ],
      [
        "her",
        -10.328193308890286
      ],
      [
        "nda",
        -10.330712028539171
      ],
      [
        "egan",
        -10.33241068064038
      ],
      [
        "rc",
        -10.333235448049887
      ],
      [
        "sid",
        -10.335466118247929
      ],
      [
        "bert",
        -10.335672064229081
      ],
      [
        "eh",
        -10.340180843314249
      ],
      [
        "eli",
        -10.340458860437066
      ],
      [
        "kebu",
        -10.342242770794433
      ],
      [
        "semb",
        -10.342426076856492
      ],
      [
        "imb",
        -10.344528027289984
      ],
      [
        "ngkan",
        -10.349267291724043
      ],
      [
        "kutu",
        -10.352496484765764
      ],
      [
        "rog",
        -10.353166545934087
      ],
      [
        "berk",
        -10.362139077996062
      ],
      [
        "enos",
        -10.363139018474612
      ],
      [
        "awas",
        -10.366561737450112
      ],
      [
        "gela",
        -10.368026148808042
      ],
      [
        "ew",
        -10.377869592257658
      ],
      [
        "ment",
        -10.38377907687206
      ],
      [
        "perik",
        -10.385330844387427
      ],
      [
        "kep",
        -10.386406453169343
      ],
      [
        "siar",
        -10.392070444070386
      ],
      [
        "berb",
        -10.398392315378516
      ],
      [
        "teri",
        -10.399151642275957
      ],
      [
        "salin",
        -10.410187217689474
      ],
      [
        "kw",
        -10.411268917306792
      ],
      [
        "70",
        -10.41147802524793
      ],
      [
        "ulang",
        -10.416543334968281
      ],
      [
        "rend",
        -10.424628333803415
      ],
      [
        "mag",
        -10.429672555252893
      ],
      [
        "dibe",
        -10.430177822565836
      ],
      [
        "rm5",
        -10.435721648675095
      ],
      [
        "teguh",
        -10.436640287619126
      ],
      [
        "int",
        -10.437286185941716
      ],
      [
        "bung",
        -10.437583815764986
      ],
      [
        "sed",
        -10.440463479437103
      ],
      [
        "mengh",
        -10.444413360283864
      ],
      [
        "74",
        -10.445018193689315
      ],
      [
        "anggu",
        -10.445090345809684
      ],
      [
        "ngka",
        -10.448577600790818
      ],
      [
        "aris",
        -10.448744192105483
      ],
      [
        "encan",
        -10.448788093662795
      ],
      [
        "ij",
        -10.451160038391071
      ],
      [
        "konse",
        -10.455594502679435
      ],
      [
        "lim",
        -10.456838812317246
      ],
      [
        "membe",
        -10.460734761113983
      ],
      [
        "engka",
        -10.461629259397135
      ],
      [
        "rm4",
        -10.46227441208106
      ],
      [
        "asti",
        -10.465993668720653
      ],
      [
        "berg",
        -10.468970711844445
      ],
      [
        "ujan",
        -10.46930215433225
      ],
      [
        "mengej",
        -10.472209155983354
      ],
      [
        "ren",
        -10.473164859765348
      ],
      [
        "alia",
        -10.473300105581256
      ],
      [
        "ngkat",
        -10.473738809771628
      ],
      [
        "ebal",
        -10.483023757939248
      ],
      [
        "eje",
        -10.485122506171669
      ],
      [
        "smi",
        -10.486418097913955
      ],
      [
        "aji",
        -10.492214261142674
      ],
      [
        "hang",
        -10.492956367798
      ],
      [
        "sega",
        -10.496988686776392
      ],
      [
        "ase",
        -10.502208077767952
      ],
      [
        "long",
        -10.51095913048115
      ],
      [
        "berhe",
        -10.513579621355747
      ],
      [
        "pelak",
        -10.515643695064004
      ],
      [
        "enump",
        -10.515957681679819
      ],
      [
        "suha",
        -10.51877663418218
      ],
      [
        "leb",
        -10.519320247738008
      ],
      [
        "ediaan",
        -10.51984364693564
      ],
      [
        "uti",
        -10.520411722497133
      ],
      [
        "sit",
        -10.520521968811742
      ],
      [
        "kh",
        -10.523110515741728
      ],
      [
        "enurun",
        -10.525093795110323
      ],
      [
        "gam",
        -10.526605316290023
      ],
      [
        "ach",
        -10.53678641380508
      ],
      [
        "kemud",
        -10.540472166824793
      ],
      [
        "sp",
        -10.544762424202522
      ],
      [
        "uduh",
        -10.545218479494487
      ],
      [
        "pat",
        -10.545314991350901
      ],
      [
        "anda",
        -10.555642822073867
      ],
      [
        "rmula",
        -10.558626512739695
      ],
      [
        "ihat",
        -10.560941404135002
      ],
      [
        "arg",
        -10.562210912249082
      ],
      [
        "bis",
        -10.562642211945509
      ],
      [
        "ngga",
        -10.576940300468145
      ],
      [
        "teg",
        -10.580237159032487
      ],
      [
        "aha",
        -10.581916049493124
      ],
      [
        "bay",
        -10.590286448022914
      ],
      [
        "kapa",
        -10.596510843893373
      ],
      [
        "db",
        -10.598569946139541
      ],
      [
        "pert",
        -10.599887871983944
      ],
      [
        "yo",
        -10.60096765400665
      ],
      [
        "kah",
        -10.611007090595768
      ],
      [
        "migr",
        -10.612270591265927
      ],
      [
        "menggu",
        -10.615608298599218
      ],
      [
        "nding",
        -10.615721606068702
      ],
      [
        "kas",
        -10.62843514344065
      ],
      [
        "ence",
        -10.630816176362517
      ],
      [
        "letak",
        -10.631065367717397
      ],
      [
        "—",
        -10.63361765123258
      ],
      [
        "enyedia",
        -10.639032333854548
      ],
      [
        "bad",
        -10.639428809425606
      ],
      [
        "perkasa",
        -10.640750009167256
      ],
      [
        "kol",
        -10.640814670542309
      ],
      [
        "yar",
        -10.642849193037105
      ],
      [
        "she",
        -10.645307217327964
      ],
      [
        "iwa",
        -10.650368910654066
      ],
      [
        "olek",
        -10.660734095929046
      ],
      [
        "afiz",
        -10.666637493211017
      ],
      [
        "ayer",
        -10.669260376747324
      ],
      [
        "adil",
        -10.669748265295022
      ],
      [
        "gene",
        -10.669965958928703
      ],
      [
        "omet",
        -10.67124120800586
      ],
      [
        "laya",
        -10.674088039738166
      ],
      [
        "malaya",
        -10.674782462164732
      ],
      [
        "hasi",
        -10.676146251574021
      ],
      [
        "nd",
        -10.680062398627474
      ],
      [
        "erland",
        -10.681221950463865
      ],
      [
        "eg",
        -10.683525697382425
      ],
      [
        "inc",
        -10.684249594017734
      ],
      [
        "enha",
        -10.68634994438885
      ],
      [
        "iri",
        -10.689293981901589
      ],
      [
        "hadir",
        -10.695037165296856
      ],
      [
        "endali",
        -10.698125100310472
      ],
      [
        "dika",
        -10.698552034693616
      ],
      [
        "disi",
        -10.700689256218748
      ],
      [
        "egu",
        -10.703289586664516
      ],
      [
        "peratu",
        -10.703627865984647
      ],
      [
        "diing",
        -10.70617156017467
      ],
      [
        "dupan",
        -10.707588953685402
      ],
      [
        "lut",
        -10.71182289280273
      ],
      [
        "57",
        -10.729792429367407
      ],
      [
        "simpan",
        -10.731443836269435
      ],
      [
        "termu",
        -10.734546943957127
      ],
      [
        "vers",
        -10.738408053498016
      ],
      [
        "rusi",
        -10.738978694726303
      ],
      [
        "pani",
        -10.74080319214814
      ],
      [
        "tir",
        -10.743699751607906
      ],
      [
        "kema",
        -10.748956187331686
      ],
      [
        "ampai",
        -10.749938367866655
      ],
      [
        "kome",
        -10.764211793080346
      ],
      [
        "ebu",
        -10.766855028720652
      ],
      [
        "kons",
        -10.767817436497824
      ],
      [
        "one",
        -10.772222422408268
      ],
      [
        "ump",
        -10.773379888432588
      ],
      [
        "tum",
        -10.776559023337054
      ],
      [
        "nggara",
        -10.776716760759381
      ],
      [
        "med",
        -10.777933179340016
      ],
      [
        "sumb",
        -10.782523847681585
      ],
      [
        "ntin",
        -10.78399250434714
      ],
      [
        "nask",
        -10.787265490778484
      ],
      [
        "shi",
        -10.788130436762751
      ],
      [
        "uara",
        -10.792352246876128
      ],
      [
        "ncang",
        -10.794899695435326
      ],
      [
        "emilik",
        -10.807834192271613
      ],
      [
        "nyelu",
        -10.809022725483512
      ],
      [
        "yus",
        -10.813064173441761
      ],
      [
        "muni",
        -10.813265929740364
      ],
      [
        "ampa",
        -10.818321687285563
      ],
      [
        "endak",
        -10.826093524307776
      ],
      [
        "gala",
        -10.828494967334276
      ],
      [
        "dita",
        -10.830905153591656
      ],
      [
        "sih",
        -10.831074047690329
      ],
      [
        "ntai",
        -10.831960961638902
      ],
      [
        "dibin",
        -10.832059989632766
      ],
      [
        "nggang",
        -10.832082887417576
      ],
      [
        "kasi",
        -10.848090264608967
      ],
      [
        "bun",
        -10.851340338128207
      ],
      [
        "uar",
        -10.854073994664082
      ],
      [
        "jawa",
        -10.859535105353492
      ],
      [
        "yu",
        -10.864351745554101
      ],
      [
        "raj",
        -10.865709845930704
      ],
      [
        "jara",
        -10.866014564063933
      ],
      [
        "anas",
        -10.867216140367656
      ],
      [
        "ord",
        -10.874590337483335
      ],
      [
        "elesai",
        -10.875579554269564
      ],
      [
        "seben",
        -10.87677040368155
      ],
      [
        "bali",
        -10.883182783554766
      ],
      [
        "berhu",
        -10.883482286223177
      ],
      [
        "bandara",
        -10.886363904219865
      ],
      [
        "insi",
        -10.889386218611847
      ],
      [
        "penu",
        -10.890131062025368
      ],
      [
        "berte",
        -10.892761696432531
      ],
      [
        "toma",
        -10.894407985977075
      ],
      [
        "iga",
        -10.902704458592563
      ],
      [
        "ou",
        -10.903184511003616
      ],
      [
        "ain",
        -10.906165630544088
      ],
      [
        "fl",
        -10.907044045399417
      ],
      [
        "dira",
        -10.911667819196648
      ],
      [
        "ebus",
        -10.912575476551794
      ],
      [
        "lanta",
        -10.91439635570316
      ],
      [
        "vet",
        -10.921316693708416
      ],
      [
        "icha",
        -10.92169863183967
      ],
      [
        "berni",
        -10.924582585555138
      ],
      [
        "perl",
        -10.926029832880763
      ],
      [
        "ela",
        -10.928349855043368
      ],
      [
        "mendak",
        -10.935040190684884
      ],
      [
        "ev",
        -10.936832131117736
      ],
      [
        "hua",
        -10.942928535884187
      ],
      [
        "kita",
        -10.947018378903188
      ],
      [
        "mete",
        -10.94801026671507
      ],
      [
        "anj",
        -10.955705482577784
      ],
      [
        "pengur",
        -10.95586911767934
      ],
      [
        "kiran",
        -10.963343726872301
      ],
      [
        "keh",
        -10.96411749665458
      ],
      [
        "uka",
        -10.967309525950888
      ],
      [
        "eradab",
        -10.973622052513257
      ],
      [
        "azi",
        -10.975952434437707
      ],
      [
        "gal",
        -10.97962419898546
      ],
      [
        "ngu",
        -10.989363805894985
      ],
      [
        "engemba",
        -11.011843137577548
      ],
      [
        "pere",
        -11.011922457990586
      ],
      [
        "der",
        -11.013599292063667
      ],
      [
        "mul",
        -11.013870865090707
      ],
      [
        "ast",
        -11.021769509926184
      ],
      [
        "ement",
        -11.031573218604445
      ],
      [
        "keb",
        -11.04516235635545
      ],
      [
        "pemili",
        -11.05260768319154
      ],
      [
        "hans",
        -11.053152040212241
      ],
      [
        "sam",
        -11.062357870164423
      ],
      [
        "emaju",
        -11.064670870190367
      ],
      [
        "mengesa",
        -11.06849543559059
      ],
      [
        "mengg",
        -11.071113761896845
      ],
      [
        "dice",
        -11.073663859326263
      ],
      [
        "arna",
        -11.075691055813357
      ],
      [
        "asik",
        -11.07812882353741
      ],
      [
        "elaja",
        -11.08091308977749
      ],
      [
        "arin",
        -11.083685132133356
      ],
      [
        "ism",
        -11.085266618912868
      ],
      [
        "elebih",
        -11.085918905547706
      ],
      [
        "mf",
        -11.086288450713072
      ],
      [
        "urul",
        -11.08821320431676
      ],
      [
        "tub",
        -11.09014180957859
      ],
      [
        "oni",
        -11.091803186442121
      ],
      [
        "mal",
        -11.092931178386962
      ],
      [
        "nam",
        -11.09702980656124
      ],
      [
        "isma",
        -11.101610666919385
      ],
      [
        "ab",
        -11.10179550333527
      ],
      [
        "azak",
        -11.101993520444058
      ],
      [
        "gas",
        -11.106213658342817
      ],
      [
        "eve",
        -11.107339075134833
      ],
      [
        "erana",
        -11.120117899066173
      ],
      [
        "menam",
        -11.125668855838832
      ],
      [
        "nti",
        -11.140009261229082
      ],
      [
        "iris",
        -11.145421743852467
      ],
      [
        "git",
        -11.145632027028656
      ],
      [
        "las",
        -11.147705111916663
      ],
      [
        "leti",
        -11.149181668791524
      ],
      [
        "amsh",
        -11.149348076865428
      ],
      [
        "emb",
        -11.151773912174644
      ],
      [
        "put",
        -11.152162841098303
      ],
      [
        "swa",
        -11.15247458456237
      ],
      [
        "ewa",
        -11.15847955112816
      ],
      [
        "go",
        -11.161057360135276
      ],
      [
        "kece",
        -11.166056305077134
      ],
      [
        "terma",
        -11.169585730090162
      ],
      [
        "erhad",
        -11.171498787268064
      ],
      [
        "mint",
        -11.173511519588676
      ],
      [
        "erbi",
        -11.174697521889765
      ],
      [
        "beb",
        -11.174776834874205
      ],
      [
        "luah",
        -11.175035333604793
      ],
      [
        "eso",
        -11.175373785224131
      ],
      [
        "ntos",
        -11.17681155479829
      ],
      [
        "ld",
        -11.177997643597898
      ],
      [
        "membo",
        -11.182558578147939
      ],
      [
        "sekut",
        -11.184929003119844
      ],
      [
        "idap",
        -11.18915830523594
      ],
      [
        "lusi",
        -11.194981687365743
      ],
      [
        "mpun",
        -11.203512333232148
      ],
      [
        "yan",
        -11.205734202875872
      ],
      [
        "perla",
        -11.213943020166104
      ],
      [
        "jin",
        -11.218598754680011
      ],
      [
        "lamp",
        -11.219065720743368
      ],
      [
        "kont",
        -11.228837339696009
      ],
      [
        "terb",
        -11.228855879613262
      ],
      [
        "berbi",
        -11.24139209942231
      ],
      [
        "haya",
        -11.247199514304834
      ],
      [
        "ersara",
        -11.248959920191176
      ],
      [
        "kuh",
        -11.262710716475791
      ],
      [
        "ega",
        -11.264647772745418
      ],
      [
        "tia",
        -11.265780924377303
      ],
      [
        "paka",
        -11.271691671230728
      ],
      [
        "atur",
        -11.2775126950469
      ],
      [
        "ira",
        -11.290077701488263
      ],
      [
        "jari",
        -11.290797833924143
      ],
      [
        "ist",
        -11.295619586718427
      ],
      [
        "kr",
        -11.301361535920648
      ],
      [
        "ild",
        -11.303001210179094
      ],
      [
        "kor",
        -11.303668222122415
      ],
      [
        "tem",
        -11.304954460275216
      ],
      [
        "gre",
        -11.307214474579228
      ],
      [
        "kama",
        -11.309845767807744
      ],
      [
        "mengad",
        -11.318405979325224
      ],
      [
        "mengga",
        -11.328430549083551
      ],
      [
        "suru",
        -11.330935776393927
      ],
      [
        "lek",
        -11.343737219213967
      ],
      [
        "rana",
        -11.345538477139518
      ],
      [
        "berc",
        -11.34894184939472
      ],
      [
        "sak",
        -11.353330007145253
      ],
      [
        "ema",
        -11.354374349165193
      ],
      [
        "uku",
        -11.3586408974501
      ],
      [
        "iman",
        -11.365202310246207
      ],
      [
        "engisi",
        -11.36671187225981
      ],
      [
        "etus",
        -11.366924792232162
      ],
      [
        "sent",
        -11.368912900076802
      ],
      [
        "risa",
        -11.36913652640332
      ],
      [
        "ratu",
        -11.374007241184943
      ],
      [
        "ana",
        -11.384450318938093
      ],
      [
        "ndu",
        -11.387776579833337
      ],
      [
        "amp",
        -11.389806775020892
      ],
      [
        "tro",
        -11.39381616158451
      ],
      [
        "hat",
        -11.395534851750124
      ],
      [
        "old",
        -11.400671173799582
      ],
      [
        "win",
        -11.403648685878078
      ],
      [
        "hadi",
        -11.408313148266547
      ],
      [
        "bh",
        -11.413172455476504
      ],
      [
        "erlin",
        -11.426006194324861
      ],
      [
        "dig",
        -11.427727225382487
      ],
      [
        "can",
        -11.444878171040289
      ],
      [
        "meru",
        -11.459645381553052
      ],
      [
        "sep",
        -11.491889585475441
      ],
      [
        "apan",
        -11.49767069378629
      ],
      [
        "hei",
        -11.499831968047372
      ],
      [
        "pers",
        -11.505356233869144
      ],
      [
        "cang",
        -11.506468992573403
      ],
      [
        "sab",
        -11.519368800116478
      ],
      [
        "pul",
        -11.520671646981873
      ],
      [
        "guh",
        -11.523322917168297
      ],
      [
        "ekt",
        -11.544011171135718
      ],
      [
        "hij",
        -11.544729715551563
      ],
      [
        "rg",
        -11.54878554918916
      ],
      [
        "udahan",
        -11.556769946592174
      ],
      [
        "member",
        -11.557860839103164
      ],
      [
        "etap",
        -11.558815223739938
      ],
      [
        "etengah",
        -11.567786547300027
      ],
      [
        "kud",
        -11.58236073879938
      ],
      [
        "enapa",
        -11.582533365513424
      ],
      [
        "nara",
        -11.587591958135405
      ],
      [
        "sua",
        -11.595747384003307
      ],
      [
        "pengun",
        -11.603865423680219
      ],
      [
        "gel",
        -11.610684518484582
      ],
      [
        "entia",
        -11.61155321305124
      ],
      [
        "penye",
        -11.612960025356854
      ],
      [
        "buan",
        -11.613062442987975
      ],
      [
        "tol",
        -11.614385551328729
      ],
      [
        "rod",
        -11.635781258420351
      ],
      [
        "sca",
        -11.642993443504517
      ],
      [
        "ulas",
        -11.646945620150893
      ],
      [
        "ona",
        -11.655045523997904
      ],
      [
        "alan",
        -11.663264611813869
      ],
      [
        "gh",
        -11.66615337123364
      ],
      [
        "mpa",
        -11.667636313699559
      ],
      [
        "disa",
        -11.671894277408478
      ],
      [
        "far",
        -11.673639606159716
      ],
      [
        "ejah",
        -11.677722862651564
      ],
      [
        "erol",
        -11.678461919604484
      ],
      [
        "sc",
        -11.680868861279356
      ],
      [
        "inggal",
        -11.682349893153734
      ],
      [
        "hara",
        -11.69177700787506
      ],
      [
        "engesah",
        -11.70011430815703
      ],
      [
        "enyala",
        -11.705724940857728
      ],
      [
        "menghad",
        -11.710317392752657
      ],
      [
        "hin",
        -11.714036033809865
      ],
      [
        "ill",
        -11.734706414651761
      ],
      [
        "pendu",
        -11.735463187581212
      ],
      [
        "tral",
        -11.744669875812512
      ],
      [
        "hama",
        -11.746966282920656
      ],
      [
        "berd",
        -11.759730859229638
      ],
      [
        "tera",
        -11.761404199723454
      ],
      [
        "etahu",
        -11.765837201810406
      ],
      [
        "sti",
        -11.767194738963868
      ],
      [
        "iv",
        -11.777945635359137
      ],
      [
        "rap",
        -11.793886874220766
      ],
      [
        "pena",
        -11.801467993277242
      ],
      [
        "duan",
        -11.807959429351497
      ],
      [
        "terk",
        -11.809420006006448
      ],
      [
        "onas",
        -11.81492425374793
      ],
      [
        "asra",
        -11.829991032875434
      ],
      [
        "jah",
        -11.836754240984428
      ],
      [
        "tih",
        -11.83720538227545
      ],
      [
        "teka",
        -11.85407645172205
      ],
      [
        "peme",
        -11.858985212932577
      ],
      [
        "meri",
        -11.860268894831355
      ],
      [
        "bir",
        -11.873353094980384
      ],
      [
        "enep",
        -11.889413538662573
      ],
      [
        "aff",
        -11.90218503386639
      ],
      [
        "no",
        -11.906306695160303
      ],
      [
        "perm",
        -11.910158654787756
      ],
      [
        "elalu",
        -11.91029520674488
      ],
      [
        "hem",
        -11.913687632365324
      ],
      [
        "pl",
        -11.91622051347197
      ],
      [
        "rsen",
        -11.925599927768907
      ],
      [
        "mang",
        -11.93098539164236
      ],
      [
        "kuran",
        -11.932149130075123
      ],
      [
        "ariti",
        -11.94294727306737
      ],
      [
        "oo",
        -11.949215369429156
      ],
      [
        "berpu",
        -11.951998310946305
      ],
      [
        "dal",
        -11.974445502927352
      ],
      [
        "aka",
        -11.975174477718594
      ],
      [
        "cl",
        -11.979372951991449
      ],
      [
        "emuda",
        -11.982804782035396
      ],
      [
        "dap",
        -11.9832812651177
      ],
      [
        "kara",
        -11.989773993088761
      ],
      [
        "arik",
        -11.990691687341496
      ],
      [
        "rum",
        -11.996282315844892
      ],
      [
        "emala",
        -11.999586802762167
      ],
      [
        "jul",
        -12.009651570041122
      ],
      [
        "eba",
        -12.010336243496006
      ],
      [
        "seran",
        -12.0108940634891
      ],
      [
        "nung",
        -12.017125308133542
      ]
    ],
    "byte_fallback": false
  }
}