{
  "version": "1.0",
  "truncation": null,
  "padding": null,
  "added_tokens": [
    {
      "id": 0,
      "content": "[UNK]",
      "single_word": false,
      "lstrip": false,
      "rstrip": false,
      "normalized": false,
      "special": true
    },
    {
      "id": 1,
      "content": "[PAD]",
      "single_word": false,
      "lstrip": false,
      "rstrip": false,
      "normalized": false,
      "special": true
    },
    {
      "id": 2,
      "content": "[CLS]",
      "single_word": false,
      "lstrip": false,
      "rstrip": false,
      "normalized": false,
      "special": true
    },
    {
      "id": 3,
      "content": "[SEP]",
      "single_word": false,
      "lstrip": false,
      "rstrip": false,
      "normalized": false,
      "special": true
    },
    {
      "id": 4,
      "content": "[MASK]",
      "single_word": false,
      "lstrip": false,
      "rstrip": false,
      "normalized": false,
      "special": true
    }
  ],
  "normalizer": {
    "type": "Sequence",
    "normalizers": [
      {
        "type": "NFD"
      },
      {
        "type": "StripAccents"
      }
    ]
  },
  "pre_tokenizer": {
    "type": "Whitespace"
  },
  "post_processor": null,
  "decoder": null,
  "model": {
    "type": "BPE",
    "dropout": null,
    "unk_token": "[UNK]",
    "continuing_subword_prefix": null,
    "end_of_word_suffix": null,
    "fuse_unk": false,
    "byte_fallback": false,
    "ignore_merges": false,
    "vocab": {
      "[UNK]": 0,
      "[PAD]": 1,
      "[CLS]": 2,
      "[SEP]": 3,
      "[MASK]": 4,
      "!": 5,
      "\"": 6,
      "#": 7,
      "$": 8,
      "&": 9,
      "'": 10,
      "(": 11,
      ")": 12,
      ",": 13,
      "-": 14,
      ".": 15,
      "/": 16,
      "0": 17,
      "1": 18,
      "2": 19,
      "3": 20,
      "4": 21,
      "5": 22,
      "6": 23,
      "7": 24,
      "8": 25,
      "9": 26,
      ":": 27,
      ";": 28,
      "?": 29,
      "[": 30,
      "]": 31,
      "a": 32,
      "b": 33,
      "c": 34,
      "d": 35,
      "e": 36,
      "f": 37,
      "g": 38,
      "h": 39,
      "i": 40,
      "j": 41,
      "k": 42,
      "l": 43,
      "m": 44,
      "n": 45,
      "o": 46,
      "p": 47,
      "q": 48,
      "r": 49,
      "s": 50,
      "t": 51,
      "u": 52,
      "v": 53,
      "w": 54,
      "x": 55,
      "y": 56,
      "z": 57,
      "£": 58,
      "­": 59,
      "–": 60,
      "—": 61,
      "‘": 62,
      "’": 63,
      "“": 64,
      "”": 65,
      "…": 66,
      "an": 67,
      "er": 68,
      "en": 69,
      "ar": 70,
      "la": 71,
      "in": 72,
      "at": 73,
      "di": 74,
      "ang": 75,
      "se": 76,
      "ma": 77,
      "kan": 78,
      "da": 79,
      "men": 80,
      "as": 81,
      "un": 82,
      "ke": 83,
      "ah": 84,
      "em": 85,
      "ber": 86,
      "si": 87,
      "al": 88,
      "per": 89,
      "am": 90,
      "tu": 91,
      "ak": 92,
      "ku": 93,
      "le": 94,
      "lu": 95,
      "ter": 96,
      "ti": 97,
      "pen": 98,
      "li": 99,
      "ta": 100,
      "pa": 101,
      "ing": 102,
      "on": 103,
      "ur": 104,
      "ya": 105,
      "or": 106,
      "ka": 107,
      "ga": 108,
      "bu": 109,
      "ja": 110,
      "dan": 111,
      "ari": 112,
      "ba": 113,
      "be": 114,
      "pe": 115,
      "sa": 116,
      "yang": 117,
      "us": 118,
      "ara": 119,
      "lam": 120,
      "bi": 121,
      "me": 122,
      "mem": 123,
      "du": 124,
      "gi": 125,
      "ini": 126,
      "mp": 127,
      "ha": 128,
      "is": 129,
      "meng": 130,
      "mu": 131,
      "ra": 132,
      "pada": 133,
      "eng": 134,
      "tah": 135,
      "ki": 136,
      "pi": 137,
      "ala": 138,
      "pas": 139,
      "te": 140,
      "su": 141,
      "untu": 142,
      "sia": 143,
      "atan": 144,
      "ik": 145,
      "peng": 146,
      "de": 147,
      "ju": 148,
      "lan": 149,
      "tan": 150,
      "ung": 151,
      "hi": 152,
      "han": 153,
      "angan": 154,
      "kuala": 155,
      "untuk": 156,
      "ker": 157,
      "pu": 158,
      "mah": 159,
      "pem": 160,
      "ru": 161,
      "ser": 162,
      "ko": 163,
      "re": 164,
      "dalam": 165,
      "lump": 166,
      "lumpur": 167,
      "el": 168,
      "ia": 169,
      "po": 170,
      "dap": 171,
      "bang": 172,
      "ata": 173,
      "ban": 174,
      "ne": 175,
      "itu": 176,
      "aru": 177,
      "nya": 178,
      "deng": 179,
      "dengan": 180,
      "lay": 181,
      "ri": 182,
      "pan": 183,
      "atu": 184,
      "bo": 185,
      "sy": 186,
      "hari": 187,
      "dak": 188,
      "bah": 189,
      "mi": 190,
      "ca": 191,
      "aran": 192,
      "asi": 193,
      "man": 194,
      "ro": 195,
      "sen": 196,
      "akan": 197,
      "gu": 198,
      "ian": 199,
      "wa": 200,
      "lah": 201,
      "st": 202,
      "dia": 203,
      "lebi": 204,
      "lepas": 205,
      "orang": 206,
      "ol": 207,
      "por": 208,
      "ch": 209,
      "tahun": 210,
      "ran": 211,
      "wan": 212,
      "sema": 213,
      "kon": 214,
      "selepas": 215,
      "malay": 216,
      "lebih": 217,
      "ada": 218,
      "malaysia": 219,
      "00": 220,
      "rm": 221,
      "ut": 222,
      "ken": 223,
      "mer": 224,
      "dari": 225,
      "lapor": 226,
      "ji": 227,
      "beri": 228,
      "lis": 229,
      "dah": 230,
      "aki": 231,
      "neg": 232,
      "20": 233,
      "dun": 234,
      "ham": 235,
      "jam": 236,
      "san": 237,
      "ati": 238,
      "lum": 239,
      "gai": 240,
      "ge": 241,
      "asa": 242,
      "gen": 243,
      "os": 244,
      "atkan": 245,
      "mas": 246,
      "apa": 247,
      "lang": 248,
      "meny": 249,
      "bagi": 250,
      "dua": 251,
      "dunia": 252,
      "ai": 253,
      "dar": 254,
      "fi": 255,
      "alan": 256,
      "bagai": 257,
      "mula": 258,
      "tahan": 259,
      "jar": 260,
      "rak": 261,
      "hadap": 262,
      "lon": 263,
      "tal": 264,
      "vi": 265,
      "seorang": 266,
      "emp": 267,
      "sama": 268,
      "ci": 269,
      "kat": 270,
      "ant": 271,
      "jadi": 272,
      "jaya": 273,
      "ukan": 274,
      "main": 275,
      "uni": 276,
      "keti": 277,
      "terhadap": 278,
      "baharu": 279,
      "eri": 280,
      "lalu": 281,
      "kepada": 282,
      "teri": 283,
      "ben": 284,
      "pal": 285,
      "sar": 286,
      "laki": 287,
      "lelaki": 288,
      "tidak": 289,
      "aan": 290,
      "bat": 291,
      "bal": 292,
      "dang": 293,
      "don": 294,
      "es": 295,
      "hu": 296,
      "ting": 297,
      "beli": 298,
      "rumah": 299,
      "polis": 300,
      "semalam": 301,
      "kata": 302,
      "to": 303,
      "sebagai": 304,
      "aman": 305,
      "belum": 306,
      "negara": 307,
      "hing": 308,
      "sini": 309,
      "teng": 310,
      "yak": 311,
      "arkan": 312,
      "aja": 313,
      "gun": 314,
      "ram": 315,
      "sebu": 316,
      "peny": 317,
      "ketika": 318,
      "ce": 319,
      "jalan": 320,
      "min": 321,
      "rem": 322,
      "tang": 323,
      "uh": 324,
      "za": 325,
      "tama": 326,
      "besar": 327,
      "daripada": 328,
      "london": 329,
      "do": 330,
      "gan": 331,
      "ger": 332,
      "kin": 333,
      "lo": 334,
      "mo": 335,
      "usia": 336,
      "uru": 337,
      "bukan": 338,
      "serta": 339,
      "cara": 340,
      "datu": 341,
      "je": 342,
      "ni": 343,
      "sh": 344,
      "satu": 345,
      "was": 346,
      "yat": 347,
      "kem": 348,
      "bersama": 349,
      "tik": 350,
      "pemain": 351,
      "hai": 352,
      "pasukan": 353,
      "pin": 354,
      "so": 355,
      "ditahan": 356,
      "sek": 357,
      "sem": 358,
      "und": 359,
      "sih": 360,
      "kuasa": 361,
      "lik": 362,
      "dana": 363,
      "memper": 364,
      "ted": 365,
      "202": 366,
      "empat": 367,
      "antara": 368,
      "82": 369,
      "bar": 370,
      "bin": 371,
      "bak": 372,
      "eka": 373,
      "il": 374,
      "jan": 375,
      "umu": 376,
      "ver": 377,
      "war": 378,
      "atus": 379,
      "leh": 380,
      "ingan": 381,
      "isra": 382,
      "keraja": 383,
      "dakwa": 384,
      "datuk": 385,
      "israel": 386,
      "kerajaan": 387,
      "13": 388,
      "co": 389,
      "for": 390,
      "jo": 391,
      "kam": 392,
      "pak": 393,
      "sara": 394,
      "tin": 395,
      "ton": 396,
      "ana": 397,
      "lab": 398,
      "masa": 399,
      "menjadi": 400,
      "perdana": 401,
      "bek": 402,
      "dudu": 403,
      "juta": 404,
      "bangsa": 405,
      "bantu": 406,
      "united": 407,
      "&#": 408,
      "den": 409,
      "gal": 410,
      "kini": 411,
      "ras": 412,
      "ulan": 413,
      "utama": 414,
      "laku": 415,
      "diper": 416,
      "sela": 417,
      "sebelum": 418,
      "berapa": 419,
      "kur": 420,
      "uri": 421,
      "mereka": 422,
      "tinggi": 423,
      "tengah": 424,
      "11": 425,
      "par": 426,
      "pun": 427,
      "pre": 428,
      "sus": 429,
      "ten": 430,
      "um": 431,
      "wi": 432,
      "mening": 433,
      "menteri": 434,
      "kese": 435,
      "aha": 436,
      "perlu": 437,
      "peratus": 438,
      "luar": 439,
      "lih": 440,
      "gaza": 441,
      "beberapa": 442,
      "membu": 443,
      "menge": 444,
      "depan": 445,
      "land": 446,
      "atau": 447,
      "new": 448,
      "rm1": 449,
      "rakyat": 450,
      "hingga": 451,
      "bekas": 452,
      "duduk": 453,
      "au": 454,
      "aw": 455,
      "cah": 456,
      "hd": 457,
      "lar": 458,
      "nah": 459,
      "lai": 460,
      "lak": 461,
      "diri": 462,
      "sim": 463,
      "ali": 464,
      "isu": 465,
      "seri": 466,
      "akibat": 467,
      "agen": 468,
      "batan": 469,
      "der": 470,
      "har": 471,
      "hak": 472,
      "pro": 473,
      "tar": 474,
      "dike": 475,
      "secara": 476,
      "mendap": 477,
      "siden": 478,
      "bay": 479,
      "saya": 480,
      "bila": 481,
      "ikal": 482,
      "hampi": 483,
      "jamin": 484,
      "umum": 485,
      "ap": 486,
      "bas": 487,
      "cu": 488,
      "ita": 489,
      "rat": 490,
      "tem": 491,
      "uan": 492,
      "ve": 493,
      "bera": 494,
      "aksi": 495,
      "tikan": 496,
      "penga": 497,
      "urus": 498,
      "arikat": 499,
      "media": 500,
      "memberi": 501,
      "syarikat": 502,
      "apabila": 503,
      "fiz": 504,
      "presiden": 505,
      "ib": 506,
      "jen": 507,
      "jang": 508,
      "pd": 509,
      "ron": 510,
      "tak": 511,
      "tari": 512,
      "ero": 513,
      "arat": 514,
      "dil": 515,
      "dilapor": 516,
      "maj": 517,
      "dakan": 518,
      "menur": 519,
      "ast": 520,
      "kedua": 521,
      "ahan": 522,
      "berusia": 523,
      "perse": 524,
      "penduduk": 525,
      "tai": 526,
      "tadi": 527,
      "bil": 528,
      "musim": 529,
      "wanita": 530,
      "nilai": 531,
      "meninggal": 532,
      "agensi": 533,
      "alam": 534,
      "baru": 535,
      "gar": 536,
      "im": 537,
      "jung": 538,
      "mar": 539,
      "pung": 540,
      "rus": 541,
      "wak": 542,
      "ina": 543,
      "dik": 544,
      "didakwa": 545,
      "semula": 546,
      "mak": 547,
      "ketu": 548,
      "kelab": 549,
      "liver": 550,
      "kamah": 551,
      "usaha": 552,
      "mengen": 553,
      "kira": 554,
      "pihak": 555,
      "pengaru": 556,
      "hir": 557,
      "puan": 558,
      "mahkamah": 559,
      "pool": 560,
      "semakin": 561,
      "guna": 562,
      "8211": 563,
      "kurang": 564,
      "liverpool": 565,
      "),": 566,
      ").": 567,
      "cast": 568,
      "gel": 569,
      "ip": 570,
      "kang": 571,
      "mb": 572,
      "na": 573,
      "og": 574,
      "rah": 575,
      "ris": 576,
      "tr": 577,
      "thai": 578,
      "ani": 579,
      "indi": 580,
      "maut": 581,
      "masih": 582,
      "bermula": 583,
      "luru": 584,
      "tera": 585,
      "tersebu": 586,
      "tau": 587,
      "pagi": 588,
      "uran": 589,
      "kadar": 590,
      "buka": 591,
      "petal": 592,
      "teta": 593,
      "sukan": 594,
      "deo": 595,
      "mahu": 596,
      "pembang": 597,
      "boja": 598,
      "manch": 599,
      "000": 600,
      "negeri": 601,
      "video": 602,
      "ester": 603,
      "sebuah": 604,
      "reman": 605,
      "kemboja": 606,
      "kampung": 607,
      "lakukan": 608,
      "susulan": 609,
      "hampir": 610,
      "menurut": 611,
      "castle": 612,
      "thailand": 613,
      "tersebut": 614,
      "petaling": 615,
      "manchester": 616,
      "44": 617,
      "cam": 618,
      "cangan": 619,
      "fa": 620,
      "gol": 621,
      "he": 622,
      "kor": 623,
      "mus": 624,
      "pm": 625,
      "tam": 626,
      "usi": 627,
      "wang": 628,
      "yah": 629,
      "anwar": 630,
      "sel": 631,
      "ses": 632,
      "seki": 633,
      "sedang": 634,
      "menj": 635,
      "sial": 636,
      "ameri": 637,
      "terus": 638,
      "tir": 639,
      "penuh": 640,
      "padan": 641,
      "bulan": 642,
      "pet": 643,
      "meme": 644,
      "meman": 645,
      "muda": 646,
      "teg": 647,
      "suk": 648,
      "kerana": 649,
      "rump": 650,
      "menye": 651,
      "vidu": 652,
      "balik": 653,
      "shah": 654,
      "tindakan": 655,
      "newcastle": 656,
      "mendapatkan": 657,
      "pengaruh": 658,
      "individu": 659,
      "amerika": 660,
      "10": 661,
      "40": 662,
      "cero": 663,
      "eta": 664,
      "gram": 665,
      "guru": 666,
      "hat": 667,
      "lin": 668,
      "oleh": 669,
      "skan": 670,
      "trak": 671,
      "ul": 672,
      "zi": 673,
      "erusi": 674,
      "atas": 675,
      "sehingga": 676,
      "asatan": 677,
      "kemen": 678,
      "berken": 679,
      "siti": 680,
      "siasatan": 681,
      "pernah": 682,
      "kuh": 683,
      "kutu": 684,
      "liga": 685,
      "yai": 686,
      "kawas": 687,
      "sul": 688,
      "hidu": 689,
      "kerja": 690,
      "serangan": 691,
      "boh": 692,
      "boleh": 693,
      "ros": 694,
      "kontrak": 695,
      "minyak": 696,
      "sosial": 697,
      "bakal": 698,
      "bantuan": 699,
      "laksan": 700,
      "fizikal": 701,
      "dilaporkan": 702,
      "mengenai": 703,
      "ogos": 704,
      "ceroboh": 705,
      "berkenaan": 706,
      "kawasan": 707,
      "95": 708,
      "batu": 709,
      "cang": 710,
      "ep": 711,
      "fe": 712,
      "gam": 713,
      "ho": 714,
      "jak": 715,
      "kl": 716,
      "kah": 717,
      "ly": 718,
      "mat": 719,
      "pah": 720,
      "rund": 721,
      "ster": 722,
      "tor": 723,
      "tra": 724,
      "temp": 725,
      "trump": 726,
      "any": 727,
      "lau": 728,
      "lain": 729,
      "lati": 730,
      "inc": 731,
      "india": 732,
      "disy": 733,
      "angat": 734,
      "mai": 735,
      "maja": 736,
      "daya": 737,
      "askan": 738,
      "kes": 739,
      "keluar": 740,
      "tuju": 741,
      "tiga": 742,
      "limen": 743,
      "lion": 744,
      "pai": 745,
      "inggu": 746,
      "buat": 747,
      "bumi": 748,
      "pelan": 749,
      "pekerja": 750,
      "bilion": 751,
      "ist": 752,
      "raya": 753,
      "kit": 754,
      "piala": 755,
      "pulu": 756,
      "pemi": 757,
      "pempengaruh": 758,
      "remaja": 759,
      "banji": 760,
      "banyak": 761,
      "baha": 762,
      "dahkan": 763,
      "atif": 764,
      "masing": 765,
      "menyer": 766,
      "cita": 767,
      "benjamin": 768,
      "haiwan": 769,
      "2025": 770,
      "parlimen": 771,
      "tarif": 772,
      "sesko": 773,
      "tempatan": 774,
      "disyaki": 775,
      "keluarga": 776,
      "banjir": 777,
      "16": 778,
      "80": 779,
      "ad": 780,
      "bkan": 781,
      "bun": 782,
      "egi": 783,
      "est": 784,
      "emas": 785,
      "gang": 786,
      "hasi": 787,
      "ir": 788,
      "jer": 789,
      "jing": 790,
      "jian": 791,
      "k13": 792,
      "oh": 793,
      "pus": 794,
      "sah": 795,
      "uk": 796,
      "wal": 797,
      "arah": 798,
      "sepak": 799,
      "dahan": 800,
      "menam": 801,
      "asan": 802,
      "kesih": 803,
      "kebangsa": 804,
      "berada": 805,
      "sist": 806,
      "pertu": 807,
      "ambil": 808,
      "akhir": 809,
      "lihan": 810,
      "ong": 811,
      "onal": 812,
      "jauh": 813,
      "pecah": 814,
      "saingan": 815,
      "memba": 816,
      "gian": 817,
      "mpuan": 818,
      "had": 819,
      "hada": 820,
      "mengu": 821,
      "mengumum": 822,
      "enggan": 823,
      "pilihan": 824,
      "dekat": 825,
      "juga": 826,
      "ret": 827,
      "bandar": 828,
      "layah": 829,
      "panas": 830,
      "syen": 831,
      "strat": 832,
      "kong": 833,
      "adalah": 834,
      "rmk13": 835,
      "laporan": 836,
      "hington": 837,
      "washington": 838,
      "bintang": 839,
      "wilayah": 840,
      "beradik": 841,
      "pengadil": 842,
      "ibrah": 843,
      "majist": 844,
      "russia": 845,
      "ketua": 846,
      "pembangkang": 847,
      "hasil": 848,
      "jerman": 849,
      "kesihatan": 850,
      "kebangsaan": 851,
      "mengumumkan": 852,
      "strategi": 853,
      "ibrahim": 854,
      "majistret": 855,
      "abang": 856,
      "ding": 857,
      "ff": 858,
      "has": 859,
      "hor": 860,
      "ikan": 861,
      "khi": 862,
      "lbagai": 863,
      "muri": 864,
      "minggu": 865,
      "ok": 866,
      "oku": 867,
      "pga": 868,
      "sal": 869,
      "son": 870,
      "tas": 871,
      "tun": 872,
      "ui": 873,
      "udi": 874,
      "upa": 875,
      "wangan": 876,
      "xpd": 877,
      "anan": 878,
      "anak": 879,
      "err": 880,
      "entang": 881,
      "lawan": 882,
      "ins": 883,
      "intir": 884,
      "seper": 885,
      "selang": 886,
      "sejar": 887,
      "segel": 888,
      "sejak": 889,
      "makan": 890,
      "malam": 891,
      "mene": 892,
      "menga": 893,
      "menentang": 894,
      "kewangan": 895,
      "ahli": 896,
      "tular": 897,
      "tumpuan": 898,
      "kul": 899,
      "kut": 900,
      "legen": 901,
      "leip": 902,
      "terian": 903,
      "ingger": 904,
      "kai": 905,
      "bul": 906,
      "jabatan": 907,
      "pek": 908,
      "pelbagai": 909,
      "araan": 910,
      "bit": 911,
      "melakukan": 912,
      "membeli": 913,
      "kilo": 914,
      "sual": 915,
      "penge": 916,
      "pengguna": 917,
      "dewan": 918,
      "juma": 919,
      "tanah": 920,
      "tanpa": 921,
      "hil": 922,
      "kereta": 923,
      "pukul": 924,
      "elang": 925,
      "syarat": 926,
      "cayai": 927,
      "capai": 928,
      "rancangan": 929,
      "kender": 930,
      "2040": 931,
      "gesa": 932,
      "darah": 933,
      "hujung": 934,
      "penyer": 935,
      "seksual": 936,
      "sempadan": 937,
      "rasmi": 938,
      "dipercayai": 939,
      "membuat": 940,
      "audi": 941,
      "jangka": 942,
      "ron95": 943,
      "luruh": 944,
      "tetapi": 945,
      "menjelang": 946,
      "petro": 947,
      "zig": 948,
      "kementerian": 949,
      "rundingan": 950,
      "bahawa": 951,
      "sistem": 952,
      "khid": 953,
      "murid": 954,
      "xpdc": 955,
      "seperti": 956,
      "selangor": 957,
      "sejarah": 958,
      "segelintir": 959,
      "leipzig": 960,
      "inggeris": 961,
      "kenderaan": 962,
      "24": 963,
      "28": 964,
      "50": 965,
      "90": 966,
      "ase": 967,
      "ayah": 968,
      "bung": 969,
      "catan": 970,
      "din": 971,
      "dat": 972,
      "dem": 973,
      "ele": 974,
      "f1": 975,
      "flik": 976,
      "ibu": 977,
      "jata": 978,
      "kal": 979,
      "lem": 980,
      "nor": 981,
      "nasi": 982,
      "om": 983,
      "pk": 984,
      "pkan": 985,
      "prem": 986,
      "rb": 987,
      "sun": 988,
      "sri": 989,
      "tangan": 990,
      "anc": 991,
      "antan": 992,
      "lagi": 993,
      "intah": 994,
      "diberi": 995,
      "ditem": 996,
      "angsa": 997,
      "sea": 998,
      "semen": 999,
      "sekadar": 1000,
      "sebanyak": 1001,
      "mal": 1002,
      "masuk": 1003,
      "kanada": 1004,
      "dali": 1005,
      "mena": 1006,
      "meneri": 1007,
      "asing": 1008,
      "asia": 1009,
      "undang": 1010,
      "kel": 1011,
      "kejo": 1012,
      "berjaya": 1013,
      "berkata": 1014,
      "bernilai": 1015,
      "peruntu": 1016,
      "pertahan": 1017,
      "perlawan": 1018,
      "akti": 1019,
      "kuat": 1020,
      "kutan": 1021,
      "kukuh": 1022,
      "kuantan": 1023,
      "luarkan": 1024,
      "tern": 1025,
      "terba": 1026,
      "ort": 1027,
      "but": 1028,
      "bukit": 1029,
      "babkan": 1030,
      "pela": 1031,
      "pelab": 1032,
      "mema": 1033,
      "melang": 1034,
      "memi": 1035,
      "duhan": 1036,
      "gikut": 1037,
      "raz": 1038,
      "ramai": 1039,
      "pil": 1040,
      "pasan": 1041,
      "sum": 1042,
      "pengurus": 1043,
      "dek": 1044,
      "hanan": 1045,
      "hanya": 1046,
      "putra": 1047,
      "peman": 1048,
      "pemer": 1049,
      "kod": 1050,
      "komi": 1051,
      "rekod": 1052,
      "elsea": 1053,
      "dapat": 1054,
      "bola": 1055,
      "senjata": 1056,
      "chelsea": 1057,
      "konflik": 1058,
      "kenal": 1059,
      "berita": 1060,
      "loni": 1061,
      "palsu": 1062,
      "palest": 1063,
      "beliau": 1064,
      "yakin": 1065,
      "tikto": 1066,
      "2026": 1067,
      "antarabangsa": 1068,
      "selama": 1069,
      "lihat": 1070,
      "awal": 1071,
      "bayaran": 1072,
      "maklum": 1073,
      "puluh": 1074,
      "menyertai": 1075,
      "hadapi": 1076,
      "kongsi": 1077,
      "legenda": 1078,
      "penyerang": 1079,
      "premi": 1080,
      "ditemukan": 1081,
      "menerima": 1082,
      "kejohanan": 1083,
      "peruntukan": 1084,
      "perlawanan": 1085,
      "palestin": 1086,
      "04": 1087,
      "19": 1088,
      "844": 1089,
      "bsi": 1090,
      "bri": 1091,
      "bhd": 1092,
      "braz": 1093,
      "cc": 1094,
      "can": 1095,
      "curi": 1096,
      "dr": 1097,
      "dung": 1098,
      "dangan": 1099,
      "go": 1100,
      "gara": 1101,
      "hati": 1102,
      "hos": 1103,
      "ico": 1104,
      "ijing": 1105,
      "jp": 1106,
      "jasa": 1107,
      "kali": 1108,
      "ling": 1109,
      "mun": 1110,
      "nin": 1111,
      "pr": 1112,
      "sb": 1113,
      "th": 1114,
      "ty": 1115,
      "tz": 1116,
      "uat": 1117,
      "ugu": 1118,
      "wari": 1119,
      "watan": 1120,
      "xico": 1121,
      "yar": 1122,
      "yata": 1123,
      "anti": 1124,
      "laya": 1125,
      "lapan": 1126,
      "inya": 1127,
      "diha": 1128,
      "dira": 1129,
      "direman": 1130,
      "sedia": 1131,
      "sejam": 1132,
      "sepenuh": 1133,
      "seluruh": 1134,
      "malah": 1135,
      "dadah": 1136,
      "menu": 1137,
      "menje": 1138,
      "menerusi": 1139,
      "menceroboh": 1140,
      "mencapai": 1141,
      "asaran": 1142,
      "unan": 1143,
      "kej": 1144,
      "berusaha": 1145,
      "sif": 1146,
      "sip": 1147,
      "allah": 1148,
      "perang": 1149,
      "pertama": 1150,
      "perpin": 1151,
      "perjan": 1152,
      "amaran": 1153,
      "tuk": 1154,
      "kump": 1155,
      "kuch": 1156,
      "terenggan": 1157,
      "tim": 1158,
      "peni": 1159,
      "penting": 1160,
      "pendek": 1161,
      "liti": 1162,
      "liki": 1163,
      "baan": 1164,
      "bayang": 1165,
      "baik": 1166,
      "beijing": 1167,
      "pelu": 1168,
      "bilan": 1169,
      "meter": 1170,
      "metal": 1171,
      "mexico": 1172,
      "membantu": 1173,
      "isteri": 1174,
      "isnin": 1175,
      "mengem": 1176,
      "muka": 1177,
      "pital": 1178,
      "tes": 1179,
      "telah": 1180,
      "subsi": 1181,
      "hima": 1182,
      "hiros": 1183,
      "kerjasa": 1184,
      "putu": 1185,
      "pulau": 1186,
      "elon": 1187,
      "poh": 1188,
      "dapur": 1189,
      "bank": 1190,
      "bot": 1191,
      "milik": 1192,
      "gug": 1193,
      "utara": 1194,
      "hamil": 1195,
      "jambatan": 1196,
      "filem": 1197,
      "talian": 1198,
      "antung": 1199,
      "paloh": 1200,
      "bali": 1201,
      "hujan": 1202,
      "tengku": 1203,
      "gunung": 1204,
      "minat": 1205,
      "kembali": 1206,
      "bincang": 1207,
      "bakat": 1208,
      "ford": 1209,
      "diperdaya": 1210,
      "rm104": 1211,
      "harga": 1212,
      "dikeluarkan": 1213,
      "berapi": 1214,
      "majlis": 1215,
      "persekutu": 1216,
      "sekitar": 1217,
      "memetik": 1218,
      "memandu": 1219,
      "hatian": 1220,
      "sitif": 1221,
      "sultan": 1222,
      "hidup": 1223,
      "epl": 1224,
      "pahang": 1225,
      "latih": 1226,
      "pemilik": 1227,
      "menamatkan": 1228,
      "pertuduhan": 1229,
      "strategik": 1230,
      "khidmat": 1231,
      "asean": 1232,
      "demi": 1233,
      "norris": 1234,
      "nasional": 1235,
      "brazil": 1236,
      "hospital": 1237,
      "yarham": 1238,
      "allahyarham": 1239,
      "perpindahan": 1240,
      "perjanjian": 1241,
      "kumpulan": 1242,
      "kuching": 1243,
      "terengganu": 1244,
      "subsidi": 1245,
      "hiroshima": 1246,
      "kerjasama": 1247,
      "persekutuan": 1248,
      "12": 1249,
      "30": 1250,
      "500": 1251,
      "ab": 1252,
      "aca": 1253,
      "ajan": 1254,
      "bb": 1255,
      "bur": 1256,
      "bari": 1257,
      "buru": 1258,
      "ck": 1259,
      "cen": 1260,
      "cat": 1261,
      "dbi": 1262,
      "ek": 1263,
      "ex": 1264,
      "fan": 1265,
      "flo": 1266,
      "gus": 1267,
      "gre": 1268,
      "gro": 1269,
      "hal": 1270,
      "hol": 1271,
      "imp": 1272,
      "jas": 1273,
      "jur": 1274,
      "ktikan": 1275,
      "mc": 1276,
      "ml": 1277,
      "matan": 1278,
      "mangsa": 1279,
      "no": 1280,
      "oo": 1281,
      "ou": 1282,
      "pta": 1283,
      "ping": 1284,
      "pri": 1285,
      "parkan": 1286,
      "sp": 1287,
      "sam": 1288,
      "sku": 1289,
      "sing": 1290,
      "sur": 1291,
      "ski": 1292,
      "ste": 1293,
      "tara": 1294,
      "tung": 1295,
      "taran": 1296,
      "tempat": 1297,
      "ulu": 1298,
      "uarat": 1299,
      "wah": 1300,
      "zah": 1301,
      "zaman": 1302,
      "anjung": 1303,
      "enam": 1304,
      "endali": 1305,
      "dikan": 1306,
      "anggo": 1307,
      "seo": 1308,
      "seger": 1309,
      "mad": 1310,
      "madan": 1311,
      "maung": 1312,
      "daan": 1313,
      "menang": 1314,
      "menari": 1315,
      "menci": 1316,
      "mence": 1317,
      "keci": 1318,
      "kehidu": 1319,
      "kehil": 1320,
      "kekal": 1321,
      "empa": 1322,
      "bersara": 1323,
      "berlaku": 1324,
      "berhad": 1325,
      "berkai": 1326,
      "simp": 1327,
      "perintah": 1328,
      "lebat": 1329,
      "terbuka": 1330,
      "termasuk": 1331,
      "tiada": 1332,
      "penta": 1333,
      "lima": 1334,
      "taw": 1335,
      "urkan": 1336,
      "kala": 1337,
      "kawal": 1338,
      "gawa": 1339,
      "jabat": 1340,
      "jawatan": 1341,
      "bel": 1342,
      "pelaksan": 1343,
      "pegawa": 1344,
      "pejabat": 1345,
      "laman": 1346,
      "lamatan": 1347,
      "bia": 1348,
      "mele": 1349,
      "mesy": 1350,
      "melalu": 1351,
      "melihat": 1352,
      "meski": 1353,
      "memin": 1354,
      "istan": 1355,
      "mengha": 1356,
      "menggun": 1357,
      "mengambil": 1358,
      "rakan": 1359,
      "siap": 1360,
      "pengumu": 1361,
      "pengerusi": 1362,
      "penguat": 1363,
      "pengendali": 1364,
      "des": 1365,
      "tanyah": 1366,
      "ungkin": 1367,
      "hilang": 1368,
      "hantar": 1369,
      "keru": 1370,
      "puh": 1371,
      "pembeli": 1372,
      "pembuka": 1373,
      "kok": 1374,
      "kole": 1375,
      "kota": 1376,
      "eld": 1377,
      "iaitu": 1378,
      "positif": 1379,
      "netanyah": 1380,
      "bahan": 1381,
      "senti": 1382,
      "sendiri": 1383,
      "wajar": 1384,
      "stasi": 1385,
      "diaan": 1386,
      "ranya": 1387,
      "semasa": 1388,
      "kongan": 1389,
      "kenyata": 1390,
      "merah": 1391,
      "jika": 1392,
      "dahulu": 1393,
      "ged": 1394,
      "geor": 1395,
      "gencatan": 1396,
      "air": 1397,
      "field": 1398,
      "jaring": 1399,
      "terima": 1400,
      "benar": 1401,
      "jalani": 1402,
      "rempuh": 1403,
      "dolu": 1404,
      "pasukannya": 1405,
      "sokongan": 1406,
      "kuasaan": 1407,
      "bakaran": 1408,
      "warga": 1409,
      "formula": 1410,
      "forex": 1411,
      "sarawak": 1412,
      "anadolu": 1413,
      "selasa": 1414,
      "keseluru": 1415,
      "keselamatan": 1416,
      "membuktikan": 1417,
      "awam": 1418,
      "program": 1419,
      "basikal": 1420,
      "cuaca": 1421,
      "tempoh": 1422,
      "jentera": 1423,
      "jenayah": 1424,
      "pdrm": 1425,
      "marin": 1426,
      "russel": 1427,
      "waktu": 1428,
      "mbsb": 1429,
      "tral": 1430,
      "korban": 1431,
      "tampil": 1432,
      "sekiranya": 1433,
      "menyebabkan": 1434,
      "gambar": 1435,
      "anyi": 1436,
      "tujuan": 1437,
      "sahaja": 1438,
      "bitkan": 1439,
      "diberikan": 1440,
      "semenanjung": 1441,
      "kelmarin": 1442,
      "pertahanan": 1443,
      "pelaburan": 1444,
      "memaparkan": 1445,
      "memiliki": 1446,
      "tiktok": 1447,
      "kongsikan": 1448,
      "briged": 1449,
      "sepenuhnya": 1450,
      "penipuan": 1451,
      "hamilton": 1452,
      "ajansi": 1453,
      "dbiran": 1454,
      "skuad": 1455,
      "anggota": 1456,
      "segera": 1457,
      "madani": 1458,
      "mencipta": 1459,
      "kecil": 1460,
      "kehidupan": 1461,
      "kehilangan": 1462,
      "berkaitan": 1463,
      "pentadbiran": 1464,
      "pelaksanaan": 1465,
      "pegawai": 1466,
      "mesyuarat": 1467,
      "melalui": 1468,
      "meskipun": 1469,
      "menggunakan": 1470,
      "pengumuman": 1471,
      "penguatkuasaan": 1472,
      "pembelian": 1473,
      "pembukaan": 1474,
      "netanyahu": 1475,
      "kenyataan": 1476,
      "keseluruhan": 1477,
      "17": 1478,
      "29": 1479,
      "32": 1480,
      "35": 1481,
      "60": 1482,
      "77": 1483,
      "aa": 1484,
      "aj": 1485,
      "ao": 1486,
      "aga": 1487,
      "bor": 1488,
      "batkan": 1489,
      "bkl": 1490,
      "cem": 1491,
      "cing": 1492,
      "cari": 1493,
      "chi": 1494,
      "cinc": 1495,
      "dpa": 1496,
      "daran": 1497,
      "dina": 1498,
      "ddin": 1499,
      "dbkl": 1500,
      "ea": 1501,
      "ekon": 1502,
      "eai": 1503,
      "fb": 1504,
      "fc": 1505,
      "fl": 1506,
      "ferr": 1507,
      "gon": 1508,
      "gran": 1509,
      "garkan": 1510,
      "gantung": 1511,
      "gempa": 1512,
      "hara": 1513,
      "hut": 1514,
      "hford": 1515,
      "isi": 1516,
      "iba": 1517,
      "jah": 1518,
      "juru": 1519,
      "kkan": 1520,
      "kri": 1521,
      "kaki": 1522,
      "lhi": 1523,
      "lson": 1524,
      "ms": 1525,
      "my": 1526,
      "mata": 1527,
      "mos": 1528,
      "muni": 1529,
      "mungkin": 1530,
      "nam": 1531,
      "nuk": 1532,
      "ot": 1533,
      "oper": 1534,
      "omi": 1535,
      "ps": 1536,
      "pt": 1537,
      "pam": 1538,
      "runtu": 1539,
      "rik": 1540,
      "rtz": 1541,
      "sin": 1542,
      "saran": 1543,
      "suri": 1544,
      "stadi": 1545,
      "skala": 1546,
      "taman": 1547,
      "uda": 1548,
      "uah": 1549,
      "uca": 1550,
      "vao": 1551,
      "wn": 1552,
      "wis": 1553,
      "wala": 1554,
      "yati": 1555,
      "yong": 1556,
      "zon": 1557,
      "zara": 1558,
      "ancam": 1559,
      "era": 1560,
      "erlang": 1561,
      "aro": 1562,
      "arsen": 1563,
      "las": 1564,
      "lama": 1565,
      "lagu": 1566,
      "laos": 1567,
      "laskan": 1568,
      "insip": 1569,
      "atm": 1570,
      "atrik": 1571,
      "diang": 1572,
      "dikata": 1573,
      "dipin": 1574,
      "didikan": 1575,
      "dirempuh": 1576,
      "angkan": 1577,
      "seko": 1578,
      "sehari": 1579,
      "sekurang": 1580,
      "sebalik": 1581,
      "masi": 1582,
      "maka": 1583,
      "mamp": 1584,
      "maju": 1585,
      "mach": 1586,
      "mayat": 1587,
      "kanak": 1588,
      "ment": 1589,
      "menda": 1590,
      "menun": 1591,
      "menjaring": 1592,
      "asas": 1593,
      "aspek": 1594,
      "keju": 1595,
      "kebang": 1596,
      "keca": 1597,
      "kest": 1598,
      "kejar": 1599,
      "kejaya": 1600,
      "kekur": 1601,
      "keperlu": 1602,
      "kemal": 1603,
      "keputu": 1604,
      "kebakaran": 1605,
      "berat": 1606,
      "bermain": 1607,
      "bersatu": 1608,
      "berkuasa": 1609,
      "berhampi": 1610,
      "beraksi": 1611,
      "berani": 1612,
      "berakhir": 1613,
      "berkuat": 1614,
      "berkongsikan": 1615,
      "berskala": 1616,
      "sir": 1617,
      "siatif": 1618,
      "ald": 1619,
      "altern": 1620,
      "perinc": 1621,
      "peranan": 1622,
      "perhatian": 1623,
      "periba": 1624,
      "amat": 1625,
      "amang": 1626,
      "tus": 1627,
      "akta": 1628,
      "akui": 1629,
      "kusen": 1630,
      "lez": 1631,
      "lear": 1632,
      "lesen": 1633,
      "lever": 1634,
      "leum": 1635,
      "terde": 1636,
      "terlepas": 1637,
      "terbaharu": 1638,
      "teraan": 1639,
      "terje": 1640,
      "terutama": 1641,
      "tertinggi": 1642,
      "pena": 1643,
      "penu": 1644,
      "penam": 1645,
      "pening": 1646,
      "pengikut": 1647,
      "pendidikan": 1648,
      "lisi": 1649,
      "lipin": 1650,
      "libatkan": 1651,
      "tae": 1652,
      "pakej": 1653,
      "ingati": 1654,
      "onik": 1655,
      "ura": 1656,
      "uraw": 1657,
      "kad": 1658,
      "kaji": 1659,
      "kalau": 1660,
      "gap": 1661,
      "bulu": 1662,
      "jair": 1663,
      "beg": 1664,
      "bebas": 1665,
      "besaran": 1666,
      "pegu": 1667,
      "pelih": 1668,
      "saing": 1669,
      "lami": 1670,
      "mei": 1671,
      "mel": 1672,
      "melibatkan": 1673,
      "inisiatif": 1674,
      "mpv": 1675,
      "hag": 1676,
      "haus": 1677,
      "hamas": 1678,
      "isy": 1679,
      "mengge": 1680,
      "menghadapi": 1681,
      "mengakui": 1682,
      "muhd": 1683,
      "rafiz": 1684,
      "tahap": 1685,
      "pasti": 1686,
      "tele": 1687,
      "tebu": 1688,
      "tevao": 1689,
      "super": 1690,
      "ikat": 1691,
      "ikkan": 1692,
      "ikonik": 1693,
      "penghujung": 1694,
      "dedik": 1695,
      "delhi": 1696,
      "jum": 1697,
      "juara": 1698,
      "jukkan": 1699,
      "kerdil": 1700,
      "putera": 1701,
      "mahsuri": 1702,
      "rugi": 1703,
      "sert": 1704,
      "kos": 1705,
      "komp": 1706,
      "koloni": 1707,
      "red": 1708,
      "dalaman": 1709,
      "pound": 1710,
      "polisi": 1711,
      "bangkan": 1712,
      "atakan": 1713,
      "layak": 1714,
      "bolson": 1715,
      "syor": 1716,
      "cadang": 1717,
      "manusia": 1718,
      "rogol": 1719,
      "seni": 1720,
      "chero": 1721,
      "konsert": 1722,
      "005": 1723,
      "kena": 1724,
      "jim": 1725,
      "berisi": 1726,
      "berikutan": 1727,
      "hamzah": 1728,
      "menyatakan": 1729,
      "aiki": 1730,
      "filipin": 1731,
      "rakaman": 1732,
      "viti": 1733,
      "ketibaan": 1734,
      "benarkan": 1735,
      "donald": 1736,
      "estevao": 1737,
      "huku": 1738,
      "hubung": 1739,
      "town": 1740,
      "penye": 1741,
      "penyasaran": 1742,
      "penyanyi": 1743,
      "ceg": 1744,
      "jalankan": 1745,
      "doku": 1746,
      "gerakan": 1747,
      "mohd": 1748,
      "sertai": 1749,
      "jek": 1750,
      "sherr": 1751,
      "sekatan": 1752,
      "sekali": 1753,
      "semangat": 1754,
      "sempena": 1755,
      "barat": 1756,
      "cow": 1757,
      "johari": 1758,
      "johor": 1759,
      "menjadikan": 1760,
      "rashford": 1761,
      "rasuah": 1762,
      "selatan": 1763,
      "parti": 1764,
      "suspek": 1765,
      "tentera": 1766,
      "tenaga": 1767,
      "wirtz": 1768,
      "membuatkan": 1769,
      "laren": 1770,
      "alih": 1771,
      "dikejar": 1772,
      "mendapati": 1773,
      "bayer": 1774,
      "sayap": 1775,
      "apura": 1776,
      "velez": 1777,
      "ketum": 1778,
      "kurangnya": 1779,
      "ipk": 1780,
      "nama": 1781,
      "tren": 1782,
      "trik": 1783,
      "tetap": 1784,
      "pembangunan": 1785,
      "korea": 1786,
      "musk": 1787,
      "menjurus": 1788,
      "ulsan": 1789,
      "sulung": 1790,
      "laksanakan": 1791,
      "fesyen": 1792,
      "sterol": 1793,
      "sterling": 1794,
      "latihan": 1795,
      "bumiputera": 1796,
      "bundar": 1797,
      "bunuh": 1798,
      "membawa": 1799,
      "membabitkan": 1800,
      "mengalami": 1801,
      "kilogram": 1802,
      "kilometer": 1803,
      "audio": 1804,
      "audit": 1805,
      "petroleum": 1806,
      "pkr": 1807,
      "ancaman": 1808,
      "aktiviti": 1809,
      "melanggar": 1810,
      "sumber": 1811,
      "pengurusan": 1812,
      "putrajaya": 1813,
      "pemandu": 1814,
      "maklumat": 1815,
      "premier": 1816,
      "jpj": 1817,
      "prinsip": 1818,
      "ugut": 1819,
      "warisan": 1820,
      "dihayati": 1821,
      "diraja": 1822,
      "menjelaskan": 1823,
      "bayangan": 1824,
      "metalkest": 1825,
      "tesla": 1826,
      "botol": 1827,
      "gugurkan": 1828,
      "bincangkan": 1829,
      "bariatrik": 1830,
      "jururaw": 1831,
      "mclaren": 1832,
      "singapura": 1833,
      "seoul": 1834,
      "menarik": 1835,
      "mencecah": 1836,
      "simpanan": 1837,
      "jawatankuasa": 1838,
      "meletus": 1839,
      "kolesterol": 1840,
      "cemerlang": 1841,
      "cincin": 1842,
      "dinamakan": 1843,
      "ekonomi": 1844,
      "eaic": 1845,
      "flor": 1846,
      "ferrari": 1847,
      "hutang": 1848,
      "jurulatih": 1849,
      "mysara": 1850,
      "moscow": 1851,
      "namun": 1852,
      "nuklear": 1853,
      "pampasan": 1854,
      "runtuh": 1855,
      "stadium": 1856,
      "walau": 1857,
      "arsenal": 1858,
      "dianggap": 1859,
      "dikatakan": 1860,
      "dipindahkan": 1861,
      "sekolah": 1862,
      "sebaliknya": 1863,
      "mampu": 1864,
      "machuca": 1865,
      "menunjukkan": 1866,
      "menjaringkan": 1867,
      "kejuaraan": 1868,
      "kejayaan": 1869,
      "kekurangan": 1870,
      "keperluan": 1871,
      "keputusan": 1872,
      "berhampiran": 1873,
      "alternatif": 1874,
      "perincian": 1875,
      "leverkusen": 1876,
      "terdedah": 1877,
      "terjejas": 1878,
      "bebaskan": 1879,
      "peguam": 1880,
      "peliharaan": 1881,
      "menggegarkan": 1882,
      "rafizi": 1883,
      "dedikasi": 1884,
      "kolonial": 1885,
      "bolsonaro": 1886,
      "cherok": 1887,
      "filipina": 1888,
      "sherry": 1889,
      "metalkestra": 1890,
      "jururawat": 1891,
      ",”": 1892,
      "18": 1893,
      "25": 1894,
      "39": 1895,
      "af": 1896,
      "av": 1897,
      "ay": 1898,
      "aut": 1899,
      "baran": 1900,
      "car": 1901,
      "cia": 1902,
      "col": 1903,
      "dara": 1904,
      "eh": 1905,
      "ey": 1906,
      "ez": 1907,
      "ekor": 1908,
      "fant": 1909,
      "foku": 1910,
      "gp": 1911,
      "gat": 1912,
      "gas": 1913,
      "glo": 1914,
      "gaskan": 1915,
      "hta": 1916,
      "hon": 1917,
      "hung": 1918,
      "haru": 1919,
      "hbar": 1920,
      "hangat": 1921,
      "id": 1922,
      "imi": 1923,
      "jus": 1924,
      "kh": 1925,
      "ks": 1926,
      "klu": 1927,
      "kasi": 1928,
      "ktor": 1929,
      "ktrik": 1930,
      "llah": 1931,
      "los": 1932,
      "mon": 1933,
      "mis": 1934,
      "msu": 1935,
      "ny": 1936,
      "nia": 1937,
      "nati": 1938,
      "olah": 1939,
      "ph": 1940,
      "pur": 1941,
      "pha": 1942,
      "pram": 1943,
      "pbb": 1944,
      "qair": 1945,
      "ren": 1946,
      "rasi": 1947,
      "sas": 1948,
      "sung": 1949,
      "sasi": 1950,
      "suru": 1951,
      "saha": 1952,
      "sangat": 1953,
      "tn": 1954,
      "tmen": 1955,
      "the": 1956,
      "up": 1957,
      "uari": 1958,
      "uju": 1959,
      "usim": 1960,
      "upm": 1961,
      "ven": 1962,
      "vasi": 1963,
      "win": 1964,
      "walan": 1965,
      "wuju": 1966,
      "yus": 1967,
      "you": 1968,
      "zik": 1969,
      "zoo": 1970,
      "anya": 1971,
      "annya": 1972,
      "andun": 1973,
      "ander": 1974,
      "anfield": 1975,
      "erah": 1976,
      "ary": 1977,
      "lao": 1978,
      "lap": 1979,
      "lade": 1980,
      "lahan": 1981,
      "ino": 1982,
      "int": 1983,
      "insan": 1984,
      "intai": 1985,
      "integ": 1986,
      "infant": 1987,
      "atom": 1988,
      "dir": 1989,
      "dis": 1990,
      "dija": 1991,
      "digi": 1992,
      "dilakukan": 1993,
      "dijangka": 1994,
      "dijalankan": 1995,
      "dilaksanakan": 1996,
      "angka": 1997,
      "angkat": 1998,
      "angele": 1999,
      "angkutan": 2000,
      "sega": 2001,
      "sesama": 2002,
      "sekutu": 2003,
      "setuju": 2004,
      "sejauh": 2005,
      "sebenar": 2006,
      "kanser": 2007,
      "kannya": 2008,
      "dam": 2009,
      "dape": 2010,
      "dasar": 2011,
      "menya": 2012,
      "mengi": 2013,
      "mende": 2014,
      "mendakwa": 2015,
      "menahan": 2016,
      "mengikut": 2017,
      "menjalani": 2018,
      "asis": 2019,
      "undi": 2020,
      "unya": 2021,
      "untung": 2022,
      "keh": 2023,
      "ket": 2024,
      "keda": 2025,
      "kele": 2026,
      "kelan": 2027,
      "keada": 2028,
      "kesan": 2029,
      "kejadi": 2030,
      "keteg": 2031,
      "kelaya": 2032,
      "kepenting": 2033,
      "kebulu": 2034,
      "kemanusia": 2035,
      "keuntung": 2036,
      "ahkan": 2037,
      "emuan": 2038,
      "empuan": 2039,
      "berlin": 2040,
      "berpuluh": 2041,
      "bersif": 2042,
      "berhubung": 2043,
      "situ": 2044,
      "persi": 2045,
      "pering": 2046,
      "pertan": 2047,
      "permo": 2048,
      "persatu": 2049,
      "perbin": 2050,
      "persaingan": 2051,
      "perikan": 2052,
      "peranc": 2053,
      "perkukuh": 2054,
      "pertaman": 2055,
      "pernia": 2056,
      "persaha": 2057,
      "perempuan": 2058,
      "akala": 2059,
      "akhbar": 2060,
      "kus": 2061,
      "kudung": 2062,
      "kucing": 2063,
      "les": 2064,
      "lesa": 2065,
      "lewis": 2066,
      "lut": 2067,
      "terbi": 2068,
      "terlebih": 2069,
      "terlalu": 2070,
      "terpak": 2071,
      "terkena": 2072,
      "tian": 2073,
      "tila": 2074,
      "tivasi": 2075,
      "tikus": 2076,
      "pendap": 2077,
      "pentas": 2078,
      "penceg": 2079,
      "penemuan": 2080,
      "lia": 2081,
      "taan": 2082,
      "tawar": 2083,
      "paya": 2084,
      "paian": 2085,
      "kawalan": 2086,
      "gaan": 2087,
      "gaji": 2088,
      "buan": 2089,
      "buhan": 2090,
      "budape": 2091,
      "aris": 2092,
      "badan": 2093,
      "baikan": 2094,
      "belay": 2095,
      "pelar": 2096,
      "saat": 2097,
      "saudi": 2098,
      "usnya": 2099,
      "usnah": 2100,
      "lampu": 2101,
      "bida": 2102,
      "biskan": 2103,
      "melebi": 2104,
      "memas": 2105,
      "mesir": 2106,
      "mempun": 2107,
      "duan": 2108,
      "dual": 2109,
      "dulu": 2110,
      "git": 2111,
      "menggesa": 2112,
      "mengandun": 2113,
      "muham": 2114,
      "rai": 2115,
      "pilan": 2116,
      "pirasi": 2117,
      "pasaran": 2118,
      "tey": 2119,
      "sudah": 2120,
      "supaya": 2121,
      "pengangkutan": 2122,
      "jut": 2123,
      "jukan": 2124,
      "landa": 2125,
      "lantik": 2126,
      "hanjaya": 2127,
      "hantaran": 2128,
      "angani": 2129,
      "keras": 2130,
      "pembayaran": 2131,
      "serong": 2132,
      "koh": 2133,
      "koman": 2134,
      "kolahan": 2135,
      "res": 2136,
      "read": 2137,
      "banglade": 2138,
      "bandara": 2139,
      "riti": 2140,
      "panik": 2141,
      "panjang": 2142,
      "pantau": 2143,
      "bos": 2144,
      "boman": 2145,
      "misi": 2146,
      "cap": 2147,
      "cadangan": 2148,
      "cabaran": 2149,
      "manakala": 2150,
      "sensasi": 2151,
      "gua": 2152,
      "status": 2153,
      "porto": 2154,
      "char": 2155,
      "rank": 2156,
      "kenakan": 2157,
      "merce": 2158,
      "jid": 2159,
      "lumba": 2160,
      "getah": 2161,
      "langgar": 2162,
      "langkah": 2163,
      "langsung": 2164,
      "menyaksi": 2165,
      "fifa": 2166,
      "city": 2167,
      "unit": 2168,
      "univer": 2169,
      "bentuk": 2170,
      "paling": 2171,
      "esahan": 2172,
      "esok": 2173,
      "huey": 2174,
      "belia": 2175,
      "tokoh": 2176,
      "rampasan": 2177,
      "tangga": 2178,
      "doktor": 2179,
      "ganti": 2180,
      "lokasi": 2181,
      "moha": 2182,
      "motivasi": 2183,
      "jepun": 2184,
      "nie": 2185,
      "nims": 2186,
      "she": 2187,
      "pintu": 2188,
      "sembilan": 2189,
      "under": 2190,
      "memperkukuh": 2191,
      "memperkenal": 2192,
      "memperingati": 2193,
      "2024": 2194,
      "barangan": 2195,
      "bina": 2196,
      "ilmu": 2197,
      "januari": 2198,
      "dakwaan": 2199,
      "masalah": 2200,
      "selain": 2201,
      "partey": 2202,
      "prestasi": 2203,
      "wira": 2204,
      "wipha": 2205,
      "kesedaran": 2206,
      "mengejar": 2207,
      "mengecam": 2208,
      "cahkan": 2209,
      "serie": 2210,
      "projek": 2211,
      "dikemuka": 2212,
      "bayar": 2213,
      "cup": 2214,
      "veter": 2215,
      "vesel": 2216,
      "iblis": 2217,
      "ibunya": 2218,
      "persekolahan": 2219,
      "garcia": 2220,
      "marc": 2221,
      "gelaran": 2222,
      "naik": 2223,
      "animasi": 2224,
      "taufan": 2225,
      "campur": 2226,
      "heav": 2227,
      "musang": 2228,
      "padanya": 2229,
      "bulanan": 2230,
      "memecahkan": 2231,
      "memantau": 2232,
      "tegas": 2233,
      "kemenangan": 2234,
      "kuhkan": 2235,
      "lyon": 2236,
      "anyian": 2237,
      "pelanc": 2238,
      "pelantikan": 2239,
      "puluhan": 2240,
      "ganggu": 2241,
      "pusat": 2242,
      "puskan": 2243,
      "pertubuhan": 2244,
      "pecahkan": 2245,
      "mengukuhkan": 2246,
      "dings": 2247,
      "hasrat": 2248,
      "upaya": 2249,
      "upacara": 2250,
      "meneliti": 2251,
      "menegaskan": 2252,
      "bull": 2253,
      "pengeboman": 2254,
      "elektrik": 2255,
      "ombia": 2256,
      "menaikkan": 2257,
      "aktif": 2258,
      "terbabas": 2259,
      "terbabit": 2260,
      "pelakon": 2261,
      "pelajar": 2262,
      "melangkah": 2263,
      "komitmen": 2264,
      "premium": 2265,
      "munaj": 2266,
      "thread": 2267,
      "mengemudi": 2268,
      "abdu": 2269,
      "bursa": 2270,
      "buruk": 2271,
      "central": 2272,
      "flotila": 2273,
      "gresen": 2274,
      "group": 2275,
      "holdings": 2276,
      "import": 2277,
      "nov": 2278,
      "prix": 2279,
      "stesen": 2280,
      "taraf": 2281,
      "tawaran": 2282,
      "istanbul": 2283,
      "menghabiskan": 2284,
      "kerugian": 2285,
      "george": 2286,
      "russell": 2287,
      "chia": 2288,
      "grand": 2289,
      "operasi": 2290,
      "peribadi": 2291,
      "penampilan": 2292,
      "tebusan": 2293,
      "hukuman": 2294,
      "dokumen": 2295,
      "cincinnati": 2296,
      "walaupun": 2297,
      "colombia": 2298,
      "ehwal": 2299,
      "fokus": 2300,
      "global": 2301,
      "honan": 2302,
      "hungary": 2303,
      "imigresen": 2304,
      "justin": 2305,
      "monsun": 2306,
      "miskin": 2307,
      "nyanyian": 2308,
      "pramusim": 2309,
      "qairina": 2310,
      "sasar": 2311,
      "suruhanjaya": 2312,
      "wujud": 2313,
      "youtu": 2314,
      "anderson": 2315,
      "integriti": 2316,
      "infantino": 2317,
      "dijadual": 2318,
      "digital": 2319,
      "angeles": 2320,
      "segala": 2321,
      "mendedahkan": 2322,
      "kelantan": 2323,
      "keadaan": 2324,
      "kejadian": 2325,
      "ketegangan": 2326,
      "kelayakan": 2327,
      "kepentingan": 2328,
      "kebuluran": 2329,
      "kemanusiaan": 2330,
      "keuntungan": 2331,
      "bersifat": 2332,
      "situasi": 2333,
      "pertanian": 2334,
      "permohonan": 2335,
      "persatuan": 2336,
      "perbincangan": 2337,
      "perikanan": 2338,
      "perancis": 2339,
      "pertamanya": 2340,
      "perniagaan": 2341,
      "persahabatan": 2342,
      "terpaksa": 2343,
      "pendapatan": 2344,
      "pencegahan": 2345,
      "budapest": 2346,
      "belayar": 2347,
      "pelarasan": 2348,
      "melebihi": 2349,
      "memastikan": 2350,
      "mempunyai": 2351,
      "mengandungi": 2352,
      "muhammad": 2353,
      "bangladesh": 2354,
      "bandaraya": 2355,
      "mercedes": 2356,
      "menyaksikan": 2357,
      "memperkenalkan": 2358,
      "dikemukakan": 2359,
      "heavy": 2360,
      "munajjim": 2361,
      ".”": 2362,
      "15": 2363,
      "100": 2364,
      "200": 2365,
      "224": 2366,
      "300": 2367,
      "56": 2368,
      "57": 2369,
      "62": 2370,
      "69": 2371,
      "700": 2372,
      "762": 2373,
      "87": 2374,
      "900": 2375,
      "aq": 2376,
      "aus": 2377,
      "api": 2378,
      "ade": 2379,
      "apan": 2380,
      "apal": 2381,
      "adira": 2382,
      "abaikan": 2383,
      "bc": 2384,
      "bp": 2385,
      "bt": 2386,
      "bara": 2387,
      "bru": 2388,
      "bris": 2389,
      "brussel": 2390,
      "bharu": 2391,
      "cr": 2392,
      "cal": 2393,
      "cak": 2394,
      "cor": 2395,
      "ceng": 2396,
      "cos": 2397,
      "cana": 2398,
      "cris": 2399,
      "celon": 2400,
      "dn": 2401,
      "dus": 2402,
      "dra": 2403,
      "dol": 2404,
      "dram": 2405,
      "djo": 2406,
      "dhak": 2407,
      "dort": 2408,
      "ed": 2409,
      "eem": 2410,
      "epo": 2411,
      "edah": 2412,
      "ejen": 2413,
      "ecc": 2414,
      "ehati": 2415,
      "even": 2416,
      "fm": 2417,
      "fo": 2418,
      "fin": 2419,
      "fon": 2420,
      "fnya": 2421,
      "faki": 2422,
      "fatkan": 2423,
      "ftaran": 2424,
      "fera": 2425,
      "gh": 2426,
      "gn": 2427,
      "gangan": 2428,
      "garan": 2429,
      "galan": 2430,
      "gemp": 2431,
      "gina": 2432,
      "gkang": 2433,
      "gbc": 2434,
      "hen": 2435,
      "hang": 2436,
      "hem": 2437,
      "it": 2438,
      "ida": 2439,
      "ius": 2440,
      "ide": 2441,
      "ire": 2442,
      "ipo": 2443,
      "iman": 2444,
      "iran": 2445,
      "itz": 2446,
      "icr": 2447,
      "ifatkan": 2448,
      "jl": 2449,
      "jin": 2450,
      "jal": 2451,
      "jara": 2452,
      "jmi": 2453,
      "jati": 2454,
      "jaskan": 2455,
      "jantung": 2456,
      "kn": 2457,
      "kw": 2458,
      "ky": 2459,
      "kla": 2460,
      "ksi": 2461,
      "kti": 2462,
      "kara": 2463,
      "kha": 2464,
      "kis": 2465,
      "katan": 2466,
      "kasa": 2467,
      "katkan": 2468,
      "khas": 2469,
      "kpk": 2470,
      "kpt": 2471,
      "krai": 2472,
      "kcup": 2473,
      "lma": 2474,
      "lari": 2475,
      "lung": 2476,
      "mk": 2477,
      "mm": 2478,
      "mor": 2479,
      "mbu": 2480,
      "mik": 2481,
      "mbang": 2482,
      "maru": 2483,
      "mati": 2484,
      "mund": 2485,
      "nar": 2486,
      "ngu": 2487,
      "ogi": 2488,
      "openg": 2489,
      "oser": 2490,
      "okong": 2491,
      "pn": 2492,
      "pp": 2493,
      "pat": 2494,
      "pati": 2495,
      "pso": 2496,
      "paris": 2497,
      "pbt": 2498,
      "qu": 2499,
      "qis": 2500,
      "qui": 2501,
      "qdis": 2502,
      "rg": 2503,
      "ry": 2504,
      "ring": 2505,
      "sya": 2506,
      "spe": 2507,
      "sha": 2508,
      "saki": 2509,
      "shu": 2510,
      "scam": 2511,
      "sasaran": 2512,
      "sfield": 2513,
      "sunder": 2514,
      "sdn": 2515,
      "smk": 2516,
      "srg": 2517,
      "tv": 2518,
      "tri": 2519,
      "tho": 2520,
      "thaus": 2521,
      "ub": 2522,
      "ula": 2523,
      "uku": 2524,
      "uka": 2525,
      "uger": 2526,
      "ujang": 2527,
      "uddin": 2528,
      "vo": 2529,
      "var": 2530,
      "visy": 2531,
      "wol": 2532,
      "waki": 2533,
      "wil": 2534,
      "west": 2535,
      "woo": 2536,
      "xin": 2537,
      "ye": 2538,
      "yan": 2539,
      "yun": 2540,
      "yor": 2541,
      "zan": 2542,
      "zhar": 2543,
      "zul": 2544,
      "zep": 2545,
      "’.": 2546,
      "….": 2547,
      "and": 2548,
      "anda": 2549,
      "anku": 2550,
      "antau": 2551,
      "anjing": 2552,
      "andat": 2553,
      "anuger": 2554,
      "erus": 2555,
      "erik": 2556,
      "ernie": 2557,
      "entian": 2558,
      "arak": 2559,
      "argen": 2560,
      "lal": 2561,
      "lake": 2562,
      "laka": 2563,
      "lahi": 2564,
      "laut": 2565,
      "lajar": 2566,
      "lawak": 2567,
      "lahir": 2568,
      "lahad": 2569,
      "lafc": 2570,
      "ine": 2571,
      "inan": 2572,
      "inat": 2573,
      "indah": 2574,
      "inve": 2575,
      "indus": 2576,
      "inkcup": 2577,
      "inuddin": 2578,
      "ato": 2579,
      "atka": 2580,
      "atik": 2581,
      "atasi": 2582,
      "athir": 2583,
      "aturan": 2584,
      "dif": 2585,
      "diu": 2586,
      "dise": 2587,
      "dias": 2588,
      "dili": 2589,
      "dibeli": 2590,
      "diaman": 2591,
      "diram": 2592,
      "dihar": 2593,
      "dipengaru": 2594,
      "dibuka": 2595,
      "digesa": 2596,
      "dilihat": 2597,
      "disip": 2598,
      "ditung": 2599,
      "digantung": 2600,
      "dikaji": 2601,
      "diugut": 2602,
      "dibincangkan": 2603,
      "dibebaskan": 2604,
      "dilantik": 2605,
      "dikenakan": 2606,
      "dilahir": 2607,
      "angin": 2608,
      "anggu": 2609,
      "seku": 2610,
      "sepe": 2611,
      "seis": 2612,
      "semu": 2613,
      "sesu": 2614,
      "setahun": 2615,
      "sedar": 2616,
      "selalu": 2617,
      "selar": 2618,
      "sehar": 2619,
      "sebay": 2620,
      "setak": 2621,
      "segam": 2622,
      "sebaha": 2623,
      "sesyen": 2624,
      "sepasukannya": 2625,
      "sebotol": 2626,
      "selia": 2627,
      "sejati": 2628,
      "mac": 2629,
      "mam": 2630,
      "mau": 2631,
      "masy": 2632,
      "magu": 2633,
      "makin": 2634,
      "malaya": 2635,
      "magn": 2636,
      "damai": 2637,
      "daerah": 2638,
      "daftaran": 2639,
      "dagangan": 2640,
      "menem": 2641,
      "meneng": 2642,
      "mendalam": 2643,
      "menjaya": 2644,
      "menaw": 2645,
      "menjamin": 2646,
      "menim": 2647,
      "menep": 2648,
      "mendat": 2649,
      "menaiki": 2650,
      "menandat": 2651,
      "menerus": 2652,
      "asy": 2653,
      "asakan": 2654,
      "asarkan": 2655,
      "asram": 2656,
      "asingan": 2657,
      "unkan": 2658,
      "unci": 2659,
      "unsur": 2660,
      "kema": 2661,
      "keber": 2662,
      "keku": 2663,
      "kepa": 2664,
      "kega": 2665,
      "kedu": 2666,
      "kegi": 2667,
      "keaman": 2668,
      "kece": 2669,
      "keten": 2670,
      "kelih": 2671,
      "keyakin": 2672,
      "kecan": 2673,
      "kemuka": 2674,
      "kepri": 2675,
      "kepadanya": 2676,
      "kelahi": 2677,
      "kediaman": 2678,
      "ember": 2679,
      "embara": 2680,
      "bere": 2681,
      "berban": 2682,
      "berjan": 2683,
      "berwar": 2684,
      "bertem": 2685,
      "berterus": 2686,
      "bersyarat": 2687,
      "berbakat": 2688,
      "berkorban": 2689,
      "berkeca": 2690,
      "bersaing": 2691,
      "berjum": 2692,
      "bersetuju": 2693,
      "berdasar": 2694,
      "bertaraf": 2695,
      "berasingan": 2696,
      "berkeku": 2697,
      "sit": 2698,
      "siar": 2699,
      "siang": 2700,
      "siam": 2701,
      "sion": 2702,
      "siji": 2703,
      "sikal": 2704,
      "aldo": 2705,
      "alhada": 2706,
      "perlis": 2707,
      "perlum": 2708,
      "peros": 2709,
      "permula": 2710,
      "permain": 2711,
      "pereka": 2712,
      "perlin": 2713,
      "perkhid": 2714,
      "perkenal": 2715,
      "perunci": 2716,
      "ami": 2717,
      "amar": 2718,
      "ampas": 2719,
      "amel": 2720,
      "ambang": 2721,
      "ampuan": 2722,
      "amir": 2723,
      "ambut": 2724,
      "ambilan": 2725,
      "tut": 2726,
      "turu": 2727,
      "tugal": 2728,
      "tugas": 2729,
      "tumbu": 2730,
      "tuanku": 2731,
      "akkan": 2732,
      "akhan": 2733,
      "kup": 2734,
      "kuda": 2735,
      "kuatkan": 2736,
      "kubur": 2737,
      "leka": 2738,
      "lest": 2739,
      "lemak": 2740,
      "luahan": 2741,
      "luaskan": 2742,
      "terci": 2743,
      "terjadi": 2744,
      "terso": 2745,
      "terdekat": 2746,
      "terinya": 2747,
      "terpendek": 2748,
      "tergug": 2749,
      "terkawal": 2750,
      "terkorban": 2751,
      "tih": 2752,
      "tiang": 2753,
      "tika": 2754,
      "tiba": 2755,
      "tiara": 2756,
      "tihan": 2757,
      "tifnya": 2758,
      "titut": 2759,
      "penung": 2760,
      "penca": 2761,
      "pendakwa": 2762,
      "pendudu": 2763,
      "pendiri": 2764,
      "penahan": 2765,
      "pencen": 2766,
      "penjara": 2767,
      "pendaftaran": 2768,
      "lian": 2769,
      "lipi": 2770,
      "live": 2771,
      "liot": 2772,
      "ligat": 2773,
      "tap": 2774,
      "tapi": 2775,
      "taian": 2776,
      "tapak": 2777,
      "tafa": 2778,
      "tagram": 2779,
      "pau": 2780,
      "pawa": 2781,
      "pagar": 2782,
      "one": 2783,
      "ongan": 2784,
      "onim": 2785,
      "onlin": 2786,
      "urangkan": 2787,
      "yaan": 2788,
      "orangan": 2789,
      "kap": 2790,
      "kaun": 2791,
      "kapal": 2792,
      "kapak": 2793,
      "kajian": 2794,
      "kapkan": 2795,
      "gakan": 2796,
      "buil": 2797,
      "bujang": 2798,
      "bukti": 2799,
      "jaannya": 2800,
      "ariff": 2801,
      "baitu": 2802,
      "bado": 2803,
      "bawah": 2804,
      "balas": 2805,
      "besu": 2806,
      "beban": 2807,
      "bedahan": 2808,
      "belajar": 2809,
      "pelang": 2810,
      "pesara": 2811,
      "petir": 2812,
      "pemal": 2813,
      "pemenang": 2814,
      "pemaka": 2815,
      "pelumba": 2816,
      "salah": 2817,
      "saint": 2818,
      "sabado": 2819,
      "arai": 2820,
      "lampau": 2821,
      "bis": 2822,
      "biada": 2823,
      "bisan": 2824,
      "biasa": 2825,
      "bimbang": 2826,
      "mega": 2827,
      "medan": 2828,
      "melapor": 2829,
      "meyakin": 2830,
      "mewah": 2831,
      "memenang": 2832,
      "melaka": 2833,
      "membang": 2834,
      "memboleh": 2835,
      "memburu": 2836,
      "membenarkan": 2837,
      "membincangkan": 2838,
      "memusnah": 2839,
      "membida": 2840,
      "duh": 2841,
      "duit": 2842,
      "gih": 2843,
      "gir": 2844,
      "mpang": 2845,
      "mpatan": 2846,
      "mpukan": 2847,
      "hala": 2848,
      "haba": 2849,
      "hawari": 2850,
      "hakemal": 2851,
      "hadif": 2852,
      "isfera": 2853,
      "isterinya": 2854,
      "menges": 2855,
      "mengarah": 2856,
      "menghal": 2857,
      "menghantar": 2858,
      "mengkebang": 2859,
      "menggugurkan": 2860,
      "mengundi": 2861,
      "menghang": 2862,
      "mengatasi": 2863,
      "mengurangkan": 2864,
      "mudah": 2865,
      "muzi": 2866,
      "muzik": 2867,
      "mutiara": 2868,
      "raga": 2869,
      "raja": 2870,
      "rapi": 2871,
      "rajin": 2872,
      "raub": 2873,
      "raine": 2874,
      "england": 2875,
      "engkapkan": 2876,
      "kitan": 2877,
      "kiri": 2878,
      "piast": 2879,
      "pasangan": 2880,
      "tel": 2881,
      "tegu": 2882,
      "tebal": 2883,
      "teliti": 2884,
      "tekn": 2885,
      "suan": 2886,
      "suhan": 2887,
      "suci": 2888,
      "sumb": 2889,
      "suami": 2890,
      "untut": 2891,
      "ikh": 2892,
      "ikot": 2893,
      "penggen": 2894,
      "pengarah": 2895,
      "penghor": 2896,
      "penghantaran": 2897,
      "pengganti": 2898,
      "penggemp": 2899,
      "pengembara": 2900,
      "pengambilan": 2901,
      "defi": 2902,
      "demam": 2903,
      "jualan": 2904,
      "julai": 2905,
      "julung": 2906,
      "juato": 2907,
      "lando": 2908,
      "lanjut": 2909,
      "tanya": 2910,
      "tanaman": 2911,
      "tanding": 2912,
      "hilal": 2913,
      "hannah": 2914,
      "untukkan": 2915,
      "kers": 2916,
      "kering": 2917,
      "keresahan": 2918,
      "pula": 2919,
      "puteri": 2920,
      "pulari": 2921,
      "putih": 2922,
      "pujaannya": 2923,
      "mahathir": 2924,
      "pembaharu": 2925,
      "pemeta": 2926,
      "pemangsa": 2927,
      "pemuda": 2928,
      "peminat": 2929,
      "pembedahan": 2930,
      "ruang": 2931,
      "rusia": 2932,
      "rumin": 2933,
      "rutin": 2934,
      "seram": 2935,
      "serbuan": 2936,
      "serantau": 2937,
      "kovi": 2938,
      "komuni": 2939,
      "ree": 2940,
      "reka": 2941,
      "retari": 2942,
      "rehat": 2943,
      "elps": 2944,
      "elliot": 2945,
      "pokok": 2946,
      "populari": 2947,
      "bangkit": 2948,
      "bangkok": 2949,
      "atase": 2950,
      "itud": 2951,
      "aruzaman": 2952,
      "ribu": 2953,
      "ribut": 2954,
      "pantang": 2955,
      "atuddin": 2956,
      "boikot": 2957,
      "syat": 2958,
      "syamel": 2959,
      "harimau": 2960,
      "bahru": 2961,
      "mitan": 2962,
      "caj": 2963,
      "cabang": 2964,
      "mana": 2965,
      "rok": 2966,
      "rock": 2967,
      "senat": 2968,
      "senang": 2969,
      "senarai": 2970,
      "guana": 2971,
      "waji": 2972,
      "stpm": 2973,
      "stment": 2974,
      "strok": 2975,
      "diaz": 2976,
      "diadakan": 2977,
      "ologi": 2978,
      "port": 2979,
      "portugal": 2980,
      "china": 2981,
      "chatka": 2982,
      "ranau": 2983,
      "rantau": 2984,
      "rancang": 2985,
      "rantaian": 2986,
      "kontin": 2987,
      "rm4": 2988,
      "rm40": 2989,
      "rm25": 2990,
      "uttar": 2991,
      "kenhaus": 2992,
      "merai": 2993,
      "merupa": 2994,
      "merampas": 2995,
      "jikan": 2996,
      "jiwa": 2997,
      "dahsyat": 2998,
      "akiman": 2999,
      "hamed": 3000,
      "james": 3001,
      "santai": 3002,
      "atipso": 3003,
      "get": 3004,
      "gedi": 3005,
      "geland": 3006,
      "getir": 3007,
      "asap": 3008,
      "genius": 3009,
      "oscar": 3010,
      "masak": 3011,
      "masjid": 3012,
      "menyifatkan": 3013,
      "menyasarkan": 3014,
      "menyambut": 3015,
      "tahanan": 3016,
      "jarbaru": 3017,
      "hadapan": 3018,
      "longkang": 3019,
      "vientian": 3020,
      "cir": 3021,
      "cimb": 3022,
      "katia": 3023,
      "jadikan": 3024,
      "ketiris": 3025,
      "laluan": 3026,
      "bendang": 3027,
      "bencana": 3028,
      "palmei": 3029,
      "sarsfield": 3030,
      "baling": 3031,
      "balqis": 3032,
      "hua": 3033,
      "tot": 3034,
      "tosikal": 3035,
      "tenggara": 3036,
      "ramli": 3037,
      "ramos": 3038,
      "penyokong": 3039,
      "cekup": 3040,
      "cebisan": 3041,
      "minta": 3042,
      "minster": 3043,
      "zaini": 3044,
      "zainuddin": 3045,
      "dof": 3046,
      "doba": 3047,
      "geran": 3048,
      "germain": 3049,
      "lot": 3050,
      "mohamed": 3051,
      "motosikal": 3052,
      "jejak": 3053,
      "jeid": 3054,
      "shin": 3055,
      "waskan": 3056,
      "tikal": 3057,
      "tikam": 3058,
      "pindah": 3059,
      "pintar": 3060,
      "pindaan": 3061,
      "souda": 3062,
      "sektor": 3063,
      "seksyen": 3064,
      "sekretari": 3065,
      "seminggu": 3066,
      "likasi": 3067,
      "memperkuat": 3068,
      "memperkuatkan": 3069,
      "2023": 3070,
      "8220": 3071,
      "8216": 3072,
      "8217": 3073,
      "barca": 3074,
      "barcelon": 3075,
      "jose": 3076,
      "jobe": 3077,
      "kamaruzaman": 3078,
      "kamchatka": 3079,
      "saraf": 3080,
      "tina": 3081,
      "tong": 3082,
      "masakan": 3083,
      "bekalan": 3084,
      "rasmus": 3085,
      "umur": 3086,
      "meningkat": 3087,
      "meningkatkan": 3088,
      "kesejah": 3089,
      "kesempatan": 3090,
      "ahad": 3091,
      "peratusan": 3092,
      "lihara": 3093,
      "membuka": 3094,
      "mengelak": 3095,
      "mengekang": 3096,
      "mengesyor": 3097,
      "depannya": 3098,
      "news": 3099,
      "nahas": 3100,
      "alif": 3101,
      "agenda": 3102,
      "haram": 3103,
      "proses": 3104,
      "protes": 3105,
      "diket": 3106,
      "apj": 3107,
      "apmm": 3108,
      "aplikasi": 3109,
      "cul": 3110,
      "cuba": 3111,
      "cukai": 3112,
      "ratik": 3113,
      "pengacara": 3114,
      "pengaudi": 3115,
      "urusan": 3116,
      "memberikan": 3117,
      "pdr": 3118,
      "ronas": 3119,
      "rondaan": 3120,
      "ronaldo": 3121,
      "tarik": 3122,
      "menurunkan": 3123,
      "persediaan": 3124,
      "persetujuan": 3125,
      "perseorangan": 3126,
      "taiwan": 3127,
      "billah": 3128,
      "marqu": 3129,
      "mengenal": 3130,
      "pihaknya": 3131,
      "mbor": 3132,
      "najmi": 3133,
      "rahsia": 3134,
      "raheem": 3135,
      "urans": 3136,
      "faedah": 3137,
      "fajarbaru": 3138,
      "heung": 3139,
      "mustafa": 3140,
      "tampak": 3141,
      "wangsa": 3142,
      "selor": 3143,
      "petros": 3144,
      "petronas": 3145,
      "memelihara": 3146,
      "memandang": 3147,
      "tegang": 3148,
      "sukar": 3149,
      "sukma": 3150,
      "rumput": 3151,
      "menyeluruh": 3152,
      "menyelesa": 3153,
      "hatinan": 3154,
      "kutuk": 3155,
      "ross": 3156,
      "kontraktor": 3157,
      "laksana": 3158,
      "fizikalnya": 3159,
      "batuk": 3160,
      "febru": 3161,
      "hobi": 3162,
      "hojl": 3163,
      "kl2040": 3164,
      "klcc": 3165,
      "kahwin": 3166,
      "lydia": 3167,
      "lywoo": 3168,
      "matthaus": 3169,
      "runding": 3170,
      "tragedi": 3171,
      "menyerah": 3172,
      "citaglobal": 3173,
      "pusan": 3174,
      "sahkan": 3175,
      "ukraine": 3176,
      "sepakat": 3177,
      "menambah": 3178,
      "akhirnya": 3179,
      "gianni": 3180,
      "hadkan": 3181,
      "hasina": 3182,
      "okratik": 3183,
      "salun": 3184,
      "saluran": 3185,
      "tasik": 3186,
      "tunis": 3187,
      "tunai": 3188,
      "inspirasi": 3189,
      "institut": 3190,
      "instagram": 3191,
      "insurans": 3192,
      "mengadili": 3193,
      "bulkan": 3194,
      "pengeks": 3195,
      "jumaat": 3196,
      "hilmi": 3197,
      "jangkauan": 3198,
      "petrol": 3199,
      "241": 3200,
      "288": 3201,
      "datang": 3202,
      "sungai": 3203,
      "sementara": 3204,
      "menamakan": 3205,
      "kelly": 3206,
      "ternak": 3207,
      "pelabur": 3208,
      "memilih": 3209,
      "summer": 3210,
      "pemansuhan": 3211,
      "pemerintah": 3212,
      "pemerhatian": 3213,
      "komited": 3214,
      "komision": 3215,
      "tiktokers": 3216,
      "1987": 3217,
      "cantik": 3218,
      "canselor": 3219,
      "dungan": 3220,
      "jpjeid": 3221,
      "muncul": 3222,
      "thinkcup": 3223,
      "ugutan": 3224,
      "antirasuah": 3225,
      "dihapuskan": 3226,
      "menumpukan": 3227,
      "menjejaskan": 3228,
      "tukar": 3229,
      "timur": 3230,
      "timbal": 3231,
      "peluang": 3232,
      "peluasan": 3233,
      "pelupusan": 3234,
      "mengemuka": 3235,
      "hidupnya": 3236,
      "ekstasi": 3237,
      "ekseku": 3238,
      "hollywoo": 3239,
      "impian": 3240,
      "mlff": 3241,
      "mlbb": 3242,
      "nombor": 3243,
      "pingat": 3244,
      "pinggir": 3245,
      "sprm": 3246,
      "sampah": 3247,
      "suria": 3248,
      "step": 3249,
      "tawarkan": 3250,
      "bella": 3251,
      "melihatnya": 3252,
      "meminta": 3253,
      "memindahkan": 3254,
      "istana": 3255,
      "desak": 3256,
      "kerumitan": 3257,
      "sentiasa": 3258,
      "sentimeter": 3259,
      "georgina": 3260,
      "tralia": 3261,
      "355": 3262,
      "bora": 3263,
      "fbg": 3264,
      "goncal": 3265,
      "harapan": 3266,
      "munich": 3267,
      "psg": 3268,
      "ptkl2040": 3269,
      "sinonim": 3270,
      "sindiket": 3271,
      "mendadak": 3272,
      "kebangkitan": 3273,
      "kecacatan": 3274,
      "kemalangan": 3275,
      "penumpang": 3276,
      "peningkatan": 3277,
      "isyarat": 3278,
      "telefon": 3279,
      "televisy": 3280,
      "jumlah": 3281,
      "komposer": 3282,
      "senior": 3283,
      "berisiko": 3284,
      "penyediaan": 3285,
      "bayern": 3286,
      "trend": 3287,
      "trenton": 3288,
      "bundarkan": 3289,
      "simpanannya": 3290,
      "florian": 3291,
      "florida": 3292,
      "afzan": 3293,
      "ayatuddin": 3294,
      "ekoran": 3295,
      "htaa": 3296,
      "khus": 3297,
      "kluang": 3298,
      "olahraga": 3299,
      "phelps": 3300,
      "rentas": 3301,
      "tng": 3302,
      "yuso": 3303,
      "lapang": 3304,
      "damba": 3305,
      "menyala": 3306,
      "asisten": 3307,
      "kehakiman": 3308,
      "kedai": 3309,
      "keletihan": 3310,
      "persidangan": 3311,
      "peringkat": 3312,
      "lutkenhaus": 3313,
      "terbiar": 3314,
      "komander": 3315,
      "resort": 3316,
      "charles": 3317,
      "ranking": 3318,
      "universiti": 3319,
      "tanggapan": 3320,
      "sheikh": 3321,
      "veteran": 3322,
      "marcus": 3323,
      "pelancong": 3324,
      "gangguan": 3325,
      "abdullah": 3326,
      "november": 3327,
      "youtube": 3328,
      "dijadualkan": 3329,
      "aqsa": 3330,
      "australia": 3331,
      "adegan": 3332,
      "brussels": 3333,
      "cordoba": 3334,
      "costa": 3335,
      "draf": 3336,
      "dolar": 3337,
      "dramatik": 3338,
      "djokovi": 3339,
      "dhaka": 3340,
      "dortmund": 3341,
      "epoel": 3342,
      "ecclest": 3343,
      "evenepoel": 3344,
      "fmf": 3345,
      "final": 3346,
      "fakir": 3347,
      "hemisfera": 3348,
      "ideal": 3349,
      "imanol": 3350,
      "itzel": 3351,
      "icrc": 3352,
      "jalil": 3353,
      "kwsp": 3354,
      "kyo": 3355,
      "kisah": 3356,
      "lmaqdis": 3357,
      "maruah": 3358,
      "naratif": 3359,
      "ngumoha": 3360,
      "pppr": 3361,
      "quick": 3362,
      "ringgit": 3363,
      "syabu": 3364,
      "sakit": 3365,
      "scammer": 3366,
      "sunderland": 3367,
      "thomas": 3368,
      "wolff": 3369,
      "willian": 3370,
      "westminster": 3371,
      "xinhua": 3372,
      "yunus": 3373,
      "zharfan": 3374,
      "zulhilmi": 3375,
      "zepp": 3376,
      "anugerah": 3377,
      "arakat": 3378,
      "argentina": 3379,
      "laketown": 3380,
      "investment": 3381,
      "industri": 3382,
      "disebabkan": 3383,
      "dirampas": 3384,
      "dihargai": 3385,
      "dipengaruhi": 3386,
      "disiplin": 3387,
      "ditunggang": 3388,
      "dilahirkan": 3389,
      "sepeket": 3390,
      "seismik": 3391,
      "semua": 3392,
      "sesuatu": 3393,
      "selaras": 3394,
      "seharusnya": 3395,
      "sebayanya": 3396,
      "setakat": 3397,
      "segamat": 3398,
      "sebahagian": 3399,
      "masyarakat": 3400,
      "maguire": 3401,
      "magnitud": 3402,
      "menemui": 3403,
      "menengah": 3404,
      "menjayakan": 3405,
      "menawarkan": 3406,
      "menimbulkan": 3407,
      "menepis": 3408,
      "mendatangkan": 3409,
      "menandatangani": 3410,
      "meneruskan": 3411,
      "kepala": 3412,
      "kegagalan": 3413,
      "kedutaan": 3414,
      "kegiatan": 3415,
      "keamanan": 3416,
      "ketenteraan": 3417,
      "kelihatan": 3418,
      "keyakinan": 3419,
      "kecantikan": 3420,
      "keprihatinan": 3421,
      "kelahiran": 3422,
      "berbanding": 3423,
      "berjanji": 3424,
      "berwarna": 3425,
      "bertembung": 3426,
      "berterusan": 3427,
      "berkecai": 3428,
      "berjumpa": 3429,
      "berdasarkan": 3430,
      "berkekuatan": 3431,
      "sijil": 3432,
      "alhadad": 3433,
      "perlumbaan": 3434,
      "perosak": 3435,
      "permulaan": 3436,
      "permainan": 3437,
      "perlindungan": 3438,
      "perkhidmatan": 3439,
      "peruncit": 3440,
      "turut": 3441,
      "tumbuh": 3442,
      "akhand": 3443,
      "tercicir": 3444,
      "tersohor": 3445,
      "tergugat": 3446,
      "penunggang": 3447,
      "pencapaian": 3448,
      "pendudukan": 3449,
      "pendirian": 3450,
      "penahanan": 3451,
      "lipid": 3452,
      "pawagam": 3453,
      "online": 3454,
      "builder": 3455,
      "ariffin": 3456,
      "baitulmaqdis": 3457,
      "besut": 3458,
      "bebankan": 3459,
      "pelanggaran": 3460,
      "pemalsuan": 3461,
      "pemakaian": 3462,
      "biadab": 3463,
      "melaporkan": 3464,
      "meyakinkan": 3465,
      "memenangi": 3466,
      "membanggakan": 3467,
      "memusnahkannya": 3468,
      "mengesahkan": 3469,
      "mengarahkan": 3470,
      "menghalang": 3471,
      "menghangatkan": 3472,
      "muzium": 3473,
      "piastri": 3474,
      "sumbangan": 3475,
      "penggenapan": 3476,
      "penghormatan": 3477,
      "penggempur": 3478,
      "defisit": 3479,
      "pembaharuan": 3480,
      "pemetaan": 3481,
      "ruminan": 3482,
      "komuniti": 3483,
      "elliott": 3484,
      "populariti": 3485,
      "guanajuato": 3486,
      "kontinjen": 3487,
      "uttarakhand": 3488,
      "meraih": 3489,
      "merupakan": 3490,
      "atipsom": 3491,
      "gelandangan": 3492,
      "vientiane": 3493,
      "ketirisan": 3494,
      "palmeiras": 3495,
      "soudal": 3496,
      "sekretariat": 3497,
      "barcelona": 3498,
      "kesejahteraan": 3499,
      "mengesyorkan": 3500,
      "pengauditan": 3501,
      "marquez": 3502,
      "menyelesaikan": 3503,
      "februari": 3504,
      "hojlund": 3505,
      "pengeksport": 3506,
      "komisioner": 3507,
      "mengemukakan": 3508,
      "eksekutifnya": 3509,
      "hollywood": 3510,
      "goncalo": 3511,
      "televisyen": 3512,
      "djokovic": 3513,
      "ecclestone": 3514
    },
    "merges": [
      [
        "a",
        "n"
      ],
      [
        "e",
        "r"
      ],
      [
        "e",
        "n"
      ],
      [
        "a",
        "r"
      ],
      [
        "l",
        "a"
      ],
      [
        "i",
        "n"
      ],
      [
        "a",
        "t"
      ],
      [
        "d",
        "i"
      ],
      [
        "an",
        "g"
      ],
      [
        "s",
        "e"
      ],
      [
        "m",
        "a"
      ],
      [
        "k",
        "an"
      ],
      [
        "d",
        "a"
      ],
      [
        "m",
        "en"
      ],
      [
        "a",
        "s"
      ],
      [
        "u",
        "n"
      ],
      [
        "k",
        "e"
      ],
      [
        "a",
        "h"
      ],
      [
        "e",
        "m"
      ],
      [
        "b",
        "er"
      ],
      [
        "s",
        "i"
      ],
      [
        "a",
        "l"
      ],
      [
        "p",
        "er"
      ],
      [
        "a",
        "m"
      ],
      [
        "t",
        "u"
      ],
      [
        "a",
        "k"
      ],
      [
        "k",
        "u"
      ],
      [
        "l",
        "e"
      ],
      [
        "l",
        "u"
      ],
      [
        "t",
        "er"
      ],
      [
        "t",
        "i"
      ],
      [
        "p",
        "en"
      ],
      [
        "l",
        "i"
      ],
      [
        "t",
        "a"
      ],
      [
        "p",
        "a"
      ],
      [
        "in",
        "g"
      ],
      [
        "o",
        "n"
      ],
      [
        "u",
        "r"
      ],
      [
        "y",
        "a"
      ],
      [
        "o",
        "r"
      ],
      [
        "k",
        "a"
      ],
      [
        "g",
        "a"
      ],
      [
        "b",
        "u"
      ],
      [
        "j",
        "a"
      ],
      [
        "d",
        "an"
      ],
      [
        "ar",
        "i"
      ],
      [
        "b",
        "a"
      ],
      [
        "b",
        "e"
      ],
      [
        "p",
        "e"
      ],
      [
        "s",
        "a"
      ],
      [
        "y",
        "ang"
      ],
      [
        "u",
        "s"
      ],
      [
        "ar",
        "a"
      ],
      [
        "la",
        "m"
      ],
      [
        "b",
        "i"
      ],
      [
        "m",
        "e"
      ],
      [
        "m",
        "em"
      ],
      [
        "d",
        "u"
      ],
      [
        "g",
        "i"
      ],
      [
        "in",
        "i"
      ],
      [
        "m",
        "p"
      ],
      [
        "h",
        "a"
      ],
      [
        "i",
        "s"
      ],
      [
        "men",
        "g"
      ],
      [
        "m",
        "u"
      ],
      [
        "r",
        "a"
      ],
      [
        "pa",
        "da"
      ],
      [
        "en",
        "g"
      ],
      [
        "t",
        "ah"
      ],
      [
        "k",
        "i"
      ],
      [
        "p",
        "i"
      ],
      [
        "a",
        "la"
      ],
      [
        "p",
        "as"
      ],
      [
        "t",
        "e"
      ],
      [
        "s",
        "u"
      ],
      [
        "un",
        "tu"
      ],
      [
        "si",
        "a"
      ],
      [
        "at",
        "an"
      ],
      [
        "i",
        "k"
      ],
      [
        "pen",
        "g"
      ],
      [
        "d",
        "e"
      ],
      [
        "j",
        "u"
      ],
      [
        "l",
        "an"
      ],
      [
        "t",
        "an"
      ],
      [
        "un",
        "g"
      ],
      [
        "h",
        "i"
      ],
      [
        "h",
        "an"
      ],
      [
        "ang",
        "an"
      ],
      [
        "ku",
        "ala"
      ],
      [
        "untu",
        "k"
      ],
      [
        "k",
        "er"
      ],
      [
        "p",
        "u"
      ],
      [
        "ma",
        "h"
      ],
      [
        "p",
        "em"
      ],
      [
        "r",
        "u"
      ],
      [
        "s",
        "er"
      ],
      [
        "k",
        "o"
      ],
      [
        "r",
        "e"
      ],
      [
        "da",
        "lam"
      ],
      [
        "lu",
        "mp"
      ],
      [
        "lump",
        "ur"
      ],
      [
        "e",
        "l"
      ],
      [
        "i",
        "a"
      ],
      [
        "p",
        "o"
      ],
      [
        "da",
        "p"
      ],
      [
        "b",
        "ang"
      ],
      [
        "at",
        "a"
      ],
      [
        "b",
        "an"
      ],
      [
        "n",
        "e"
      ],
      [
        "i",
        "tu"
      ],
      [
        "ar",
        "u"
      ],
      [
        "n",
        "ya"
      ],
      [
        "d",
        "eng"
      ],
      [
        "deng",
        "an"
      ],
      [
        "la",
        "y"
      ],
      [
        "r",
        "i"
      ],
      [
        "p",
        "an"
      ],
      [
        "at",
        "u"
      ],
      [
        "b",
        "o"
      ],
      [
        "s",
        "y"
      ],
      [
        "h",
        "ari"
      ],
      [
        "da",
        "k"
      ],
      [
        "b",
        "ah"
      ],
      [
        "m",
        "i"
      ],
      [
        "c",
        "a"
      ],
      [
        "ar",
        "an"
      ],
      [
        "as",
        "i"
      ],
      [
        "m",
        "an"
      ],
      [
        "r",
        "o"
      ],
      [
        "s",
        "en"
      ],
      [
        "a",
        "kan"
      ],
      [
        "g",
        "u"
      ],
      [
        "i",
        "an"
      ],
      [
        "w",
        "a"
      ],
      [
        "la",
        "h"
      ],
      [
        "s",
        "t"
      ],
      [
        "di",
        "a"
      ],
      [
        "le",
        "bi"
      ],
      [
        "le",
        "pas"
      ],
      [
        "or",
        "ang"
      ],
      [
        "o",
        "l"
      ],
      [
        "p",
        "or"
      ],
      [
        "c",
        "h"
      ],
      [
        "tah",
        "un"
      ],
      [
        "r",
        "an"
      ],
      [
        "w",
        "an"
      ],
      [
        "se",
        "ma"
      ],
      [
        "k",
        "on"
      ],
      [
        "se",
        "lepas"
      ],
      [
        "ma",
        "lay"
      ],
      [
        "lebi",
        "h"
      ],
      [
        "a",
        "da"
      ],
      [
        "malay",
        "sia"
      ],
      [
        "0",
        "0"
      ],
      [
        "r",
        "m"
      ],
      [
        "u",
        "t"
      ],
      [
        "k",
        "en"
      ],
      [
        "m",
        "er"
      ],
      [
        "d",
        "ari"
      ],
      [
        "la",
        "por"
      ],
      [
        "j",
        "i"
      ],
      [
        "ber",
        "i"
      ],
      [
        "li",
        "s"
      ],
      [
        "da",
        "h"
      ],
      [
        "ak",
        "i"
      ],
      [
        "ne",
        "g"
      ],
      [
        "2",
        "0"
      ],
      [
        "d",
        "un"
      ],
      [
        "h",
        "am"
      ],
      [
        "j",
        "am"
      ],
      [
        "s",
        "an"
      ],
      [
        "at",
        "i"
      ],
      [
        "lu",
        "m"
      ],
      [
        "ga",
        "i"
      ],
      [
        "g",
        "e"
      ],
      [
        "as",
        "a"
      ],
      [
        "g",
        "en"
      ],
      [
        "o",
        "s"
      ],
      [
        "at",
        "kan"
      ],
      [
        "ma",
        "s"
      ],
      [
        "a",
        "pa"
      ],
      [
        "l",
        "ang"
      ],
      [
        "men",
        "y"
      ],
      [
        "ba",
        "gi"
      ],
      [
        "du",
        "a"
      ],
      [
        "dun",
        "ia"
      ],
      [
        "a",
        "i"
      ],
      [
        "d",
        "ar"
      ],
      [
        "f",
        "i"
      ],
      [
        "al",
        "an"
      ],
      [
        "ba",
        "gai"
      ],
      [
        "mu",
        "la"
      ],
      [
        "tah",
        "an"
      ],
      [
        "j",
        "ar"
      ],
      [
        "r",
        "ak"
      ],
      [
        "ha",
        "dap"
      ],
      [
        "l",
        "on"
      ],
      [
        "t",
        "al"
      ],
      [
        "v",
        "i"
      ],
      [
        "se",
        "orang"
      ],
      [
        "em",
        "p"
      ],
      [
        "sa",
        "ma"
      ],
      [
        "c",
        "i"
      ],
      [
        "k",
        "at"
      ],
      [
        "an",
        "t"
      ],
      [
        "ja",
        "di"
      ],
      [
        "ja",
        "ya"
      ],
      [
        "u",
        "kan"
      ],
      [
        "ma",
        "in"
      ],
      [
        "un",
        "i"
      ],
      [
        "ke",
        "ti"
      ],
      [
        "ter",
        "hadap"
      ],
      [
        "bah",
        "aru"
      ],
      [
        "er",
        "i"
      ],
      [
        "la",
        "lu"
      ],
      [
        "ke",
        "pada"
      ],
      [
        "ter",
        "i"
      ],
      [
        "b",
        "en"
      ],
      [
        "p",
        "al"
      ],
      [
        "s",
        "ar"
      ],
      [
        "la",
        "ki"
      ],
      [
        "le",
        "laki"
      ],
      [
        "ti",
        "dak"
      ],
      [
        "a",
        "an"
      ],
      [
        "b",
        "at"
      ],
      [
        "b",
        "al"
      ],
      [
        "d",
        "ang"
      ],
      [
        "d",
        "on"
      ],
      [
        "e",
        "s"
      ],
      [
        "h",
        "u"
      ],
      [
        "t",
        "ing"
      ],
      [
        "be",
        "li"
      ],
      [
        "ru",
        "mah"
      ],
      [
        "po",
        "lis"
      ],
      [
        "sema",
        "lam"
      ],
      [
        "k",
        "ata"
      ],
      [
        "t",
        "o"
      ],
      [
        "se",
        "bagai"
      ],
      [
        "am",
        "an"
      ],
      [
        "be",
        "lum"
      ],
      [
        "neg",
        "ara"
      ],
      [
        "h",
        "ing"
      ],
      [
        "s",
        "ini"
      ],
      [
        "t",
        "eng"
      ],
      [
        "y",
        "ak"
      ],
      [
        "ar",
        "kan"
      ],
      [
        "a",
        "ja"
      ],
      [
        "g",
        "un"
      ],
      [
        "r",
        "am"
      ],
      [
        "se",
        "bu"
      ],
      [
        "pen",
        "y"
      ],
      [
        "keti",
        "ka"
      ],
      [
        "c",
        "e"
      ],
      [
        "j",
        "alan"
      ],
      [
        "m",
        "in"
      ],
      [
        "r",
        "em"
      ],
      [
        "t",
        "ang"
      ],
      [
        "u",
        "h"
      ],
      [
        "z",
        "a"
      ],
      [
        "ta",
        "ma"
      ],
      [
        "be",
        "sar"
      ],
      [
        "dari",
        "pada"
      ],
      [
        "lon",
        "don"
      ],
      [
        "d",
        "o"
      ],
      [
        "g",
        "an"
      ],
      [
        "g",
        "er"
      ],
      [
        "k",
        "in"
      ],
      [
        "l",
        "o"
      ],
      [
        "m",
        "o"
      ],
      [
        "u",
        "sia"
      ],
      [
        "ur",
        "u"
      ],
      [
        "bu",
        "kan"
      ],
      [
        "ser",
        "ta"
      ],
      [
        "c",
        "ara"
      ],
      [
        "d",
        "atu"
      ],
      [
        "j",
        "e"
      ],
      [
        "n",
        "i"
      ],
      [
        "s",
        "h"
      ],
      [
        "s",
        "atu"
      ],
      [
        "w",
        "as"
      ],
      [
        "y",
        "at"
      ],
      [
        "ke",
        "m"
      ],
      [
        "ber",
        "sama"
      ],
      [
        "ti",
        "k"
      ],
      [
        "pe",
        "main"
      ],
      [
        "ha",
        "i"
      ],
      [
        "pas",
        "ukan"
      ],
      [
        "p",
        "in"
      ],
      [
        "s",
        "o"
      ],
      [
        "di",
        "tahan"
      ],
      [
        "se",
        "k"
      ],
      [
        "se",
        "m"
      ],
      [
        "un",
        "d"
      ],
      [
        "si",
        "h"
      ],
      [
        "ku",
        "asa"
      ],
      [
        "li",
        "k"
      ],
      [
        "dan",
        "a"
      ],
      [
        "mem",
        "per"
      ],
      [
        "te",
        "d"
      ],
      [
        "20",
        "2"
      ],
      [
        "emp",
        "at"
      ],
      [
        "ant",
        "ara"
      ],
      [
        "8",
        "2"
      ],
      [
        "b",
        "ar"
      ],
      [
        "b",
        "in"
      ],
      [
        "b",
        "ak"
      ],
      [
        "e",
        "ka"
      ],
      [
        "i",
        "l"
      ],
      [
        "j",
        "an"
      ],
      [
        "u",
        "mu"
      ],
      [
        "v",
        "er"
      ],
      [
        "w",
        "ar"
      ],
      [
        "at",
        "us"
      ],
      [
        "le",
        "h"
      ],
      [
        "ing",
        "an"
      ],
      [
        "is",
        "ra"
      ],
      [
        "ker",
        "aja"
      ],
      [
        "dak",
        "wa"
      ],
      [
        "datu",
        "k"
      ],
      [
        "isra",
        "el"
      ],
      [
        "keraja",
        "an"
      ],
      [
        "1",
        "3"
      ],
      [
        "c",
        "o"
      ],
      [
        "f",
        "or"
      ],
      [
        "j",
        "o"
      ],
      [
        "k",
        "am"
      ],
      [
        "p",
        "ak"
      ],
      [
        "s",
        "ara"
      ],
      [
        "t",
        "in"
      ],
      [
        "t",
        "on"
      ],
      [
        "an",
        "a"
      ],
      [
        "la",
        "b"
      ],
      [
        "ma",
        "sa"
      ],
      [
        "men",
        "jadi"
      ],
      [
        "per",
        "dana"
      ],
      [
        "be",
        "k"
      ],
      [
        "du",
        "du"
      ],
      [
        "ju",
        "ta"
      ],
      [
        "bang",
        "sa"
      ],
      [
        "ban",
        "tu"
      ],
      [
        "uni",
        "ted"
      ],
      [
        "&",
        "#"
      ],
      [
        "d",
        "en"
      ],
      [
        "g",
        "al"
      ],
      [
        "k",
        "ini"
      ],
      [
        "r",
        "as"
      ],
      [
        "u",
        "lan"
      ],
      [
        "u",
        "tama"
      ],
      [
        "la",
        "ku"
      ],
      [
        "di",
        "per"
      ],
      [
        "se",
        "la"
      ],
      [
        "se",
        "belum"
      ],
      [
        "ber",
        "apa"
      ],
      [
        "ku",
        "r"
      ],
      [
        "ur",
        "i"
      ],
      [
        "mer",
        "eka"
      ],
      [
        "ting",
        "gi"
      ],
      [
        "teng",
        "ah"
      ],
      [
        "1",
        "1"
      ],
      [
        "p",
        "ar"
      ],
      [
        "p",
        "un"
      ],
      [
        "p",
        "re"
      ],
      [
        "s",
        "us"
      ],
      [
        "t",
        "en"
      ],
      [
        "u",
        "m"
      ],
      [
        "w",
        "i"
      ],
      [
        "men",
        "ing"
      ],
      [
        "men",
        "teri"
      ],
      [
        "ke",
        "se"
      ],
      [
        "ah",
        "a"
      ],
      [
        "per",
        "lu"
      ],
      [
        "per",
        "atus"
      ],
      [
        "lu",
        "ar"
      ],
      [
        "li",
        "h"
      ],
      [
        "ga",
        "za"
      ],
      [
        "be",
        "berapa"
      ],
      [
        "mem",
        "bu"
      ],
      [
        "meng",
        "e"
      ],
      [
        "de",
        "pan"
      ],
      [
        "lan",
        "d"
      ],
      [
        "ata",
        "u"
      ],
      [
        "ne",
        "w"
      ],
      [
        "rm",
        "1"
      ],
      [
        "rak",
        "yat"
      ],
      [
        "hing",
        "ga"
      ],
      [
        "bek",
        "as"
      ],
      [
        "dudu",
        "k"
      ],
      [
        "a",
        "u"
      ],
      [
        "a",
        "w"
      ],
      [
        "c",
        "ah"
      ],
      [
        "h",
        "d"
      ],
      [
        "l",
        "ar"
      ],
      [
        "n",
        "ah"
      ],
      [
        "la",
        "i"
      ],
      [
        "la",
        "k"
      ],
      [
        "di",
        "ri"
      ],
      [
        "si",
        "m"
      ],
      [
        "al",
        "i"
      ],
      [
        "is",
        "u"
      ],
      [
        "ser",
        "i"
      ],
      [
        "aki",
        "bat"
      ],
      [
        "a",
        "gen"
      ],
      [
        "b",
        "atan"
      ],
      [
        "d",
        "er"
      ],
      [
        "h",
        "ar"
      ],
      [
        "h",
        "ak"
      ],
      [
        "p",
        "ro"
      ],
      [
        "t",
        "ar"
      ],
      [
        "di",
        "ke"
      ],
      [
        "se",
        "cara"
      ],
      [
        "men",
        "dap"
      ],
      [
        "si",
        "den"
      ],
      [
        "ba",
        "y"
      ],
      [
        "sa",
        "ya"
      ],
      [
        "bi",
        "la"
      ],
      [
        "ik",
        "al"
      ],
      [
        "ham",
        "pi"
      ],
      [
        "jam",
        "in"
      ],
      [
        "umu",
        "m"
      ],
      [
        "a",
        "p"
      ],
      [
        "b",
        "as"
      ],
      [
        "c",
        "u"
      ],
      [
        "i",
        "ta"
      ],
      [
        "r",
        "at"
      ],
      [
        "t",
        "em"
      ],
      [
        "u",
        "an"
      ],
      [
        "v",
        "e"
      ],
      [
        "ber",
        "a"
      ],
      [
        "ak",
        "si"
      ],
      [
        "ti",
        "kan"
      ],
      [
        "pen",
        "ga"
      ],
      [
        "ur",
        "us"
      ],
      [
        "ari",
        "kat"
      ],
      [
        "me",
        "dia"
      ],
      [
        "mem",
        "beri"
      ],
      [
        "sy",
        "arikat"
      ],
      [
        "apa",
        "bila"
      ],
      [
        "fi",
        "z"
      ],
      [
        "pre",
        "siden"
      ],
      [
        "i",
        "b"
      ],
      [
        "j",
        "en"
      ],
      [
        "j",
        "ang"
      ],
      [
        "p",
        "d"
      ],
      [
        "r",
        "on"
      ],
      [
        "t",
        "ak"
      ],
      [
        "t",
        "ari"
      ],
      [
        "er",
        "o"
      ],
      [
        "ar",
        "at"
      ],
      [
        "di",
        "l"
      ],
      [
        "di",
        "lapor"
      ],
      [
        "ma",
        "j"
      ],
      [
        "da",
        "kan"
      ],
      [
        "men",
        "ur"
      ],
      [
        "as",
        "t"
      ],
      [
        "ke",
        "dua"
      ],
      [
        "ah",
        "an"
      ],
      [
        "ber",
        "usia"
      ],
      [
        "per",
        "se"
      ],
      [
        "pen",
        "duduk"
      ],
      [
        "ta",
        "i"
      ],
      [
        "ta",
        "di"
      ],
      [
        "bi",
        "l"
      ],
      [
        "mu",
        "sim"
      ],
      [
        "wan",
        "ita"
      ],
      [
        "ni",
        "lai"
      ],
      [
        "mening",
        "gal"
      ],
      [
        "agen",
        "si"
      ],
      [
        "a",
        "lam"
      ],
      [
        "b",
        "aru"
      ],
      [
        "g",
        "ar"
      ],
      [
        "i",
        "m"
      ],
      [
        "j",
        "ung"
      ],
      [
        "m",
        "ar"
      ],
      [
        "p",
        "ung"
      ],
      [
        "r",
        "us"
      ],
      [
        "w",
        "ak"
      ],
      [
        "in",
        "a"
      ],
      [
        "di",
        "k"
      ],
      [
        "di",
        "dakwa"
      ],
      [
        "se",
        "mula"
      ],
      [
        "ma",
        "k"
      ],
      [
        "ke",
        "tu"
      ],
      [
        "ke",
        "lab"
      ],
      [
        "li",
        "ver"
      ],
      [
        "ka",
        "mah"
      ],
      [
        "us",
        "aha"
      ],
      [
        "meng",
        "en"
      ],
      [
        "ki",
        "ra"
      ],
      [
        "pi",
        "hak"
      ],
      [
        "peng",
        "aru"
      ],
      [
        "hi",
        "r"
      ],
      [
        "pu",
        "an"
      ],
      [
        "mah",
        "kamah"
      ],
      [
        "po",
        "ol"
      ],
      [
        "sema",
        "kin"
      ],
      [
        "gun",
        "a"
      ],
      [
        "82",
        "11"
      ],
      [
        "kur",
        "ang"
      ],
      [
        "liver",
        "pool"
      ],
      [
        ")",
        ","
      ],
      [
        ")",
        "."
      ],
      [
        "c",
        "ast"
      ],
      [
        "g",
        "el"
      ],
      [
        "i",
        "p"
      ],
      [
        "k",
        "ang"
      ],
      [
        "m",
        "b"
      ],
      [
        "n",
        "a"
      ],
      [
        "o",
        "g"
      ],
      [
        "r",
        "ah"
      ],
      [
        "r",
        "is"
      ],
      [
        "t",
        "r"
      ],
      [
        "t",
        "hai"
      ],
      [
        "an",
        "i"
      ],
      [
        "in",
        "di"
      ],
      [
        "ma",
        "ut"
      ],
      [
        "ma",
        "sih"
      ],
      [
        "ber",
        "mula"
      ],
      [
        "lu",
        "ru"
      ],
      [
        "ter",
        "a"
      ],
      [
        "ter",
        "sebu"
      ],
      [
        "ta",
        "u"
      ],
      [
        "pa",
        "gi"
      ],
      [
        "ur",
        "an"
      ],
      [
        "ka",
        "dar"
      ],
      [
        "bu",
        "ka"
      ],
      [
        "pe",
        "tal"
      ],
      [
        "te",
        "ta"
      ],
      [
        "su",
        "kan"
      ],
      [
        "de",
        "o"
      ],
      [
        "mah",
        "u"
      ],
      [
        "pem",
        "bang"
      ],
      [
        "bo",
        "ja"
      ],
      [
        "man",
        "ch"
      ],
      [
        "00",
        "0"
      ],
      [
        "neg",
        "eri"
      ],
      [
        "vi",
        "deo"
      ],
      [
        "es",
        "ter"
      ],
      [
        "sebu",
        "ah"
      ],
      [
        "rem",
        "an"
      ],
      [
        "kem",
        "boja"
      ],
      [
        "kam",
        "pung"
      ],
      [
        "laku",
        "kan"
      ],
      [
        "sus",
        "ulan"
      ],
      [
        "hampi",
        "r"
      ],
      [
        "menur",
        "ut"
      ],
      [
        "cast",
        "le"
      ],
      [
        "thai",
        "land"
      ],
      [
        "tersebu",
        "t"
      ],
      [
        "petal",
        "ing"
      ],
      [
        "manch",
        "ester"
      ],
      [
        "4",
        "4"
      ],
      [
        "c",
        "am"
      ],
      [
        "c",
        "angan"
      ],
      [
        "f",
        "a"
      ],
      [
        "g",
        "ol"
      ],
      [
        "h",
        "e"
      ],
      [
        "k",
        "or"
      ],
      [
        "m",
        "us"
      ],
      [
        "p",
        "m"
      ],
      [
        "t",
        "am"
      ],
      [
        "u",
        "si"
      ],
      [
        "w",
        "ang"
      ],
      [
        "y",
        "ah"
      ],
      [
        "an",
        "war"
      ],
      [
        "se",
        "l"
      ],
      [
        "se",
        "s"
      ],
      [
        "se",
        "ki"
      ],
      [
        "se",
        "dang"
      ],
      [
        "men",
        "j"
      ],
      [
        "si",
        "al"
      ],
      [
        "am",
        "eri"
      ],
      [
        "ter",
        "us"
      ],
      [
        "ti",
        "r"
      ],
      [
        "pen",
        "uh"
      ],
      [
        "pa",
        "dan"
      ],
      [
        "bu",
        "lan"
      ],
      [
        "pe",
        "t"
      ],
      [
        "mem",
        "e"
      ],
      [
        "mem",
        "an"
      ],
      [
        "mu",
        "da"
      ],
      [
        "te",
        "g"
      ],
      [
        "su",
        "k"
      ],
      [
        "ker",
        "ana"
      ],
      [
        "ru",
        "mp"
      ],
      [
        "meny",
        "e"
      ],
      [
        "vi",
        "du"
      ],
      [
        "bal",
        "ik"
      ],
      [
        "sh",
        "ah"
      ],
      [
        "tin",
        "dakan"
      ],
      [
        "new",
        "castle"
      ],
      [
        "mendap",
        "atkan"
      ],
      [
        "pengaru",
        "h"
      ],
      [
        "indi",
        "vidu"
      ],
      [
        "ameri",
        "ka"
      ],
      [
        "1",
        "0"
      ],
      [
        "4",
        "0"
      ],
      [
        "c",
        "ero"
      ],
      [
        "e",
        "ta"
      ],
      [
        "g",
        "ram"
      ],
      [
        "g",
        "uru"
      ],
      [
        "h",
        "at"
      ],
      [
        "l",
        "in"
      ],
      [
        "o",
        "leh"
      ],
      [
        "s",
        "kan"
      ],
      [
        "t",
        "rak"
      ],
      [
        "u",
        "l"
      ],
      [
        "z",
        "i"
      ],
      [
        "er",
        "usi"
      ],
      [
        "at",
        "as"
      ],
      [
        "se",
        "hingga"
      ],
      [
        "as",
        "atan"
      ],
      [
        "ke",
        "men"
      ],
      [
        "ber",
        "ken"
      ],
      [
        "si",
        "ti"
      ],
      [
        "si",
        "asatan"
      ],
      [
        "per",
        "nah"
      ],
      [
        "ku",
        "h"
      ],
      [
        "ku",
        "tu"
      ],
      [
        "li",
        "ga"
      ],
      [
        "ya",
        "i"
      ],
      [
        "ka",
        "was"
      ],
      [
        "su",
        "l"
      ],
      [
        "hi",
        "du"
      ],
      [
        "ker",
        "ja"
      ],
      [
        "ser",
        "angan"
      ],
      [
        "bo",
        "h"
      ],
      [
        "bo",
        "leh"
      ],
      [
        "ro",
        "s"
      ],
      [
        "kon",
        "trak"
      ],
      [
        "min",
        "yak"
      ],
      [
        "so",
        "sial"
      ],
      [
        "bak",
        "al"
      ],
      [
        "bantu",
        "an"
      ],
      [
        "lak",
        "san"
      ],
      [
        "fiz",
        "ikal"
      ],
      [
        "dilapor",
        "kan"
      ],
      [
        "mengen",
        "ai"
      ],
      [
        "og",
        "os"
      ],
      [
        "cero",
        "boh"
      ],
      [
        "berken",
        "aan"
      ],
      [
        "kawas",
        "an"
      ],
      [
        "9",
        "5"
      ],
      [
        "b",
        "atu"
      ],
      [
        "c",
        "ang"
      ],
      [
        "e",
        "p"
      ],
      [
        "f",
        "e"
      ],
      [
        "g",
        "am"
      ],
      [
        "h",
        "o"
      ],
      [
        "j",
        "ak"
      ],
      [
        "k",
        "l"
      ],
      [
        "k",
        "ah"
      ],
      [
        "l",
        "y"
      ],
      [
        "m",
        "at"
      ],
      [
        "p",
        "ah"
      ],
      [
        "r",
        "und"
      ],
      [
        "s",
        "ter"
      ],
      [
        "t",
        "or"
      ],
      [
        "t",
        "ra"
      ],
      [
        "t",
        "emp"
      ],
      [
        "t",
        "rump"
      ],
      [
        "an",
        "y"
      ],
      [
        "la",
        "u"
      ],
      [
        "la",
        "in"
      ],
      [
        "la",
        "ti"
      ],
      [
        "in",
        "c"
      ],
      [
        "in",
        "dia"
      ],
      [
        "di",
        "sy"
      ],
      [
        "ang",
        "at"
      ],
      [
        "ma",
        "i"
      ],
      [
        "ma",
        "ja"
      ],
      [
        "da",
        "ya"
      ],
      [
        "as",
        "kan"
      ],
      [
        "ke",
        "s"
      ],
      [
        "ke",
        "luar"
      ],
      [
        "tu",
        "ju"
      ],
      [
        "ti",
        "ga"
      ],
      [
        "li",
        "men"
      ],
      [
        "li",
        "on"
      ],
      [
        "pa",
        "i"
      ],
      [
        "ing",
        "gu"
      ],
      [
        "bu",
        "at"
      ],
      [
        "bu",
        "mi"
      ],
      [
        "pe",
        "lan"
      ],
      [
        "pe",
        "kerja"
      ],
      [
        "bi",
        "lion"
      ],
      [
        "is",
        "t"
      ],
      [
        "ra",
        "ya"
      ],
      [
        "ki",
        "t"
      ],
      [
        "pi",
        "ala"
      ],
      [
        "pu",
        "lu"
      ],
      [
        "pem",
        "i"
      ],
      [
        "pem",
        "pengaruh"
      ],
      [
        "re",
        "maja"
      ],
      [
        "ban",
        "ji"
      ],
      [
        "ban",
        "yak"
      ],
      [
        "bah",
        "a"
      ],
      [
        "dah",
        "kan"
      ],
      [
        "ati",
        "f"
      ],
      [
        "mas",
        "ing"
      ],
      [
        "meny",
        "er"
      ],
      [
        "ci",
        "ta"
      ],
      [
        "ben",
        "jamin"
      ],
      [
        "hai",
        "wan"
      ],
      [
        "202",
        "5"
      ],
      [
        "par",
        "limen"
      ],
      [
        "tari",
        "f"
      ],
      [
        "ses",
        "ko"
      ],
      [
        "temp",
        "atan"
      ],
      [
        "disy",
        "aki"
      ],
      [
        "keluar",
        "ga"
      ],
      [
        "banji",
        "r"
      ],
      [
        "1",
        "6"
      ],
      [
        "8",
        "0"
      ],
      [
        "a",
        "d"
      ],
      [
        "b",
        "kan"
      ],
      [
        "b",
        "un"
      ],
      [
        "e",
        "gi"
      ],
      [
        "e",
        "st"
      ],
      [
        "e",
        "mas"
      ],
      [
        "g",
        "ang"
      ],
      [
        "h",
        "asi"
      ],
      [
        "i",
        "r"
      ],
      [
        "j",
        "er"
      ],
      [
        "j",
        "ing"
      ],
      [
        "j",
        "ian"
      ],
      [
        "k",
        "13"
      ],
      [
        "o",
        "h"
      ],
      [
        "p",
        "us"
      ],
      [
        "s",
        "ah"
      ],
      [
        "u",
        "k"
      ],
      [
        "w",
        "al"
      ],
      [
        "ar",
        "ah"
      ],
      [
        "se",
        "pak"
      ],
      [
        "da",
        "han"
      ],
      [
        "men",
        "am"
      ],
      [
        "as",
        "an"
      ],
      [
        "ke",
        "sih"
      ],
      [
        "ke",
        "bangsa"
      ],
      [
        "ber",
        "ada"
      ],
      [
        "si",
        "st"
      ],
      [
        "per",
        "tu"
      ],
      [
        "am",
        "bil"
      ],
      [
        "ak",
        "hir"
      ],
      [
        "li",
        "han"
      ],
      [
        "on",
        "g"
      ],
      [
        "on",
        "al"
      ],
      [
        "ja",
        "uh"
      ],
      [
        "pe",
        "cah"
      ],
      [
        "sa",
        "ingan"
      ],
      [
        "mem",
        "ba"
      ],
      [
        "gi",
        "an"
      ],
      [
        "mp",
        "uan"
      ],
      [
        "ha",
        "d"
      ],
      [
        "ha",
        "da"
      ],
      [
        "meng",
        "u"
      ],
      [
        "meng",
        "umum"
      ],
      [
        "eng",
        "gan"
      ],
      [
        "pi",
        "lihan"
      ],
      [
        "de",
        "kat"
      ],
      [
        "ju",
        "ga"
      ],
      [
        "re",
        "t"
      ],
      [
        "ban",
        "dar"
      ],
      [
        "lay",
        "ah"
      ],
      [
        "pan",
        "as"
      ],
      [
        "sy",
        "en"
      ],
      [
        "st",
        "rat"
      ],
      [
        "kon",
        "g"
      ],
      [
        "ada",
        "lah"
      ],
      [
        "rm",
        "k13"
      ],
      [
        "lapor",
        "an"
      ],
      [
        "hing",
        "ton"
      ],
      [
        "was",
        "hington"
      ],
      [
        "bin",
        "tang"
      ],
      [
        "wi",
        "layah"
      ],
      [
        "bera",
        "dik"
      ],
      [
        "penga",
        "dil"
      ],
      [
        "ib",
        "rah"
      ],
      [
        "maj",
        "ist"
      ],
      [
        "rus",
        "sia"
      ],
      [
        "ketu",
        "a"
      ],
      [
        "pembang",
        "kang"
      ],
      [
        "hasi",
        "l"
      ],
      [
        "jer",
        "man"
      ],
      [
        "kesih",
        "atan"
      ],
      [
        "kebangsa",
        "an"
      ],
      [
        "mengumum",
        "kan"
      ],
      [
        "strat",
        "egi"
      ],
      [
        "ibrah",
        "im"
      ],
      [
        "majist",
        "ret"
      ],
      [
        "a",
        "bang"
      ],
      [
        "d",
        "ing"
      ],
      [
        "f",
        "f"
      ],
      [
        "h",
        "as"
      ],
      [
        "h",
        "or"
      ],
      [
        "i",
        "kan"
      ],
      [
        "k",
        "hi"
      ],
      [
        "l",
        "bagai"
      ],
      [
        "m",
        "uri"
      ],
      [
        "m",
        "inggu"
      ],
      [
        "o",
        "k"
      ],
      [
        "o",
        "ku"
      ],
      [
        "p",
        "ga"
      ],
      [
        "s",
        "al"
      ],
      [
        "s",
        "on"
      ],
      [
        "t",
        "as"
      ],
      [
        "t",
        "un"
      ],
      [
        "u",
        "i"
      ],
      [
        "u",
        "di"
      ],
      [
        "u",
        "pa"
      ],
      [
        "w",
        "angan"
      ],
      [
        "x",
        "pd"
      ],
      [
        "an",
        "an"
      ],
      [
        "an",
        "ak"
      ],
      [
        "er",
        "r"
      ],
      [
        "en",
        "tang"
      ],
      [
        "la",
        "wan"
      ],
      [
        "in",
        "s"
      ],
      [
        "in",
        "tir"
      ],
      [
        "se",
        "per"
      ],
      [
        "se",
        "lang"
      ],
      [
        "se",
        "jar"
      ],
      [
        "se",
        "gel"
      ],
      [
        "se",
        "jak"
      ],
      [
        "ma",
        "kan"
      ],
      [
        "ma",
        "lam"
      ],
      [
        "men",
        "e"
      ],
      [
        "men",
        "ga"
      ],
      [
        "men",
        "entang"
      ],
      [
        "ke",
        "wangan"
      ],
      [
        "ah",
        "li"
      ],
      [
        "tu",
        "lar"
      ],
      [
        "tu",
        "mpuan"
      ],
      [
        "ku",
        "l"
      ],
      [
        "ku",
        "t"
      ],
      [
        "le",
        "gen"
      ],
      [
        "le",
        "ip"
      ],
      [
        "ter",
        "ian"
      ],
      [
        "ing",
        "ger"
      ],
      [
        "ka",
        "i"
      ],
      [
        "bu",
        "l"
      ],
      [
        "ja",
        "batan"
      ],
      [
        "pe",
        "k"
      ],
      [
        "pe",
        "lbagai"
      ],
      [
        "ara",
        "an"
      ],
      [
        "bi",
        "t"
      ],
      [
        "me",
        "lakukan"
      ],
      [
        "mem",
        "beli"
      ],
      [
        "ki",
        "lo"
      ],
      [
        "su",
        "al"
      ],
      [
        "peng",
        "e"
      ],
      [
        "peng",
        "guna"
      ],
      [
        "de",
        "wan"
      ],
      [
        "ju",
        "ma"
      ],
      [
        "tan",
        "ah"
      ],
      [
        "tan",
        "pa"
      ],
      [
        "hi",
        "l"
      ],
      [
        "ker",
        "eta"
      ],
      [
        "pu",
        "kul"
      ],
      [
        "el",
        "ang"
      ],
      [
        "sy",
        "arat"
      ],
      [
        "ca",
        "yai"
      ],
      [
        "ca",
        "pai"
      ],
      [
        "ran",
        "cangan"
      ],
      [
        "ken",
        "der"
      ],
      [
        "20",
        "40"
      ],
      [
        "ge",
        "sa"
      ],
      [
        "dar",
        "ah"
      ],
      [
        "hu",
        "jung"
      ],
      [
        "peny",
        "er"
      ],
      [
        "sek",
        "sual"
      ],
      [
        "sem",
        "padan"
      ],
      [
        "ras",
        "mi"
      ],
      [
        "diper",
        "cayai"
      ],
      [
        "membu",
        "at"
      ],
      [
        "au",
        "di"
      ],
      [
        "jang",
        "ka"
      ],
      [
        "ron",
        "95"
      ],
      [
        "luru",
        "h"
      ],
      [
        "teta",
        "pi"
      ],
      [
        "menj",
        "elang"
      ],
      [
        "pet",
        "ro"
      ],
      [
        "zi",
        "g"
      ],
      [
        "kemen",
        "terian"
      ],
      [
        "rund",
        "ingan"
      ],
      [
        "baha",
        "wa"
      ],
      [
        "sist",
        "em"
      ],
      [
        "khi",
        "d"
      ],
      [
        "muri",
        "d"
      ],
      [
        "xpd",
        "c"
      ],
      [
        "seper",
        "ti"
      ],
      [
        "selang",
        "or"
      ],
      [
        "sejar",
        "ah"
      ],
      [
        "segel",
        "intir"
      ],
      [
        "leip",
        "zig"
      ],
      [
        "ingger",
        "is"
      ],
      [
        "kender",
        "aan"
      ],
      [
        "2",
        "4"
      ],
      [
        "2",
        "8"
      ],
      [
        "5",
        "0"
      ],
      [
        "9",
        "0"
      ],
      [
        "a",
        "se"
      ],
      [
        "a",
        "yah"
      ],
      [
        "b",
        "ung"
      ],
      [
        "c",
        "atan"
      ],
      [
        "d",
        "in"
      ],
      [
        "d",
        "at"
      ],
      [
        "d",
        "em"
      ],
      [
        "e",
        "le"
      ],
      [
        "f",
        "1"
      ],
      [
        "f",
        "lik"
      ],
      [
        "i",
        "bu"
      ],
      [
        "j",
        "ata"
      ],
      [
        "k",
        "al"
      ],
      [
        "l",
        "em"
      ],
      [
        "n",
        "or"
      ],
      [
        "n",
        "asi"
      ],
      [
        "o",
        "m"
      ],
      [
        "p",
        "k"
      ],
      [
        "p",
        "kan"
      ],
      [
        "p",
        "rem"
      ],
      [
        "r",
        "b"
      ],
      [
        "s",
        "un"
      ],
      [
        "s",
        "ri"
      ],
      [
        "t",
        "angan"
      ],
      [
        "an",
        "c"
      ],
      [
        "an",
        "tan"
      ],
      [
        "la",
        "gi"
      ],
      [
        "in",
        "tah"
      ],
      [
        "di",
        "beri"
      ],
      [
        "di",
        "tem"
      ],
      [
        "ang",
        "sa"
      ],
      [
        "se",
        "a"
      ],
      [
        "se",
        "men"
      ],
      [
        "se",
        "kadar"
      ],
      [
        "se",
        "banyak"
      ],
      [
        "ma",
        "l"
      ],
      [
        "ma",
        "suk"
      ],
      [
        "kan",
        "ada"
      ],
      [
        "da",
        "li"
      ],
      [
        "men",
        "a"
      ],
      [
        "men",
        "eri"
      ],
      [
        "as",
        "ing"
      ],
      [
        "as",
        "ia"
      ],
      [
        "un",
        "dang"
      ],
      [
        "ke",
        "l"
      ],
      [
        "ke",
        "jo"
      ],
      [
        "ber",
        "jaya"
      ],
      [
        "ber",
        "kata"
      ],
      [
        "ber",
        "nilai"
      ],
      [
        "per",
        "untu"
      ],
      [
        "per",
        "tahan"
      ],
      [
        "per",
        "lawan"
      ],
      [
        "ak",
        "ti"
      ],
      [
        "ku",
        "at"
      ],
      [
        "ku",
        "tan"
      ],
      [
        "ku",
        "kuh"
      ],
      [
        "ku",
        "antan"
      ],
      [
        "lu",
        "arkan"
      ],
      [
        "ter",
        "n"
      ],
      [
        "ter",
        "ba"
      ],
      [
        "or",
        "t"
      ],
      [
        "bu",
        "t"
      ],
      [
        "bu",
        "kit"
      ],
      [
        "ba",
        "bkan"
      ],
      [
        "pe",
        "la"
      ],
      [
        "pe",
        "lab"
      ],
      [
        "me",
        "ma"
      ],
      [
        "me",
        "lang"
      ],
      [
        "mem",
        "i"
      ],
      [
        "du",
        "han"
      ],
      [
        "gi",
        "kut"
      ],
      [
        "ra",
        "z"
      ],
      [
        "ra",
        "mai"
      ],
      [
        "pi",
        "l"
      ],
      [
        "pas",
        "an"
      ],
      [
        "su",
        "m"
      ],
      [
        "peng",
        "urus"
      ],
      [
        "de",
        "k"
      ],
      [
        "han",
        "an"
      ],
      [
        "han",
        "ya"
      ],
      [
        "pu",
        "tra"
      ],
      [
        "pem",
        "an"
      ],
      [
        "pem",
        "er"
      ],
      [
        "ko",
        "d"
      ],
      [
        "ko",
        "mi"
      ],
      [
        "re",
        "kod"
      ],
      [
        "el",
        "sea"
      ],
      [
        "dap",
        "at"
      ],
      [
        "bo",
        "la"
      ],
      [
        "sen",
        "jata"
      ],
      [
        "ch",
        "elsea"
      ],
      [
        "kon",
        "flik"
      ],
      [
        "ken",
        "al"
      ],
      [
        "beri",
        "ta"
      ],
      [
        "lon",
        "i"
      ],
      [
        "pal",
        "su"
      ],
      [
        "pal",
        "est"
      ],
      [
        "beli",
        "au"
      ],
      [
        "yak",
        "in"
      ],
      [
        "tik",
        "to"
      ],
      [
        "202",
        "6"
      ],
      [
        "antara",
        "bangsa"
      ],
      [
        "sela",
        "ma"
      ],
      [
        "lih",
        "at"
      ],
      [
        "aw",
        "al"
      ],
      [
        "bay",
        "aran"
      ],
      [
        "mak",
        "lum"
      ],
      [
        "pulu",
        "h"
      ],
      [
        "menyer",
        "tai"
      ],
      [
        "hada",
        "pi"
      ],
      [
        "kong",
        "si"
      ],
      [
        "legen",
        "da"
      ],
      [
        "penyer",
        "ang"
      ],
      [
        "prem",
        "i"
      ],
      [
        "ditem",
        "ukan"
      ],
      [
        "meneri",
        "ma"
      ],
      [
        "kejo",
        "hanan"
      ],
      [
        "peruntu",
        "kan"
      ],
      [
        "perlawan",
        "an"
      ],
      [
        "palest",
        "in"
      ],
      [
        "0",
        "4"
      ],
      [
        "1",
        "9"
      ],
      [
        "8",
        "44"
      ],
      [
        "b",
        "si"
      ],
      [
        "b",
        "ri"
      ],
      [
        "b",
        "hd"
      ],
      [
        "b",
        "raz"
      ],
      [
        "c",
        "c"
      ],
      [
        "c",
        "an"
      ],
      [
        "c",
        "uri"
      ],
      [
        "d",
        "r"
      ],
      [
        "d",
        "ung"
      ],
      [
        "d",
        "angan"
      ],
      [
        "g",
        "o"
      ],
      [
        "g",
        "ara"
      ],
      [
        "h",
        "ati"
      ],
      [
        "h",
        "os"
      ],
      [
        "i",
        "co"
      ],
      [
        "i",
        "jing"
      ],
      [
        "j",
        "p"
      ],
      [
        "j",
        "asa"
      ],
      [
        "k",
        "ali"
      ],
      [
        "l",
        "ing"
      ],
      [
        "m",
        "un"
      ],
      [
        "n",
        "in"
      ],
      [
        "p",
        "r"
      ],
      [
        "s",
        "b"
      ],
      [
        "t",
        "h"
      ],
      [
        "t",
        "y"
      ],
      [
        "t",
        "z"
      ],
      [
        "u",
        "at"
      ],
      [
        "u",
        "gu"
      ],
      [
        "w",
        "ari"
      ],
      [
        "w",
        "atan"
      ],
      [
        "x",
        "ico"
      ],
      [
        "y",
        "ar"
      ],
      [
        "y",
        "ata"
      ],
      [
        "an",
        "ti"
      ],
      [
        "la",
        "ya"
      ],
      [
        "la",
        "pan"
      ],
      [
        "in",
        "ya"
      ],
      [
        "di",
        "ha"
      ],
      [
        "di",
        "ra"
      ],
      [
        "di",
        "reman"
      ],
      [
        "se",
        "dia"
      ],
      [
        "se",
        "jam"
      ],
      [
        "se",
        "penuh"
      ],
      [
        "se",
        "luruh"
      ],
      [
        "ma",
        "lah"
      ],
      [
        "da",
        "dah"
      ],
      [
        "men",
        "u"
      ],
      [
        "men",
        "je"
      ],
      [
        "men",
        "erusi"
      ],
      [
        "men",
        "ceroboh"
      ],
      [
        "men",
        "capai"
      ],
      [
        "as",
        "aran"
      ],
      [
        "un",
        "an"
      ],
      [
        "ke",
        "j"
      ],
      [
        "ber",
        "usaha"
      ],
      [
        "si",
        "f"
      ],
      [
        "si",
        "p"
      ],
      [
        "al",
        "lah"
      ],
      [
        "per",
        "ang"
      ],
      [
        "per",
        "tama"
      ],
      [
        "per",
        "pin"
      ],
      [
        "per",
        "jan"
      ],
      [
        "am",
        "aran"
      ],
      [
        "tu",
        "k"
      ],
      [
        "ku",
        "mp"
      ],
      [
        "ku",
        "ch"
      ],
      [
        "ter",
        "enggan"
      ],
      [
        "ti",
        "m"
      ],
      [
        "pen",
        "i"
      ],
      [
        "pen",
        "ting"
      ],
      [
        "pen",
        "dek"
      ],
      [
        "li",
        "ti"
      ],
      [
        "li",
        "ki"
      ],
      [
        "ba",
        "an"
      ],
      [
        "ba",
        "yang"
      ],
      [
        "ba",
        "ik"
      ],
      [
        "be",
        "ijing"
      ],
      [
        "pe",
        "lu"
      ],
      [
        "bi",
        "lan"
      ],
      [
        "me",
        "ter"
      ],
      [
        "me",
        "tal"
      ],
      [
        "me",
        "xico"
      ],
      [
        "mem",
        "bantu"
      ],
      [
        "is",
        "teri"
      ],
      [
        "is",
        "nin"
      ],
      [
        "meng",
        "em"
      ],
      [
        "mu",
        "ka"
      ],
      [
        "pi",
        "tal"
      ],
      [
        "te",
        "s"
      ],
      [
        "te",
        "lah"
      ],
      [
        "su",
        "bsi"
      ],
      [
        "hi",
        "ma"
      ],
      [
        "hi",
        "ros"
      ],
      [
        "ker",
        "jasa"
      ],
      [
        "pu",
        "tu"
      ],
      [
        "pu",
        "lau"
      ],
      [
        "el",
        "on"
      ],
      [
        "po",
        "h"
      ],
      [
        "dap",
        "ur"
      ],
      [
        "ban",
        "k"
      ],
      [
        "bo",
        "t"
      ],
      [
        "mi",
        "lik"
      ],
      [
        "gu",
        "g"
      ],
      [
        "ut",
        "ara"
      ],
      [
        "ham",
        "il"
      ],
      [
        "jam",
        "batan"
      ],
      [
        "fi",
        "lem"
      ],
      [
        "tal",
        "ian"
      ],
      [
        "ant",
        "ung"
      ],
      [
        "pal",
        "oh"
      ],
      [
        "bal",
        "i"
      ],
      [
        "hu",
        "jan"
      ],
      [
        "teng",
        "ku"
      ],
      [
        "gun",
        "ung"
      ],
      [
        "min",
        "at"
      ],
      [
        "kem",
        "bali"
      ],
      [
        "bin",
        "cang"
      ],
      [
        "bak",
        "at"
      ],
      [
        "for",
        "d"
      ],
      [
        "diper",
        "daya"
      ],
      [
        "rm1",
        "04"
      ],
      [
        "har",
        "ga"
      ],
      [
        "dike",
        "luarkan"
      ],
      [
        "bera",
        "pi"
      ],
      [
        "maj",
        "lis"
      ],
      [
        "perse",
        "kutu"
      ],
      [
        "seki",
        "tar"
      ],
      [
        "meme",
        "tik"
      ],
      [
        "meman",
        "du"
      ],
      [
        "hat",
        "ian"
      ],
      [
        "siti",
        "f"
      ],
      [
        "sul",
        "tan"
      ],
      [
        "hidu",
        "p"
      ],
      [
        "ep",
        "l"
      ],
      [
        "pah",
        "ang"
      ],
      [
        "lati",
        "h"
      ],
      [
        "pemi",
        "lik"
      ],
      [
        "menam",
        "atkan"
      ],
      [
        "pertu",
        "duhan"
      ],
      [
        "strategi",
        "k"
      ],
      [
        "khid",
        "mat"
      ],
      [
        "ase",
        "an"
      ],
      [
        "dem",
        "i"
      ],
      [
        "nor",
        "ris"
      ],
      [
        "nasi",
        "onal"
      ],
      [
        "braz",
        "il"
      ],
      [
        "hos",
        "pital"
      ],
      [
        "yar",
        "ham"
      ],
      [
        "allah",
        "yarham"
      ],
      [
        "perpin",
        "dahan"
      ],
      [
        "perjan",
        "jian"
      ],
      [
        "kump",
        "ulan"
      ],
      [
        "kuch",
        "ing"
      ],
      [
        "terenggan",
        "u"
      ],
      [
        "subsi",
        "di"
      ],
      [
        "hiros",
        "hima"
      ],
      [
        "kerjasa",
        "ma"
      ],
      [
        "persekutu",
        "an"
      ],
      [
        "1",
        "2"
      ],
      [
        "3",
        "0"
      ],
      [
        "5",
        "00"
      ],
      [
        "a",
        "b"
      ],
      [
        "a",
        "ca"
      ],
      [
        "a",
        "jan"
      ],
      [
        "b",
        "b"
      ],
      [
        "b",
        "ur"
      ],
      [
        "b",
        "ari"
      ],
      [
        "b",
        "uru"
      ],
      [
        "c",
        "k"
      ],
      [
        "c",
        "en"
      ],
      [
        "c",
        "at"
      ],
      [
        "d",
        "bi"
      ],
      [
        "e",
        "k"
      ],
      [
        "e",
        "x"
      ],
      [
        "f",
        "an"
      ],
      [
        "f",
        "lo"
      ],
      [
        "g",
        "us"
      ],
      [
        "g",
        "re"
      ],
      [
        "g",
        "ro"
      ],
      [
        "h",
        "al"
      ],
      [
        "h",
        "ol"
      ],
      [
        "i",
        "mp"
      ],
      [
        "j",
        "as"
      ],
      [
        "j",
        "ur"
      ],
      [
        "k",
        "tikan"
      ],
      [
        "m",
        "c"
      ],
      [
        "m",
        "l"
      ],
      [
        "m",
        "atan"
      ],
      [
        "m",
        "angsa"
      ],
      [
        "n",
        "o"
      ],
      [
        "o",
        "o"
      ],
      [
        "o",
        "u"
      ],
      [
        "p",
        "ta"
      ],
      [
        "p",
        "ing"
      ],
      [
        "p",
        "ri"
      ],
      [
        "p",
        "arkan"
      ],
      [
        "s",
        "p"
      ],
      [
        "s",
        "am"
      ],
      [
        "s",
        "ku"
      ],
      [
        "s",
        "ing"
      ],
      [
        "s",
        "ur"
      ],
      [
        "s",
        "ki"
      ],
      [
        "s",
        "te"
      ],
      [
        "t",
        "ara"
      ],
      [
        "t",
        "ung"
      ],
      [
        "t",
        "aran"
      ],
      [
        "t",
        "empat"
      ],
      [
        "u",
        "lu"
      ],
      [
        "u",
        "arat"
      ],
      [
        "w",
        "ah"
      ],
      [
        "z",
        "ah"
      ],
      [
        "z",
        "aman"
      ],
      [
        "an",
        "jung"
      ],
      [
        "en",
        "am"
      ],
      [
        "en",
        "dali"
      ],
      [
        "di",
        "kan"
      ],
      [
        "ang",
        "go"
      ],
      [
        "se",
        "o"
      ],
      [
        "se",
        "ger"
      ],
      [
        "ma",
        "d"
      ],
      [
        "ma",
        "dan"
      ],
      [
        "ma",
        "ung"
      ],
      [
        "da",
        "an"
      ],
      [
        "men",
        "ang"
      ],
      [
        "men",
        "ari"
      ],
      [
        "men",
        "ci"
      ],
      [
        "men",
        "ce"
      ],
      [
        "ke",
        "ci"
      ],
      [
        "ke",
        "hidu"
      ],
      [
        "ke",
        "hil"
      ],
      [
        "ke",
        "kal"
      ],
      [
        "em",
        "pa"
      ],
      [
        "ber",
        "sara"
      ],
      [
        "ber",
        "laku"
      ],
      [
        "ber",
        "had"
      ],
      [
        "ber",
        "kai"
      ],
      [
        "si",
        "mp"
      ],
      [
        "per",
        "intah"
      ],
      [
        "le",
        "bat"
      ],
      [
        "ter",
        "buka"
      ],
      [
        "ter",
        "masuk"
      ],
      [
        "ti",
        "ada"
      ],
      [
        "pen",
        "ta"
      ],
      [
        "li",
        "ma"
      ],
      [
        "ta",
        "w"
      ],
      [
        "ur",
        "kan"
      ],
      [
        "ka",
        "la"
      ],
      [
        "ka",
        "wal"
      ],
      [
        "ga",
        "wa"
      ],
      [
        "ja",
        "bat"
      ],
      [
        "ja",
        "watan"
      ],
      [
        "be",
        "l"
      ],
      [
        "pe",
        "laksan"
      ],
      [
        "pe",
        "gawa"
      ],
      [
        "pe",
        "jabat"
      ],
      [
        "lam",
        "an"
      ],
      [
        "lam",
        "atan"
      ],
      [
        "bi",
        "a"
      ],
      [
        "me",
        "le"
      ],
      [
        "me",
        "sy"
      ],
      [
        "me",
        "lalu"
      ],
      [
        "me",
        "lihat"
      ],
      [
        "me",
        "ski"
      ],
      [
        "mem",
        "in"
      ],
      [
        "is",
        "tan"
      ],
      [
        "meng",
        "ha"
      ],
      [
        "meng",
        "gun"
      ],
      [
        "meng",
        "ambil"
      ],
      [
        "ra",
        "kan"
      ],
      [
        "sia",
        "p"
      ],
      [
        "peng",
        "umu"
      ],
      [
        "peng",
        "erusi"
      ],
      [
        "peng",
        "uat"
      ],
      [
        "peng",
        "endali"
      ],
      [
        "de",
        "s"
      ],
      [
        "tan",
        "yah"
      ],
      [
        "ung",
        "kin"
      ],
      [
        "hi",
        "lang"
      ],
      [
        "han",
        "tar"
      ],
      [
        "ker",
        "u"
      ],
      [
        "pu",
        "h"
      ],
      [
        "pem",
        "beli"
      ],
      [
        "pem",
        "buka"
      ],
      [
        "ko",
        "k"
      ],
      [
        "ko",
        "le"
      ],
      [
        "ko",
        "ta"
      ],
      [
        "el",
        "d"
      ],
      [
        "ia",
        "itu"
      ],
      [
        "po",
        "sitif"
      ],
      [
        "ne",
        "tanyah"
      ],
      [
        "bah",
        "an"
      ],
      [
        "sen",
        "ti"
      ],
      [
        "sen",
        "diri"
      ],
      [
        "wa",
        "jar"
      ],
      [
        "st",
        "asi"
      ],
      [
        "dia",
        "an"
      ],
      [
        "ran",
        "ya"
      ],
      [
        "sema",
        "sa"
      ],
      [
        "kon",
        "gan"
      ],
      [
        "ken",
        "yata"
      ],
      [
        "mer",
        "ah"
      ],
      [
        "ji",
        "ka"
      ],
      [
        "dah",
        "ulu"
      ],
      [
        "ge",
        "d"
      ],
      [
        "ge",
        "or"
      ],
      [
        "gen",
        "catan"
      ],
      [
        "ai",
        "r"
      ],
      [
        "fi",
        "eld"
      ],
      [
        "jar",
        "ing"
      ],
      [
        "teri",
        "ma"
      ],
      [
        "ben",
        "ar"
      ],
      [
        "jalan",
        "i"
      ],
      [
        "rem",
        "puh"
      ],
      [
        "do",
        "lu"
      ],
      [
        "pasukan",
        "nya"
      ],
      [
        "so",
        "kongan"
      ],
      [
        "kuasa",
        "an"
      ],
      [
        "bak",
        "aran"
      ],
      [
        "war",
        "ga"
      ],
      [
        "for",
        "mula"
      ],
      [
        "for",
        "ex"
      ],
      [
        "sara",
        "wak"
      ],
      [
        "ana",
        "dolu"
      ],
      [
        "sela",
        "sa"
      ],
      [
        "kese",
        "luru"
      ],
      [
        "kese",
        "lamatan"
      ],
      [
        "membu",
        "ktikan"
      ],
      [
        "aw",
        "am"
      ],
      [
        "pro",
        "gram"
      ],
      [
        "bas",
        "ikal"
      ],
      [
        "cu",
        "aca"
      ],
      [
        "tem",
        "poh"
      ],
      [
        "jen",
        "tera"
      ],
      [
        "jen",
        "ayah"
      ],
      [
        "pd",
        "rm"
      ],
      [
        "mar",
        "in"
      ],
      [
        "rus",
        "sel"
      ],
      [
        "wak",
        "tu"
      ],
      [
        "mb",
        "sb"
      ],
      [
        "tr",
        "al"
      ],
      [
        "kor",
        "ban"
      ],
      [
        "tam",
        "pil"
      ],
      [
        "seki",
        "ranya"
      ],
      [
        "menye",
        "babkan"
      ],
      [
        "gam",
        "bar"
      ],
      [
        "any",
        "i"
      ],
      [
        "tuju",
        "an"
      ],
      [
        "sah",
        "aja"
      ],
      [
        "bit",
        "kan"
      ],
      [
        "diberi",
        "kan"
      ],
      [
        "semen",
        "anjung"
      ],
      [
        "kel",
        "marin"
      ],
      [
        "pertahan",
        "an"
      ],
      [
        "pelab",
        "uran"
      ],
      [
        "mema",
        "parkan"
      ],
      [
        "memi",
        "liki"
      ],
      [
        "tikto",
        "k"
      ],
      [
        "kongsi",
        "kan"
      ],
      [
        "bri",
        "ged"
      ],
      [
        "sepenuh",
        "nya"
      ],
      [
        "peni",
        "puan"
      ],
      [
        "hamil",
        "ton"
      ],
      [
        "ajan",
        "si"
      ],
      [
        "dbi",
        "ran"
      ],
      [
        "sku",
        "ad"
      ],
      [
        "anggo",
        "ta"
      ],
      [
        "seger",
        "a"
      ],
      [
        "madan",
        "i"
      ],
      [
        "menci",
        "pta"
      ],
      [
        "keci",
        "l"
      ],
      [
        "kehidu",
        "pan"
      ],
      [
        "kehil",
        "angan"
      ],
      [
        "berkai",
        "tan"
      ],
      [
        "penta",
        "dbiran"
      ],
      [
        "pelaksan",
        "aan"
      ],
      [
        "pegawa",
        "i"
      ],
      [
        "mesy",
        "uarat"
      ],
      [
        "melalu",
        "i"
      ],
      [
        "meski",
        "pun"
      ],
      [
        "menggun",
        "akan"
      ],
      [
        "pengumu",
        "man"
      ],
      [
        "penguat",
        "kuasaan"
      ],
      [
        "pembeli",
        "an"
      ],
      [
        "pembuka",
        "an"
      ],
      [
        "netanyah",
        "u"
      ],
      [
        "kenyata",
        "an"
      ],
      [
        "keseluru",
        "han"
      ],
      [
        "1",
        "7"
      ],
      [
        "2",
        "9"
      ],
      [
        "3",
        "2"
      ],
      [
        "3",
        "5"
      ],
      [
        "6",
        "0"
      ],
      [
        "7",
        "7"
      ],
      [
        "a",
        "a"
      ],
      [
        "a",
        "j"
      ],
      [
        "a",
        "o"
      ],
      [
        "a",
        "ga"
      ],
      [
        "b",
        "or"
      ],
      [
        "b",
        "atkan"
      ],
      [
        "b",
        "kl"
      ],
      [
        "c",
        "em"
      ],
      [
        "c",
        "ing"
      ],
      [
        "c",
        "ari"
      ],
      [
        "c",
        "hi"
      ],
      [
        "c",
        "inc"
      ],
      [
        "d",
        "pa"
      ],
      [
        "d",
        "aran"
      ],
      [
        "d",
        "ina"
      ],
      [
        "d",
        "din"
      ],
      [
        "d",
        "bkl"
      ],
      [
        "e",
        "a"
      ],
      [
        "e",
        "kon"
      ],
      [
        "e",
        "ai"
      ],
      [
        "f",
        "b"
      ],
      [
        "f",
        "c"
      ],
      [
        "f",
        "l"
      ],
      [
        "f",
        "err"
      ],
      [
        "g",
        "on"
      ],
      [
        "g",
        "ran"
      ],
      [
        "g",
        "arkan"
      ],
      [
        "g",
        "antung"
      ],
      [
        "g",
        "empa"
      ],
      [
        "h",
        "ara"
      ],
      [
        "h",
        "ut"
      ],
      [
        "h",
        "ford"
      ],
      [
        "i",
        "si"
      ],
      [
        "i",
        "ba"
      ],
      [
        "j",
        "ah"
      ],
      [
        "j",
        "uru"
      ],
      [
        "k",
        "kan"
      ],
      [
        "k",
        "ri"
      ],
      [
        "k",
        "aki"
      ],
      [
        "l",
        "hi"
      ],
      [
        "l",
        "son"
      ],
      [
        "m",
        "s"
      ],
      [
        "m",
        "y"
      ],
      [
        "m",
        "ata"
      ],
      [
        "m",
        "os"
      ],
      [
        "m",
        "uni"
      ],
      [
        "m",
        "ungkin"
      ],
      [
        "n",
        "am"
      ],
      [
        "n",
        "uk"
      ],
      [
        "o",
        "t"
      ],
      [
        "o",
        "per"
      ],
      [
        "o",
        "mi"
      ],
      [
        "p",
        "s"
      ],
      [
        "p",
        "t"
      ],
      [
        "p",
        "am"
      ],
      [
        "r",
        "untu"
      ],
      [
        "r",
        "ik"
      ],
      [
        "r",
        "tz"
      ],
      [
        "s",
        "in"
      ],
      [
        "s",
        "aran"
      ],
      [
        "s",
        "uri"
      ],
      [
        "s",
        "tadi"
      ],
      [
        "s",
        "kala"
      ],
      [
        "t",
        "aman"
      ],
      [
        "u",
        "da"
      ],
      [
        "u",
        "ah"
      ],
      [
        "u",
        "ca"
      ],
      [
        "v",
        "ao"
      ],
      [
        "w",
        "n"
      ],
      [
        "w",
        "is"
      ],
      [
        "w",
        "ala"
      ],
      [
        "y",
        "ati"
      ],
      [
        "y",
        "ong"
      ],
      [
        "z",
        "on"
      ],
      [
        "z",
        "ara"
      ],
      [
        "an",
        "cam"
      ],
      [
        "er",
        "a"
      ],
      [
        "er",
        "lang"
      ],
      [
        "ar",
        "o"
      ],
      [
        "ar",
        "sen"
      ],
      [
        "la",
        "s"
      ],
      [
        "la",
        "ma"
      ],
      [
        "la",
        "gu"
      ],
      [
        "la",
        "os"
      ],
      [
        "la",
        "skan"
      ],
      [
        "in",
        "sip"
      ],
      [
        "at",
        "m"
      ],
      [
        "at",
        "rik"
      ],
      [
        "di",
        "ang"
      ],
      [
        "di",
        "kata"
      ],
      [
        "di",
        "pin"
      ],
      [
        "di",
        "dikan"
      ],
      [
        "di",
        "rempuh"
      ],
      [
        "ang",
        "kan"
      ],
      [
        "se",
        "ko"
      ],
      [
        "se",
        "hari"
      ],
      [
        "se",
        "kurang"
      ],
      [
        "se",
        "balik"
      ],
      [
        "ma",
        "si"
      ],
      [
        "ma",
        "ka"
      ],
      [
        "ma",
        "mp"
      ],
      [
        "ma",
        "ju"
      ],
      [
        "ma",
        "ch"
      ],
      [
        "ma",
        "yat"
      ],
      [
        "kan",
        "ak"
      ],
      [
        "men",
        "t"
      ],
      [
        "men",
        "da"
      ],
      [
        "men",
        "un"
      ],
      [
        "men",
        "jaring"
      ],
      [
        "as",
        "as"
      ],
      [
        "as",
        "pek"
      ],
      [
        "ke",
        "ju"
      ],
      [
        "ke",
        "bang"
      ],
      [
        "ke",
        "ca"
      ],
      [
        "ke",
        "st"
      ],
      [
        "ke",
        "jar"
      ],
      [
        "ke",
        "jaya"
      ],
      [
        "ke",
        "kur"
      ],
      [
        "ke",
        "perlu"
      ],
      [
        "ke",
        "mal"
      ],
      [
        "ke",
        "putu"
      ],
      [
        "ke",
        "bakaran"
      ],
      [
        "ber",
        "at"
      ],
      [
        "ber",
        "main"
      ],
      [
        "ber",
        "satu"
      ],
      [
        "ber",
        "kuasa"
      ],
      [
        "ber",
        "hampi"
      ],
      [
        "ber",
        "aksi"
      ],
      [
        "ber",
        "ani"
      ],
      [
        "ber",
        "akhir"
      ],
      [
        "ber",
        "kuat"
      ],
      [
        "ber",
        "kongsikan"
      ],
      [
        "ber",
        "skala"
      ],
      [
        "si",
        "r"
      ],
      [
        "si",
        "atif"
      ],
      [
        "al",
        "d"
      ],
      [
        "al",
        "tern"
      ],
      [
        "per",
        "inc"
      ],
      [
        "per",
        "anan"
      ],
      [
        "per",
        "hatian"
      ],
      [
        "per",
        "iba"
      ],
      [
        "am",
        "at"
      ],
      [
        "am",
        "ang"
      ],
      [
        "tu",
        "s"
      ],
      [
        "ak",
        "ta"
      ],
      [
        "ak",
        "ui"
      ],
      [
        "ku",
        "sen"
      ],
      [
        "le",
        "z"
      ],
      [
        "le",
        "ar"
      ],
      [
        "le",
        "sen"
      ],
      [
        "le",
        "ver"
      ],
      [
        "le",
        "um"
      ],
      [
        "ter",
        "de"
      ],
      [
        "ter",
        "lepas"
      ],
      [
        "ter",
        "baharu"
      ],
      [
        "ter",
        "aan"
      ],
      [
        "ter",
        "je"
      ],
      [
        "ter",
        "utama"
      ],
      [
        "ter",
        "tinggi"
      ],
      [
        "pen",
        "a"
      ],
      [
        "pen",
        "u"
      ],
      [
        "pen",
        "am"
      ],
      [
        "pen",
        "ing"
      ],
      [
        "pen",
        "gikut"
      ],
      [
        "pen",
        "didikan"
      ],
      [
        "li",
        "si"
      ],
      [
        "li",
        "pin"
      ],
      [
        "li",
        "batkan"
      ],
      [
        "ta",
        "e"
      ],
      [
        "pa",
        "kej"
      ],
      [
        "ing",
        "ati"
      ],
      [
        "on",
        "ik"
      ],
      [
        "ur",
        "a"
      ],
      [
        "ur",
        "aw"
      ],
      [
        "ka",
        "d"
      ],
      [
        "ka",
        "ji"
      ],
      [
        "ka",
        "lau"
      ],
      [
        "ga",
        "p"
      ],
      [
        "bu",
        "lu"
      ],
      [
        "ja",
        "ir"
      ],
      [
        "be",
        "g"
      ],
      [
        "be",
        "bas"
      ],
      [
        "be",
        "saran"
      ],
      [
        "pe",
        "gu"
      ],
      [
        "pe",
        "lih"
      ],
      [
        "sa",
        "ing"
      ],
      [
        "lam",
        "i"
      ],
      [
        "me",
        "i"
      ],
      [
        "me",
        "l"
      ],
      [
        "me",
        "libatkan"
      ],
      [
        "ini",
        "siatif"
      ],
      [
        "mp",
        "v"
      ],
      [
        "ha",
        "g"
      ],
      [
        "ha",
        "us"
      ],
      [
        "ha",
        "mas"
      ],
      [
        "is",
        "y"
      ],
      [
        "meng",
        "ge"
      ],
      [
        "meng",
        "hadapi"
      ],
      [
        "meng",
        "akui"
      ],
      [
        "mu",
        "hd"
      ],
      [
        "ra",
        "fiz"
      ],
      [
        "tah",
        "ap"
      ],
      [
        "pas",
        "ti"
      ],
      [
        "te",
        "le"
      ],
      [
        "te",
        "bu"
      ],
      [
        "te",
        "vao"
      ],
      [
        "su",
        "per"
      ],
      [
        "ik",
        "at"
      ],
      [
        "ik",
        "kan"
      ],
      [
        "ik",
        "onik"
      ],
      [
        "peng",
        "hujung"
      ],
      [
        "de",
        "dik"
      ],
      [
        "de",
        "lhi"
      ],
      [
        "ju",
        "m"
      ],
      [
        "ju",
        "ara"
      ],
      [
        "ju",
        "kkan"
      ],
      [
        "ker",
        "dil"
      ],
      [
        "pu",
        "tera"
      ],
      [
        "mah",
        "suri"
      ],
      [
        "ru",
        "gi"
      ],
      [
        "ser",
        "t"
      ],
      [
        "ko",
        "s"
      ],
      [
        "ko",
        "mp"
      ],
      [
        "ko",
        "loni"
      ],
      [
        "re",
        "d"
      ],
      [
        "dalam",
        "an"
      ],
      [
        "po",
        "und"
      ],
      [
        "po",
        "lisi"
      ],
      [
        "bang",
        "kan"
      ],
      [
        "ata",
        "kan"
      ],
      [
        "lay",
        "ak"
      ],
      [
        "bo",
        "lson"
      ],
      [
        "sy",
        "or"
      ],
      [
        "ca",
        "dang"
      ],
      [
        "man",
        "usia"
      ],
      [
        "ro",
        "gol"
      ],
      [
        "sen",
        "i"
      ],
      [
        "ch",
        "ero"
      ],
      [
        "kon",
        "sert"
      ],
      [
        "00",
        "5"
      ],
      [
        "ken",
        "a"
      ],
      [
        "ji",
        "m"
      ],
      [
        "beri",
        "si"
      ],
      [
        "beri",
        "kutan"
      ],
      [
        "ham",
        "zah"
      ],
      [
        "meny",
        "atakan"
      ],
      [
        "ai",
        "ki"
      ],
      [
        "fi",
        "lipin"
      ],
      [
        "rak",
        "aman"
      ],
      [
        "vi",
        "ti"
      ],
      [
        "keti",
        "baan"
      ],
      [
        "ben",
        "arkan"
      ],
      [
        "don",
        "ald"
      ],
      [
        "es",
        "tevao"
      ],
      [
        "hu",
        "ku"
      ],
      [
        "hu",
        "bung"
      ],
      [
        "to",
        "wn"
      ],
      [
        "peny",
        "e"
      ],
      [
        "peny",
        "asaran"
      ],
      [
        "peny",
        "anyi"
      ],
      [
        "ce",
        "g"
      ],
      [
        "jalan",
        "kan"
      ],
      [
        "do",
        "ku"
      ],
      [
        "ger",
        "akan"
      ],
      [
        "mo",
        "hd"
      ],
      [
        "serta",
        "i"
      ],
      [
        "je",
        "k"
      ],
      [
        "sh",
        "err"
      ],
      [
        "sek",
        "atan"
      ],
      [
        "sek",
        "ali"
      ],
      [
        "sem",
        "angat"
      ],
      [
        "sem",
        "pena"
      ],
      [
        "bar",
        "at"
      ],
      [
        "co",
        "w"
      ],
      [
        "jo",
        "hari"
      ],
      [
        "jo",
        "hor"
      ],
      [
        "menjadi",
        "kan"
      ],
      [
        "ras",
        "hford"
      ],
      [
        "ras",
        "uah"
      ],
      [
        "sela",
        "tan"
      ],
      [
        "par",
        "ti"
      ],
      [
        "sus",
        "pek"
      ],
      [
        "ten",
        "tera"
      ],
      [
        "ten",
        "aga"
      ],
      [
        "wi",
        "rtz"
      ],
      [
        "membu",
        "atkan"
      ],
      [
        "lar",
        "en"
      ],
      [
        "ali",
        "h"
      ],
      [
        "dike",
        "jar"
      ],
      [
        "mendap",
        "ati"
      ],
      [
        "bay",
        "er"
      ],
      [
        "saya",
        "p"
      ],
      [
        "ap",
        "ura"
      ],
      [
        "ve",
        "lez"
      ],
      [
        "ketu",
        "m"
      ],
      [
        "kurang",
        "nya"
      ],
      [
        "ip",
        "k"
      ],
      [
        "na",
        "ma"
      ],
      [
        "tr",
        "en"
      ],
      [
        "tr",
        "ik"
      ],
      [
        "teta",
        "p"
      ],
      [
        "pembang",
        "unan"
      ],
      [
        "kor",
        "ea"
      ],
      [
        "mus",
        "k"
      ],
      [
        "menj",
        "urus"
      ],
      [
        "ul",
        "san"
      ],
      [
        "sul",
        "ung"
      ],
      [
        "laksan",
        "akan"
      ],
      [
        "fe",
        "syen"
      ],
      [
        "ster",
        "ol"
      ],
      [
        "ster",
        "ling"
      ],
      [
        "lati",
        "han"
      ],
      [
        "bumi",
        "putera"
      ],
      [
        "bun",
        "dar"
      ],
      [
        "bun",
        "uh"
      ],
      [
        "memba",
        "wa"
      ],
      [
        "memba",
        "bitkan"
      ],
      [
        "menga",
        "lami"
      ],
      [
        "kilo",
        "gram"
      ],
      [
        "kilo",
        "meter"
      ],
      [
        "audi",
        "o"
      ],
      [
        "audi",
        "t"
      ],
      [
        "petro",
        "leum"
      ],
      [
        "pk",
        "r"
      ],
      [
        "anc",
        "aman"
      ],
      [
        "akti",
        "viti"
      ],
      [
        "melang",
        "gar"
      ],
      [
        "sum",
        "ber"
      ],
      [
        "pengurus",
        "an"
      ],
      [
        "putra",
        "jaya"
      ],
      [
        "peman",
        "du"
      ],
      [
        "maklum",
        "at"
      ],
      [
        "premi",
        "er"
      ],
      [
        "jp",
        "j"
      ],
      [
        "pr",
        "insip"
      ],
      [
        "ugu",
        "t"
      ],
      [
        "wari",
        "san"
      ],
      [
        "diha",
        "yati"
      ],
      [
        "dira",
        "ja"
      ],
      [
        "menje",
        "laskan"
      ],
      [
        "bayang",
        "an"
      ],
      [
        "metal",
        "kest"
      ],
      [
        "tes",
        "la"
      ],
      [
        "bot",
        "ol"
      ],
      [
        "gug",
        "urkan"
      ],
      [
        "bincang",
        "kan"
      ],
      [
        "bari",
        "atrik"
      ],
      [
        "jur",
        "uraw"
      ],
      [
        "mc",
        "laren"
      ],
      [
        "sing",
        "apura"
      ],
      [
        "seo",
        "ul"
      ],
      [
        "menari",
        "k"
      ],
      [
        "mence",
        "cah"
      ],
      [
        "simp",
        "anan"
      ],
      [
        "jawatan",
        "kuasa"
      ],
      [
        "mele",
        "tus"
      ],
      [
        "kole",
        "sterol"
      ],
      [
        "cem",
        "erlang"
      ],
      [
        "cinc",
        "in"
      ],
      [
        "dina",
        "makan"
      ],
      [
        "ekon",
        "omi"
      ],
      [
        "eai",
        "c"
      ],
      [
        "fl",
        "or"
      ],
      [
        "ferr",
        "ari"
      ],
      [
        "hut",
        "ang"
      ],
      [
        "juru",
        "latih"
      ],
      [
        "my",
        "sara"
      ],
      [
        "mos",
        "cow"
      ],
      [
        "nam",
        "un"
      ],
      [
        "nuk",
        "lear"
      ],
      [
        "pam",
        "pasan"
      ],
      [
        "runtu",
        "h"
      ],
      [
        "stadi",
        "um"
      ],
      [
        "wala",
        "u"
      ],
      [
        "arsen",
        "al"
      ],
      [
        "diang",
        "gap"
      ],
      [
        "dikata",
        "kan"
      ],
      [
        "dipin",
        "dahkan"
      ],
      [
        "seko",
        "lah"
      ],
      [
        "sebalik",
        "nya"
      ],
      [
        "mamp",
        "u"
      ],
      [
        "mach",
        "uca"
      ],
      [
        "menun",
        "jukkan"
      ],
      [
        "menjaring",
        "kan"
      ],
      [
        "keju",
        "araan"
      ],
      [
        "kejaya",
        "an"
      ],
      [
        "kekur",
        "angan"
      ],
      [
        "keperlu",
        "an"
      ],
      [
        "keputu",
        "san"
      ],
      [
        "berhampi",
        "ran"
      ],
      [
        "altern",
        "atif"
      ],
      [
        "perinc",
        "ian"
      ],
      [
        "lever",
        "kusen"
      ],
      [
        "terde",
        "dah"
      ],
      [
        "terje",
        "jas"
      ],
      [
        "bebas",
        "kan"
      ],
      [
        "pegu",
        "am"
      ],
      [
        "pelih",
        "araan"
      ],
      [
        "mengge",
        "garkan"
      ],
      [
        "rafiz",
        "i"
      ],
      [
        "dedik",
        "asi"
      ],
      [
        "koloni",
        "al"
      ],
      [
        "bolson",
        "aro"
      ],
      [
        "chero",
        "k"
      ],
      [
        "filipin",
        "a"
      ],
      [
        "sherr",
        "y"
      ],
      [
        "metalkest",
        "ra"
      ],
      [
        "jururaw",
        "at"
      ],
      [
        ",",
        "”"
      ],
      [
        "1",
        "8"
      ],
      [
        "2",
        "5"
      ],
      [
        "3",
        "9"
      ],
      [
        "a",
        "f"
      ],
      [
        "a",
        "v"
      ],
      [
        "a",
        "y"
      ],
      [
        "a",
        "ut"
      ],
      [
        "b",
        "aran"
      ],
      [
        "c",
        "ar"
      ],
      [
        "c",
        "ia"
      ],
      [
        "c",
        "ol"
      ],
      [
        "d",
        "ara"
      ],
      [
        "e",
        "h"
      ],
      [
        "e",
        "y"
      ],
      [
        "e",
        "z"
      ],
      [
        "e",
        "kor"
      ],
      [
        "f",
        "ant"
      ],
      [
        "f",
        "oku"
      ],
      [
        "g",
        "p"
      ],
      [
        "g",
        "at"
      ],
      [
        "g",
        "as"
      ],
      [
        "g",
        "lo"
      ],
      [
        "g",
        "askan"
      ],
      [
        "h",
        "ta"
      ],
      [
        "h",
        "on"
      ],
      [
        "h",
        "ung"
      ],
      [
        "h",
        "aru"
      ],
      [
        "h",
        "bar"
      ],
      [
        "h",
        "angat"
      ],
      [
        "i",
        "d"
      ],
      [
        "i",
        "mi"
      ],
      [
        "j",
        "us"
      ],
      [
        "k",
        "h"
      ],
      [
        "k",
        "s"
      ],
      [
        "k",
        "lu"
      ],
      [
        "k",
        "asi"
      ],
      [
        "k",
        "tor"
      ],
      [
        "k",
        "trik"
      ],
      [
        "l",
        "lah"
      ],
      [
        "l",
        "os"
      ],
      [
        "m",
        "on"
      ],
      [
        "m",
        "is"
      ],
      [
        "m",
        "su"
      ],
      [
        "n",
        "y"
      ],
      [
        "n",
        "ia"
      ],
      [
        "n",
        "ati"
      ],
      [
        "o",
        "lah"
      ],
      [
        "p",
        "h"
      ],
      [
        "p",
        "ur"
      ],
      [
        "p",
        "ha"
      ],
      [
        "p",
        "ram"
      ],
      [
        "p",
        "bb"
      ],
      [
        "q",
        "air"
      ],
      [
        "r",
        "en"
      ],
      [
        "r",
        "asi"
      ],
      [
        "s",
        "as"
      ],
      [
        "s",
        "ung"
      ],
      [
        "s",
        "asi"
      ],
      [
        "s",
        "uru"
      ],
      [
        "s",
        "aha"
      ],
      [
        "s",
        "angat"
      ],
      [
        "t",
        "n"
      ],
      [
        "t",
        "men"
      ],
      [
        "t",
        "he"
      ],
      [
        "u",
        "p"
      ],
      [
        "u",
        "ari"
      ],
      [
        "u",
        "ju"
      ],
      [
        "u",
        "sim"
      ],
      [
        "u",
        "pm"
      ],
      [
        "v",
        "en"
      ],
      [
        "v",
        "asi"
      ],
      [
        "w",
        "in"
      ],
      [
        "w",
        "alan"
      ],
      [
        "w",
        "uju"
      ],
      [
        "y",
        "us"
      ],
      [
        "y",
        "ou"
      ],
      [
        "z",
        "ik"
      ],
      [
        "z",
        "oo"
      ],
      [
        "an",
        "ya"
      ],
      [
        "an",
        "nya"
      ],
      [
        "an",
        "dun"
      ],
      [
        "an",
        "der"
      ],
      [
        "an",
        "field"
      ],
      [
        "er",
        "ah"
      ],
      [
        "ar",
        "y"
      ],
      [
        "la",
        "o"
      ],
      [
        "la",
        "p"
      ],
      [
        "la",
        "de"
      ],
      [
        "la",
        "han"
      ],
      [
        "in",
        "o"
      ],
      [
        "in",
        "t"
      ],
      [
        "in",
        "san"
      ],
      [
        "in",
        "tai"
      ],
      [
        "in",
        "teg"
      ],
      [
        "in",
        "fant"
      ],
      [
        "at",
        "om"
      ],
      [
        "di",
        "r"
      ],
      [
        "di",
        "s"
      ],
      [
        "di",
        "ja"
      ],
      [
        "di",
        "gi"
      ],
      [
        "di",
        "lakukan"
      ],
      [
        "di",
        "jangka"
      ],
      [
        "di",
        "jalankan"
      ],
      [
        "di",
        "laksanakan"
      ],
      [
        "ang",
        "ka"
      ],
      [
        "ang",
        "kat"
      ],
      [
        "ang",
        "ele"
      ],
      [
        "ang",
        "kutan"
      ],
      [
        "se",
        "ga"
      ],
      [
        "se",
        "sama"
      ],
      [
        "se",
        "kutu"
      ],
      [
        "se",
        "tuju"
      ],
      [
        "se",
        "jauh"
      ],
      [
        "se",
        "benar"
      ],
      [
        "kan",
        "ser"
      ],
      [
        "kan",
        "nya"
      ],
      [
        "da",
        "m"
      ],
      [
        "da",
        "pe"
      ],
      [
        "da",
        "sar"
      ],
      [
        "men",
        "ya"
      ],
      [
        "men",
        "gi"
      ],
      [
        "men",
        "de"
      ],
      [
        "men",
        "dakwa"
      ],
      [
        "men",
        "ahan"
      ],
      [
        "men",
        "gikut"
      ],
      [
        "men",
        "jalani"
      ],
      [
        "as",
        "is"
      ],
      [
        "un",
        "di"
      ],
      [
        "un",
        "ya"
      ],
      [
        "un",
        "tung"
      ],
      [
        "ke",
        "h"
      ],
      [
        "ke",
        "t"
      ],
      [
        "ke",
        "da"
      ],
      [
        "ke",
        "le"
      ],
      [
        "ke",
        "lan"
      ],
      [
        "ke",
        "ada"
      ],
      [
        "ke",
        "san"
      ],
      [
        "ke",
        "jadi"
      ],
      [
        "ke",
        "teg"
      ],
      [
        "ke",
        "laya"
      ],
      [
        "ke",
        "penting"
      ],
      [
        "ke",
        "bulu"
      ],
      [
        "ke",
        "manusia"
      ],
      [
        "ke",
        "untung"
      ],
      [
        "ah",
        "kan"
      ],
      [
        "em",
        "uan"
      ],
      [
        "em",
        "puan"
      ],
      [
        "ber",
        "lin"
      ],
      [
        "ber",
        "puluh"
      ],
      [
        "ber",
        "sif"
      ],
      [
        "ber",
        "hubung"
      ],
      [
        "si",
        "tu"
      ],
      [
        "per",
        "si"
      ],
      [
        "per",
        "ing"
      ],
      [
        "per",
        "tan"
      ],
      [
        "per",
        "mo"
      ],
      [
        "per",
        "satu"
      ],
      [
        "per",
        "bin"
      ],
      [
        "per",
        "saingan"
      ],
      [
        "per",
        "ikan"
      ],
      [
        "per",
        "anc"
      ],
      [
        "per",
        "kukuh"
      ],
      [
        "per",
        "taman"
      ],
      [
        "per",
        "nia"
      ],
      [
        "per",
        "saha"
      ],
      [
        "per",
        "empuan"
      ],
      [
        "ak",
        "ala"
      ],
      [
        "ak",
        "hbar"
      ],
      [
        "ku",
        "s"
      ],
      [
        "ku",
        "dung"
      ],
      [
        "ku",
        "cing"
      ],
      [
        "le",
        "s"
      ],
      [
        "le",
        "sa"
      ],
      [
        "le",
        "wis"
      ],
      [
        "lu",
        "t"
      ],
      [
        "ter",
        "bi"
      ],
      [
        "ter",
        "lebih"
      ],
      [
        "ter",
        "lalu"
      ],
      [
        "ter",
        "pak"
      ],
      [
        "ter",
        "kena"
      ],
      [
        "ti",
        "an"
      ],
      [
        "ti",
        "la"
      ],
      [
        "ti",
        "vasi"
      ],
      [
        "ti",
        "kus"
      ],
      [
        "pen",
        "dap"
      ],
      [
        "pen",
        "tas"
      ],
      [
        "pen",
        "ceg"
      ],
      [
        "pen",
        "emuan"
      ],
      [
        "li",
        "a"
      ],
      [
        "ta",
        "an"
      ],
      [
        "ta",
        "war"
      ],
      [
        "pa",
        "ya"
      ],
      [
        "pa",
        "ian"
      ],
      [
        "ka",
        "walan"
      ],
      [
        "ga",
        "an"
      ],
      [
        "ga",
        "ji"
      ],
      [
        "bu",
        "an"
      ],
      [
        "bu",
        "han"
      ],
      [
        "bu",
        "dape"
      ],
      [
        "ari",
        "s"
      ],
      [
        "ba",
        "dan"
      ],
      [
        "ba",
        "ikan"
      ],
      [
        "be",
        "lay"
      ],
      [
        "pe",
        "lar"
      ],
      [
        "sa",
        "at"
      ],
      [
        "sa",
        "udi"
      ],
      [
        "us",
        "nya"
      ],
      [
        "us",
        "nah"
      ],
      [
        "lam",
        "pu"
      ],
      [
        "bi",
        "da"
      ],
      [
        "bi",
        "skan"
      ],
      [
        "me",
        "lebi"
      ],
      [
        "me",
        "mas"
      ],
      [
        "me",
        "sir"
      ],
      [
        "mem",
        "pun"
      ],
      [
        "du",
        "an"
      ],
      [
        "du",
        "al"
      ],
      [
        "du",
        "lu"
      ],
      [
        "gi",
        "t"
      ],
      [
        "meng",
        "gesa"
      ],
      [
        "meng",
        "andun"
      ],
      [
        "mu",
        "ham"
      ],
      [
        "ra",
        "i"
      ],
      [
        "pi",
        "lan"
      ],
      [
        "pi",
        "rasi"
      ],
      [
        "pas",
        "aran"
      ],
      [
        "te",
        "y"
      ],
      [
        "su",
        "dah"
      ],
      [
        "su",
        "paya"
      ],
      [
        "peng",
        "angkutan"
      ],
      [
        "ju",
        "t"
      ],
      [
        "ju",
        "kan"
      ],
      [
        "lan",
        "da"
      ],
      [
        "lan",
        "tik"
      ],
      [
        "han",
        "jaya"
      ],
      [
        "han",
        "taran"
      ],
      [
        "angan",
        "i"
      ],
      [
        "ker",
        "as"
      ],
      [
        "pem",
        "bayaran"
      ],
      [
        "ser",
        "ong"
      ],
      [
        "ko",
        "h"
      ],
      [
        "ko",
        "man"
      ],
      [
        "ko",
        "lahan"
      ],
      [
        "re",
        "s"
      ],
      [
        "re",
        "ad"
      ],
      [
        "bang",
        "lade"
      ],
      [
        "ban",
        "dara"
      ],
      [
        "ri",
        "ti"
      ],
      [
        "pan",
        "ik"
      ],
      [
        "pan",
        "jang"
      ],
      [
        "pan",
        "tau"
      ],
      [
        "bo",
        "s"
      ],
      [
        "bo",
        "man"
      ],
      [
        "mi",
        "si"
      ],
      [
        "ca",
        "p"
      ],
      [
        "ca",
        "dangan"
      ],
      [
        "ca",
        "baran"
      ],
      [
        "man",
        "akala"
      ],
      [
        "sen",
        "sasi"
      ],
      [
        "gu",
        "a"
      ],
      [
        "st",
        "atus"
      ],
      [
        "por",
        "to"
      ],
      [
        "ch",
        "ar"
      ],
      [
        "ran",
        "k"
      ],
      [
        "ken",
        "akan"
      ],
      [
        "mer",
        "ce"
      ],
      [
        "ji",
        "d"
      ],
      [
        "lum",
        "ba"
      ],
      [
        "ge",
        "tah"
      ],
      [
        "lang",
        "gar"
      ],
      [
        "lang",
        "kah"
      ],
      [
        "lang",
        "sung"
      ],
      [
        "meny",
        "aksi"
      ],
      [
        "fi",
        "fa"
      ],
      [
        "ci",
        "ty"
      ],
      [
        "uni",
        "t"
      ],
      [
        "uni",
        "ver"
      ],
      [
        "ben",
        "tuk"
      ],
      [
        "pal",
        "ing"
      ],
      [
        "es",
        "ahan"
      ],
      [
        "es",
        "ok"
      ],
      [
        "hu",
        "ey"
      ],
      [
        "beli",
        "a"
      ],
      [
        "to",
        "koh"
      ],
      [
        "ram",
        "pasan"
      ],
      [
        "tang",
        "ga"
      ],
      [
        "do",
        "ktor"
      ],
      [
        "gan",
        "ti"
      ],
      [
        "lo",
        "kasi"
      ],
      [
        "mo",
        "ha"
      ],
      [
        "mo",
        "tivasi"
      ],
      [
        "je",
        "pun"
      ],
      [
        "ni",
        "e"
      ],
      [
        "ni",
        "ms"
      ],
      [
        "sh",
        "e"
      ],
      [
        "pin",
        "tu"
      ],
      [
        "sem",
        "bilan"
      ],
      [
        "und",
        "er"
      ],
      [
        "memper",
        "kukuh"
      ],
      [
        "memper",
        "kenal"
      ],
      [
        "memper",
        "ingati"
      ],
      [
        "202",
        "4"
      ],
      [
        "bar",
        "angan"
      ],
      [
        "bin",
        "a"
      ],
      [
        "il",
        "mu"
      ],
      [
        "jan",
        "uari"
      ],
      [
        "dakwa",
        "an"
      ],
      [
        "masa",
        "lah"
      ],
      [
        "sela",
        "in"
      ],
      [
        "par",
        "tey"
      ],
      [
        "pre",
        "stasi"
      ],
      [
        "wi",
        "ra"
      ],
      [
        "wi",
        "pha"
      ],
      [
        "kese",
        "daran"
      ],
      [
        "menge",
        "jar"
      ],
      [
        "menge",
        "cam"
      ],
      [
        "cah",
        "kan"
      ],
      [
        "seri",
        "e"
      ],
      [
        "pro",
        "jek"
      ],
      [
        "dike",
        "muka"
      ],
      [
        "bay",
        "ar"
      ],
      [
        "cu",
        "p"
      ],
      [
        "ve",
        "ter"
      ],
      [
        "ve",
        "sel"
      ],
      [
        "ib",
        "lis"
      ],
      [
        "ib",
        "unya"
      ],
      [
        "perse",
        "kolahan"
      ],
      [
        "gar",
        "cia"
      ],
      [
        "mar",
        "c"
      ],
      [
        "gel",
        "aran"
      ],
      [
        "na",
        "ik"
      ],
      [
        "ani",
        "masi"
      ],
      [
        "tau",
        "fan"
      ],
      [
        "cam",
        "pur"
      ],
      [
        "he",
        "av"
      ],
      [
        "mus",
        "ang"
      ],
      [
        "padan",
        "ya"
      ],
      [
        "bulan",
        "an"
      ],
      [
        "meme",
        "cahkan"
      ],
      [
        "meman",
        "tau"
      ],
      [
        "teg",
        "as"
      ],
      [
        "kemen",
        "angan"
      ],
      [
        "kuh",
        "kan"
      ],
      [
        "ly",
        "on"
      ],
      [
        "any",
        "ian"
      ],
      [
        "pelan",
        "c"
      ],
      [
        "pelan",
        "tikan"
      ],
      [
        "pulu",
        "han"
      ],
      [
        "gang",
        "gu"
      ],
      [
        "pus",
        "at"
      ],
      [
        "pus",
        "kan"
      ],
      [
        "pertu",
        "buhan"
      ],
      [
        "pecah",
        "kan"
      ],
      [
        "mengu",
        "kuhkan"
      ],
      [
        "ding",
        "s"
      ],
      [
        "has",
        "rat"
      ],
      [
        "upa",
        "ya"
      ],
      [
        "upa",
        "cara"
      ],
      [
        "mene",
        "liti"
      ],
      [
        "mene",
        "gaskan"
      ],
      [
        "bul",
        "l"
      ],
      [
        "penge",
        "boman"
      ],
      [
        "ele",
        "ktrik"
      ],
      [
        "om",
        "bia"
      ],
      [
        "mena",
        "ikkan"
      ],
      [
        "akti",
        "f"
      ],
      [
        "terba",
        "bas"
      ],
      [
        "terba",
        "bit"
      ],
      [
        "pela",
        "kon"
      ],
      [
        "pela",
        "jar"
      ],
      [
        "melang",
        "kah"
      ],
      [
        "komi",
        "tmen"
      ],
      [
        "premi",
        "um"
      ],
      [
        "mun",
        "aj"
      ],
      [
        "th",
        "read"
      ],
      [
        "mengem",
        "udi"
      ],
      [
        "ab",
        "du"
      ],
      [
        "bur",
        "sa"
      ],
      [
        "buru",
        "k"
      ],
      [
        "cen",
        "tral"
      ],
      [
        "flo",
        "tila"
      ],
      [
        "gre",
        "sen"
      ],
      [
        "gro",
        "up"
      ],
      [
        "hol",
        "dings"
      ],
      [
        "imp",
        "ort"
      ],
      [
        "no",
        "v"
      ],
      [
        "pri",
        "x"
      ],
      [
        "ste",
        "sen"
      ],
      [
        "tara",
        "f"
      ],
      [
        "taw",
        "aran"
      ],
      [
        "istan",
        "bul"
      ],
      [
        "mengha",
        "biskan"
      ],
      [
        "keru",
        "gian"
      ],
      [
        "geor",
        "ge"
      ],
      [
        "russel",
        "l"
      ],
      [
        "chi",
        "a"
      ],
      [
        "gran",
        "d"
      ],
      [
        "oper",
        "asi"
      ],
      [
        "periba",
        "di"
      ],
      [
        "penam",
        "pilan"
      ],
      [
        "tebu",
        "san"
      ],
      [
        "huku",
        "man"
      ],
      [
        "doku",
        "men"
      ],
      [
        "cincin",
        "nati"
      ],
      [
        "walau",
        "pun"
      ],
      [
        "col",
        "ombia"
      ],
      [
        "eh",
        "wal"
      ],
      [
        "foku",
        "s"
      ],
      [
        "glo",
        "bal"
      ],
      [
        "hon",
        "an"
      ],
      [
        "hung",
        "ary"
      ],
      [
        "imi",
        "gresen"
      ],
      [
        "jus",
        "tin"
      ],
      [
        "mon",
        "sun"
      ],
      [
        "mis",
        "kin"
      ],
      [
        "ny",
        "anyian"
      ],
      [
        "pram",
        "usim"
      ],
      [
        "qair",
        "ina"
      ],
      [
        "sas",
        "ar"
      ],
      [
        "suru",
        "hanjaya"
      ],
      [
        "wuju",
        "d"
      ],
      [
        "you",
        "tu"
      ],
      [
        "ander",
        "son"
      ],
      [
        "integ",
        "riti"
      ],
      [
        "infant",
        "ino"
      ],
      [
        "dija",
        "dual"
      ],
      [
        "digi",
        "tal"
      ],
      [
        "angele",
        "s"
      ],
      [
        "sega",
        "la"
      ],
      [
        "mende",
        "dahkan"
      ],
      [
        "kelan",
        "tan"
      ],
      [
        "keada",
        "an"
      ],
      [
        "kejadi",
        "an"
      ],
      [
        "keteg",
        "angan"
      ],
      [
        "kelaya",
        "kan"
      ],
      [
        "kepenting",
        "an"
      ],
      [
        "kebulu",
        "ran"
      ],
      [
        "kemanusia",
        "an"
      ],
      [
        "keuntung",
        "an"
      ],
      [
        "bersif",
        "at"
      ],
      [
        "situ",
        "asi"
      ],
      [
        "pertan",
        "ian"
      ],
      [
        "permo",
        "honan"
      ],
      [
        "persatu",
        "an"
      ],
      [
        "perbin",
        "cangan"
      ],
      [
        "perikan",
        "an"
      ],
      [
        "peranc",
        "is"
      ],
      [
        "pertaman",
        "ya"
      ],
      [
        "pernia",
        "gaan"
      ],
      [
        "persaha",
        "batan"
      ],
      [
        "terpak",
        "sa"
      ],
      [
        "pendap",
        "atan"
      ],
      [
        "penceg",
        "ahan"
      ],
      [
        "budape",
        "st"
      ],
      [
        "belay",
        "ar"
      ],
      [
        "pelar",
        "asan"
      ],
      [
        "melebi",
        "hi"
      ],
      [
        "memas",
        "tikan"
      ],
      [
        "mempun",
        "yai"
      ],
      [
        "mengandun",
        "gi"
      ],
      [
        "muham",
        "mad"
      ],
      [
        "banglade",
        "sh"
      ],
      [
        "bandara",
        "ya"
      ],
      [
        "merce",
        "des"
      ],
      [
        "menyaksi",
        "kan"
      ],
      [
        "memperkenal",
        "kan"
      ],
      [
        "dikemuka",
        "kan"
      ],
      [
        "heav",
        "y"
      ],
      [
        "munaj",
        "jim"
      ],
      [
        ".",
        "”"
      ],
      [
        "1",
        "5"
      ],
      [
        "1",
        "00"
      ],
      [
        "2",
        "00"
      ],
      [
        "2",
        "24"
      ],
      [
        "3",
        "00"
      ],
      [
        "5",
        "6"
      ],
      [
        "5",
        "7"
      ],
      [
        "6",
        "2"
      ],
      [
        "6",
        "9"
      ],
      [
        "7",
        "00"
      ],
      [
        "7",
        "62"
      ],
      [
        "8",
        "7"
      ],
      [
        "9",
        "00"
      ],
      [
        "a",
        "q"
      ],
      [
        "a",
        "us"
      ],
      [
        "a",
        "pi"
      ],
      [
        "a",
        "de"
      ],
      [
        "a",
        "pan"
      ],
      [
        "a",
        "pal"
      ],
      [
        "a",
        "dira"
      ],
      [
        "a",
        "baikan"
      ],
      [
        "b",
        "c"
      ],
      [
        "b",
        "p"
      ],
      [
        "b",
        "t"
      ],
      [
        "b",
        "ara"
      ],
      [
        "b",
        "ru"
      ],
      [
        "b",
        "ris"
      ],
      [
        "b",
        "russel"
      ],
      [
        "b",
        "haru"
      ],
      [
        "c",
        "r"
      ],
      [
        "c",
        "al"
      ],
      [
        "c",
        "ak"
      ],
      [
        "c",
        "or"
      ],
      [
        "c",
        "eng"
      ],
      [
        "c",
        "os"
      ],
      [
        "c",
        "ana"
      ],
      [
        "c",
        "ris"
      ],
      [
        "c",
        "elon"
      ],
      [
        "d",
        "n"
      ],
      [
        "d",
        "us"
      ],
      [
        "d",
        "ra"
      ],
      [
        "d",
        "ol"
      ],
      [
        "d",
        "ram"
      ],
      [
        "d",
        "jo"
      ],
      [
        "d",
        "hak"
      ],
      [
        "d",
        "ort"
      ],
      [
        "e",
        "d"
      ],
      [
        "e",
        "em"
      ],
      [
        "e",
        "po"
      ],
      [
        "e",
        "dah"
      ],
      [
        "e",
        "jen"
      ],
      [
        "e",
        "cc"
      ],
      [
        "e",
        "hati"
      ],
      [
        "e",
        "ven"
      ],
      [
        "f",
        "m"
      ],
      [
        "f",
        "o"
      ],
      [
        "f",
        "in"
      ],
      [
        "f",
        "on"
      ],
      [
        "f",
        "nya"
      ],
      [
        "f",
        "aki"
      ],
      [
        "f",
        "atkan"
      ],
      [
        "f",
        "taran"
      ],
      [
        "f",
        "era"
      ],
      [
        "g",
        "h"
      ],
      [
        "g",
        "n"
      ],
      [
        "g",
        "angan"
      ],
      [
        "g",
        "aran"
      ],
      [
        "g",
        "alan"
      ],
      [
        "g",
        "emp"
      ],
      [
        "g",
        "ina"
      ],
      [
        "g",
        "kang"
      ],
      [
        "g",
        "bc"
      ],
      [
        "h",
        "en"
      ],
      [
        "h",
        "ang"
      ],
      [
        "h",
        "em"
      ],
      [
        "i",
        "t"
      ],
      [
        "i",
        "da"
      ],
      [
        "i",
        "us"
      ],
      [
        "i",
        "de"
      ],
      [
        "i",
        "re"
      ],
      [
        "i",
        "po"
      ],
      [
        "i",
        "man"
      ],
      [
        "i",
        "ran"
      ],
      [
        "i",
        "tz"
      ],
      [
        "i",
        "cr"
      ],
      [
        "i",
        "fatkan"
      ],
      [
        "j",
        "l"
      ],
      [
        "j",
        "in"
      ],
      [
        "j",
        "al"
      ],
      [
        "j",
        "ara"
      ],
      [
        "j",
        "mi"
      ],
      [
        "j",
        "ati"
      ],
      [
        "j",
        "askan"
      ],
      [
        "j",
        "antung"
      ],
      [
        "k",
        "n"
      ],
      [
        "k",
        "w"
      ],
      [
        "k",
        "y"
      ],
      [
        "k",
        "la"
      ],
      [
        "k",
        "si"
      ],
      [
        "k",
        "ti"
      ],
      [
        "k",
        "ara"
      ],
      [
        "k",
        "ha"
      ],
      [
        "k",
        "is"
      ],
      [
        "k",
        "atan"
      ],
      [
        "k",
        "asa"
      ],
      [
        "k",
        "atkan"
      ],
      [
        "k",
        "has"
      ],
      [
        "k",
        "pk"
      ],
      [
        "k",
        "pt"
      ],
      [
        "k",
        "rai"
      ],
      [
        "k",
        "cup"
      ],
      [
        "l",
        "ma"
      ],
      [
        "l",
        "ari"
      ],
      [
        "l",
        "ung"
      ],
      [
        "m",
        "k"
      ],
      [
        "m",
        "m"
      ],
      [
        "m",
        "or"
      ],
      [
        "m",
        "bu"
      ],
      [
        "m",
        "ik"
      ],
      [
        "m",
        "bang"
      ],
      [
        "m",
        "aru"
      ],
      [
        "m",
        "ati"
      ],
      [
        "m",
        "und"
      ],
      [
        "n",
        "ar"
      ],
      [
        "n",
        "gu"
      ],
      [
        "o",
        "gi"
      ],
      [
        "o",
        "peng"
      ],
      [
        "o",
        "ser"
      ],
      [
        "o",
        "kong"
      ],
      [
        "p",
        "n"
      ],
      [
        "p",
        "p"
      ],
      [
        "p",
        "at"
      ],
      [
        "p",
        "ati"
      ],
      [
        "p",
        "so"
      ],
      [
        "p",
        "aris"
      ],
      [
        "p",
        "bt"
      ],
      [
        "q",
        "u"
      ],
      [
        "q",
        "is"
      ],
      [
        "q",
        "ui"
      ],
      [
        "q",
        "dis"
      ],
      [
        "r",
        "g"
      ],
      [
        "r",
        "y"
      ],
      [
        "r",
        "ing"
      ],
      [
        "s",
        "ya"
      ],
      [
        "s",
        "pe"
      ],
      [
        "s",
        "ha"
      ],
      [
        "s",
        "aki"
      ],
      [
        "s",
        "hu"
      ],
      [
        "s",
        "cam"
      ],
      [
        "s",
        "asaran"
      ],
      [
        "s",
        "field"
      ],
      [
        "s",
        "under"
      ],
      [
        "s",
        "dn"
      ],
      [
        "s",
        "mk"
      ],
      [
        "s",
        "rg"
      ],
      [
        "t",
        "v"
      ],
      [
        "t",
        "ri"
      ],
      [
        "t",
        "ho"
      ],
      [
        "t",
        "haus"
      ],
      [
        "u",
        "b"
      ],
      [
        "u",
        "la"
      ],
      [
        "u",
        "ku"
      ],
      [
        "u",
        "ka"
      ],
      [
        "u",
        "ger"
      ],
      [
        "u",
        "jang"
      ],
      [
        "u",
        "ddin"
      ],
      [
        "v",
        "o"
      ],
      [
        "v",
        "ar"
      ],
      [
        "v",
        "isy"
      ],
      [
        "w",
        "ol"
      ],
      [
        "w",
        "aki"
      ],
      [
        "w",
        "il"
      ],
      [
        "w",
        "est"
      ],
      [
        "w",
        "oo"
      ],
      [
        "x",
        "in"
      ],
      [
        "y",
        "e"
      ],
      [
        "y",
        "an"
      ],
      [
        "y",
        "un"
      ],
      [
        "y",
        "or"
      ],
      [
        "z",
        "an"
      ],
      [
        "z",
        "har"
      ],
      [
        "z",
        "ul"
      ],
      [
        "z",
        "ep"
      ],
      [
        "’",
        "."
      ],
      [
        "…",
        "."
      ],
      [
        "an",
        "d"
      ],
      [
        "an",
        "da"
      ],
      [
        "an",
        "ku"
      ],
      [
        "an",
        "tau"
      ],
      [
        "an",
        "jing"
      ],
      [
        "an",
        "dat"
      ],
      [
        "an",
        "uger"
      ],
      [
        "er",
        "us"
      ],
      [
        "er",
        "ik"
      ],
      [
        "er",
        "nie"
      ],
      [
        "en",
        "tian"
      ],
      [
        "ar",
        "ak"
      ],
      [
        "ar",
        "gen"
      ],
      [
        "la",
        "l"
      ],
      [
        "la",
        "ke"
      ],
      [
        "la",
        "ka"
      ],
      [
        "la",
        "hi"
      ],
      [
        "la",
        "ut"
      ],
      [
        "la",
        "jar"
      ],
      [
        "la",
        "wak"
      ],
      [
        "la",
        "hir"
      ],
      [
        "la",
        "had"
      ],
      [
        "la",
        "fc"
      ],
      [
        "in",
        "e"
      ],
      [
        "in",
        "an"
      ],
      [
        "in",
        "at"
      ],
      [
        "in",
        "dah"
      ],
      [
        "in",
        "ve"
      ],
      [
        "in",
        "dus"
      ],
      [
        "in",
        "kcup"
      ],
      [
        "in",
        "uddin"
      ],
      [
        "at",
        "o"
      ],
      [
        "at",
        "ka"
      ],
      [
        "at",
        "ik"
      ],
      [
        "at",
        "asi"
      ],
      [
        "at",
        "hir"
      ],
      [
        "at",
        "uran"
      ],
      [
        "di",
        "f"
      ],
      [
        "di",
        "u"
      ],
      [
        "di",
        "se"
      ],
      [
        "di",
        "as"
      ],
      [
        "di",
        "li"
      ],
      [
        "di",
        "beli"
      ],
      [
        "di",
        "aman"
      ],
      [
        "di",
        "ram"
      ],
      [
        "di",
        "har"
      ],
      [
        "di",
        "pengaru"
      ],
      [
        "di",
        "buka"
      ],
      [
        "di",
        "gesa"
      ],
      [
        "di",
        "lihat"
      ],
      [
        "di",
        "sip"
      ],
      [
        "di",
        "tung"
      ],
      [
        "di",
        "gantung"
      ],
      [
        "di",
        "kaji"
      ],
      [
        "di",
        "ugut"
      ],
      [
        "di",
        "bincangkan"
      ],
      [
        "di",
        "bebaskan"
      ],
      [
        "di",
        "lantik"
      ],
      [
        "di",
        "kenakan"
      ],
      [
        "di",
        "lahir"
      ],
      [
        "ang",
        "in"
      ],
      [
        "ang",
        "gu"
      ],
      [
        "se",
        "ku"
      ],
      [
        "se",
        "pe"
      ],
      [
        "se",
        "is"
      ],
      [
        "se",
        "mu"
      ],
      [
        "se",
        "su"
      ],
      [
        "se",
        "tahun"
      ],
      [
        "se",
        "dar"
      ],
      [
        "se",
        "lalu"
      ],
      [
        "se",
        "lar"
      ],
      [
        "se",
        "har"
      ],
      [
        "se",
        "bay"
      ],
      [
        "se",
        "tak"
      ],
      [
        "se",
        "gam"
      ],
      [
        "se",
        "baha"
      ],
      [
        "se",
        "syen"
      ],
      [
        "se",
        "pasukannya"
      ],
      [
        "se",
        "botol"
      ],
      [
        "se",
        "lia"
      ],
      [
        "se",
        "jati"
      ],
      [
        "ma",
        "c"
      ],
      [
        "ma",
        "m"
      ],
      [
        "ma",
        "u"
      ],
      [
        "ma",
        "sy"
      ],
      [
        "ma",
        "gu"
      ],
      [
        "ma",
        "kin"
      ],
      [
        "ma",
        "laya"
      ],
      [
        "ma",
        "gn"
      ],
      [
        "da",
        "mai"
      ],
      [
        "da",
        "erah"
      ],
      [
        "da",
        "ftaran"
      ],
      [
        "da",
        "gangan"
      ],
      [
        "men",
        "em"
      ],
      [
        "men",
        "eng"
      ],
      [
        "men",
        "dalam"
      ],
      [
        "men",
        "jaya"
      ],
      [
        "men",
        "aw"
      ],
      [
        "men",
        "jamin"
      ],
      [
        "men",
        "im"
      ],
      [
        "men",
        "ep"
      ],
      [
        "men",
        "dat"
      ],
      [
        "men",
        "aiki"
      ],
      [
        "men",
        "andat"
      ],
      [
        "men",
        "erus"
      ],
      [
        "as",
        "y"
      ],
      [
        "as",
        "akan"
      ],
      [
        "as",
        "arkan"
      ],
      [
        "as",
        "ram"
      ],
      [
        "as",
        "ingan"
      ],
      [
        "un",
        "kan"
      ],
      [
        "un",
        "ci"
      ],
      [
        "un",
        "sur"
      ],
      [
        "ke",
        "ma"
      ],
      [
        "ke",
        "ber"
      ],
      [
        "ke",
        "ku"
      ],
      [
        "ke",
        "pa"
      ],
      [
        "ke",
        "ga"
      ],
      [
        "ke",
        "du"
      ],
      [
        "ke",
        "gi"
      ],
      [
        "ke",
        "aman"
      ],
      [
        "ke",
        "ce"
      ],
      [
        "ke",
        "ten"
      ],
      [
        "ke",
        "lih"
      ],
      [
        "ke",
        "yakin"
      ],
      [
        "ke",
        "can"
      ],
      [
        "ke",
        "muka"
      ],
      [
        "ke",
        "pri"
      ],
      [
        "ke",
        "padanya"
      ],
      [
        "ke",
        "lahi"
      ],
      [
        "ke",
        "diaman"
      ],
      [
        "em",
        "ber"
      ],
      [
        "em",
        "bara"
      ],
      [
        "ber",
        "e"
      ],
      [
        "ber",
        "ban"
      ],
      [
        "ber",
        "jan"
      ],
      [
        "ber",
        "war"
      ],
      [
        "ber",
        "tem"
      ],
      [
        "ber",
        "terus"
      ],
      [
        "ber",
        "syarat"
      ],
      [
        "ber",
        "bakat"
      ],
      [
        "ber",
        "korban"
      ],
      [
        "ber",
        "keca"
      ],
      [
        "ber",
        "saing"
      ],
      [
        "ber",
        "jum"
      ],
      [
        "ber",
        "setuju"
      ],
      [
        "ber",
        "dasar"
      ],
      [
        "ber",
        "taraf"
      ],
      [
        "ber",
        "asingan"
      ],
      [
        "ber",
        "keku"
      ],
      [
        "si",
        "t"
      ],
      [
        "si",
        "ar"
      ],
      [
        "si",
        "ang"
      ],
      [
        "si",
        "am"
      ],
      [
        "si",
        "on"
      ],
      [
        "si",
        "ji"
      ],
      [
        "si",
        "kal"
      ],
      [
        "al",
        "do"
      ],
      [
        "al",
        "hada"
      ],
      [
        "per",
        "lis"
      ],
      [
        "per",
        "lum"
      ],
      [
        "per",
        "os"
      ],
      [
        "per",
        "mula"
      ],
      [
        "per",
        "main"
      ],
      [
        "per",
        "eka"
      ],
      [
        "per",
        "lin"
      ],
      [
        "per",
        "khid"
      ],
      [
        "per",
        "kenal"
      ],
      [
        "per",
        "unci"
      ],
      [
        "am",
        "i"
      ],
      [
        "am",
        "ar"
      ],
      [
        "am",
        "pas"
      ],
      [
        "am",
        "el"
      ],
      [
        "am",
        "bang"
      ],
      [
        "am",
        "puan"
      ],
      [
        "am",
        "ir"
      ],
      [
        "am",
        "but"
      ],
      [
        "am",
        "bilan"
      ],
      [
        "tu",
        "t"
      ],
      [
        "tu",
        "ru"
      ],
      [
        "tu",
        "gal"
      ],
      [
        "tu",
        "gas"
      ],
      [
        "tu",
        "mbu"
      ],
      [
        "tu",
        "anku"
      ],
      [
        "ak",
        "kan"
      ],
      [
        "ak",
        "han"
      ],
      [
        "ku",
        "p"
      ],
      [
        "ku",
        "da"
      ],
      [
        "ku",
        "atkan"
      ],
      [
        "ku",
        "bur"
      ],
      [
        "le",
        "ka"
      ],
      [
        "le",
        "st"
      ],
      [
        "le",
        "mak"
      ],
      [
        "lu",
        "ahan"
      ],
      [
        "lu",
        "askan"
      ],
      [
        "ter",
        "ci"
      ],
      [
        "ter",
        "jadi"
      ],
      [
        "ter",
        "so"
      ],
      [
        "ter",
        "dekat"
      ],
      [
        "ter",
        "inya"
      ],
      [
        "ter",
        "pendek"
      ],
      [
        "ter",
        "gug"
      ],
      [
        "ter",
        "kawal"
      ],
      [
        "ter",
        "korban"
      ],
      [
        "ti",
        "h"
      ],
      [
        "ti",
        "ang"
      ],
      [
        "ti",
        "ka"
      ],
      [
        "ti",
        "ba"
      ],
      [
        "ti",
        "ara"
      ],
      [
        "ti",
        "han"
      ],
      [
        "ti",
        "fnya"
      ],
      [
        "ti",
        "tut"
      ],
      [
        "pen",
        "ung"
      ],
      [
        "pen",
        "ca"
      ],
      [
        "pen",
        "dakwa"
      ],
      [
        "pen",
        "dudu"
      ],
      [
        "pen",
        "diri"
      ],
      [
        "pen",
        "ahan"
      ],
      [
        "pen",
        "cen"
      ],
      [
        "pen",
        "jara"
      ],
      [
        "pen",
        "daftaran"
      ],
      [
        "li",
        "an"
      ],
      [
        "li",
        "pi"
      ],
      [
        "li",
        "ve"
      ],
      [
        "li",
        "ot"
      ],
      [
        "li",
        "gat"
      ],
      [
        "ta",
        "p"
      ],
      [
        "ta",
        "pi"
      ],
      [
        "ta",
        "ian"
      ],
      [
        "ta",
        "pak"
      ],
      [
        "ta",
        "fa"
      ],
      [
        "ta",
        "gram"
      ],
      [
        "pa",
        "u"
      ],
      [
        "pa",
        "wa"
      ],
      [
        "pa",
        "gar"
      ],
      [
        "on",
        "e"
      ],
      [
        "on",
        "gan"
      ],
      [
        "on",
        "im"
      ],
      [
        "on",
        "lin"
      ],
      [
        "ur",
        "angkan"
      ],
      [
        "ya",
        "an"
      ],
      [
        "or",
        "angan"
      ],
      [
        "ka",
        "p"
      ],
      [
        "ka",
        "un"
      ],
      [
        "ka",
        "pal"
      ],
      [
        "ka",
        "pak"
      ],
      [
        "ka",
        "jian"
      ],
      [
        "ka",
        "pkan"
      ],
      [
        "ga",
        "kan"
      ],
      [
        "bu",
        "il"
      ],
      [
        "bu",
        "jang"
      ],
      [
        "bu",
        "kti"
      ],
      [
        "ja",
        "annya"
      ],
      [
        "ari",
        "ff"
      ],
      [
        "ba",
        "itu"
      ],
      [
        "ba",
        "do"
      ],
      [
        "ba",
        "wah"
      ],
      [
        "ba",
        "las"
      ],
      [
        "be",
        "su"
      ],
      [
        "be",
        "ban"
      ],
      [
        "be",
        "dahan"
      ],
      [
        "be",
        "lajar"
      ],
      [
        "pe",
        "lang"
      ],
      [
        "pe",
        "sara"
      ],
      [
        "pe",
        "tir"
      ],
      [
        "pe",
        "mal"
      ],
      [
        "pe",
        "menang"
      ],
      [
        "pe",
        "maka"
      ],
      [
        "pe",
        "lumba"
      ],
      [
        "sa",
        "lah"
      ],
      [
        "sa",
        "int"
      ],
      [
        "sa",
        "bado"
      ],
      [
        "ara",
        "i"
      ],
      [
        "lam",
        "pau"
      ],
      [
        "bi",
        "s"
      ],
      [
        "bi",
        "ada"
      ],
      [
        "bi",
        "san"
      ],
      [
        "bi",
        "asa"
      ],
      [
        "bi",
        "mbang"
      ],
      [
        "me",
        "ga"
      ],
      [
        "me",
        "dan"
      ],
      [
        "me",
        "lapor"
      ],
      [
        "me",
        "yakin"
      ],
      [
        "me",
        "wah"
      ],
      [
        "me",
        "menang"
      ],
      [
        "me",
        "laka"
      ],
      [
        "mem",
        "bang"
      ],
      [
        "mem",
        "boleh"
      ],
      [
        "mem",
        "buru"
      ],
      [
        "mem",
        "benarkan"
      ],
      [
        "mem",
        "bincangkan"
      ],
      [
        "mem",
        "usnah"
      ],
      [
        "mem",
        "bida"
      ],
      [
[...]
